{
  "version": "1.0",
  "truncation": null,
  "padding": null,
  "added_tokens": [
    {
      "id": 0,
      "content": "<pad>",
      "single_word": false,
      "lstrip": false,
      "rstrip": false,
      "normalized": false,
      "special": true
    },
    {
      "id": 1,
      "content": "<eos>",
      "single_word": false,
      "lstrip": false,
      "rstrip": false,
      "normalized": false,
      "special": true
    },
    {
      "id": 2,
      "content": "<unk>",
      "single_word": false,
      "lstrip": false,
      "rstrip": false,
      "normalized": false,
      "special": true
    }
  ],
  "normalizer": null,
  "pre_tokenizer": {
    "type": "Split",
    "pattern": {
      "String": "\\s"
    },
    "behavior": "MergedWithPrevious",
    "invert": false
  },
  "post_processor": null,
  "decoder": null,
  "model": {
    "type": "BPE",
    "dropout": null,
    "unk_token": "<unk>",
    "continuing_subword_prefix": null,
    "end_of_word_suffix": null,
    "fuse_unk": false,
    "byte_fallback": false,
    "ignore_merges": false,
    "vocab": {
      "<pad>": 0,
      "<eos>": 1,
      "<unk>": 2,
      "\n": 3,
      " ": 4,
      "!": 5,
      "\"": 6,
      "#": 7,
      "$": 8,
      "%": 9,
      "&": 10,
      "'": 11,
      "(": 12,
      ")": 13,
      "*": 14,
      "+": 15,
      ",": 16,
      "-": 17,
      ".": 18,
      "/": 19,
      "0": 20,
      "1": 21,
      "2": 22,
      "3": 23,
      "4": 24,
      "5": 25,
      "6": 26,
      "7": 27,
      "8": 28,
      "9": 29,
      ":": 30,
      ";": 31,
      "<": 32,
      "=": 33,
      ">": 34,
      "?": 35,
      "@": 36,
      "A": 37,
      "B": 38,
      "C": 39,
      "D": 40,
      "E": 41,
      "F": 42,
      "G": 43,
      "H": 44,
      "I": 45,
      "J": 46,
      "K": 47,
      "L": 48,
      "M": 49,
      "N": 50,
      "O": 51,
      "P": 52,
      "Q": 53,
      "R": 54,
      "S": 55,
      "T": 56,
      "U": 57,
      "V": 58,
      "W": 59,
      "X": 60,
      "Y": 61,
      "Z": 62,
      "[": 63,
      "\\": 64,
      "]": 65,
      "^": 66,
      "_": 67,
      "`": 68,
      "a": 69,
      "b": 70,
      "c": 71,
      "d": 72,
      "e": 73,
      "f": 74,
      "g": 75,
      "h": 76,
      "i": 77,
      "j": 78,
      "k": 79,
      "l": 80,
      "m": 81,
      "n": 82,
      "o": 83,
      "p": 84,
      "q": 85,
      "r": 86,
      "s": 87,
      "t": 88,
      "u": 89,
      "v": 90,
      "w": 91,
      "x": 92,
      "y": 93,
      "z": 94,
      "{": 95,
      "|": 96,
      "}": 97,
      "~": 98,
      "": 99,
      "": 100,
      "": 101,
      "": 102,
      "": 103,
      "": 104,
      "": 105,
      "": 106,
      "": 107,
      "": 108,
      "": 109,
      "": 110,
      "": 111,
      "": 112,
      "": 113,
      "¡": 114,
      "¢": 115,
      "£": 116,
      "¤": 117,
      "¥": 118,
      "¦": 119,
      "§": 120,
      "¨": 121,
      "©": 122,
      "ª": 123,
      "«": 124,
      "¬": 125,
      "­": 126,
      "®": 127,
      "¯": 128,
      "°": 129,
      "±": 130,
      "²": 131,
      "³": 132,
      "´": 133,
      "µ": 134,
      "¶": 135,
      "·": 136,
      "¸": 137,
      "¹": 138,
      "º": 139,
      "»": 140,
      "¼": 141,
      "½": 142,
      "¾": 143,
      "¿": 144,
      "À": 145,
      "Á": 146,
      "Â": 147,
      "Ã": 148,
      "Ä": 149,
      "Å": 150,
      "Æ": 151,
      "Ç": 152,
      "È": 153,
      "É": 154,
      "Í": 155,
      "Î": 156,
      "Ï": 157,
      "Ñ": 158,
      "Ó": 159,
      "Õ": 160,
      "Ö": 161,
      "×": 162,
      "Ø": 163,
      "Ú": 164,
      "Ü": 165,
      "Þ": 166,
      "ß": 167,
      "à": 168,
      "á": 169,
      "â": 170,
      "ã": 171,
      "ä": 172,
      "å": 173,
      "æ": 174,
      "ç": 175,
      "è": 176,
      "é": 177,
      "ê": 178,
      "ë": 179,
      "ì": 180,
      "í": 181,
      "î": 182,
      "ï": 183,
      "ð": 184,
      "ñ": 185,
      "ò": 186,
      "ó": 187,
      "ô": 188,
      "õ": 189,
      "ö": 190,
      "÷": 191,
      "ø": 192,
      "ù": 193,
      "ú": 194,
      "û": 195,
      "ü": 196,
      "ý": 197,
      "ÿ": 198,
      "Ā": 199,
      "ā": 200,
      "Ă": 201,
      "ă": 202,
      "ą": 203,
      "Ć": 204,
      "ć": 205,
      "Č": 206,
      "č": 207,
      "ď": 208,
      "Đ": 209,
      "đ": 210,
      "ē": 211,
      "ė": 212,
      "ę": 213,
      "ě": 214,
      "ğ": 215,
      "Ģ": 216,
      "ĥ": 217,
      "ħ": 218,
      "ĩ": 219,
      "ī": 220,
      "İ": 221,
      "ı": 222,
      "Ł": 223,
      "ł": 224,
      "ń": 225,
      "ň": 226,
      "ŋ": 227,
      "Ō": 228,
      "ō": 229,
      "ő": 230,
      "œ": 231,
      "Ř": 232,
      "ř": 233,
      "Ś": 234,
      "ś": 235,
      "Ş": 236,
      "ş": 237,
      "Š": 238,
      "š": 239,
      "Ţ": 240,
      "ţ": 241,
      "Ŧ": 242,
      "ŧ": 243,
      "ū": 244,
      "ŭ": 245,
      "ů": 246,
      "ų": 247,
      "ŷ": 248,
      "ź": 249,
      "ż": 250,
      "Ž": 251,
      "ž": 252,
      "ư": 253,
      "ǎ": 254,
      "ǐ": 255,
      "ǔ": 256,
      "ǘ": 257,
      "ǜ": 258,
      "Ș": 259,
      "ș": 260,
      "Ț": 261,
      "ț": 262,
      "ɂ": 263,
      "ɐ": 264,
      "ɔ": 265,
      "ə": 266,
      "ɛ": 267,
      "ɡ": 268,
      "ɢ": 269,
      "ɣ": 270,
      "ɪ": 271,
      "ɫ": 272,
      "ɯ": 273,
      "ɾ": 274,
      "ʁ": 275,
      "ʃ": 276,
      "ʊ": 277,
      "ʏ": 278,
      "ʙ": 279,
      "ʜ": 280,
      "ʲ": 281,
      "ʻ": 282,
      "ʿ": 283,
      "ˀ": 284,
      "ˇ": 285,
      "ˈ": 286,
      "ˉ": 287,
      "ˊ": 288,
      "ˋ": 289,
      "ː": 290,
      "˙": 291,
      "˚": 292,
      "˜": 293,
      "˵": 294,
      "˶": 295,
      "̀": 296,
      "́": 297,
      "̂": 298,
      "̄": 299,
      "̈": 300,
      "̊": 301,
      "̥": 302,
      "̫": 303,
      "̶": 304,
      "Α": 305,
      "Β": 306,
      "Γ": 307,
      "Δ": 308,
      "Ε": 309,
      "Ζ": 310,
      "Η": 311,
      "Θ": 312,
      "Ι": 313,
      "Κ": 314,
      "Λ": 315,
      "Μ": 316,
      "Ν": 317,
      "Ξ": 318,
      "Ο": 319,
      "Π": 320,
      "Ρ": 321,
      "Σ": 322,
      "Τ": 323,
      "Υ": 324,
      "Χ": 325,
      "Ω": 326,
      "ά": 327,
      "έ": 328,
      "ή": 329,
      "ί": 330,
      "α": 331,
      "β": 332,
      "γ": 333,
      "δ": 334,
      "ε": 335,
      "ζ": 336,
      "η": 337,
      "θ": 338,
      "ι": 339,
      "κ": 340,
      "λ": 341,
      "μ": 342,
      "ν": 343,
      "ξ": 344,
      "ο": 345,
      "π": 346,
      "ρ": 347,
      "ς": 348,
      "σ": 349,
      "τ": 350,
      "υ": 351,
      "φ": 352,
      "χ": 353,
      "ψ": 354,
      "ω": 355,
      "ό": 356,
      "ύ": 357,
      "ώ": 358,
      "ϕ": 359,
      "Ϝ": 360,
      "ϵ": 361,
      "А": 362,
      "Б": 363,
      "В": 364,
      "Г": 365,
      "Д": 366,
      "Ж": 367,
      "З": 368,
      "И": 369,
      "К": 370,
      "Л": 371,
      "М": 372,
      "Н": 373,
      "О": 374,
      "П": 375,
      "Р": 376,
      "С": 377,
      "Т": 378,
      "У": 379,
      "Ф": 380,
      "Х": 381,
      "Ц": 382,
      "Ч": 383,
      "Э": 384,
      "Ю": 385,
      "Я": 386,
      "а": 387,
      "б": 388,
      "в": 389,
      "г": 390,
      "д": 391,
      "е": 392,
      "ж": 393,
      "з": 394,
      "и": 395,
      "й": 396,
      "к": 397,
      "л": 398,
      "м": 399,
      "н": 400,
      "о": 401,
      "п": 402,
      "р": 403,
      "с": 404,
      "т": 405,
      "у": 406,
      "ф": 407,
      "х": 408,
      "ц": 409,
      "ч": 410,
      "ш": 411,
      "щ": 412,
      "ъ": 413,
      "ы": 414,
      "ь": 415,
      "э": 416,
      "ю": 417,
      "я": 418,
      "ё": 419,
      "і": 420,
      "ї": 421,
      "ա": 422,
      "ե": 423,
      "հ": 424,
      "յ": 425,
      "ն": 426,
      "ր": 427,
      "ּ": 428,
      "א": 429,
      "ב": 430,
      "ג": 431,
      "ד": 432,
      "ה": 433,
      "ו": 434,
      "ז": 435,
      "ח": 436,
      "ט": 437,
      "י": 438,
      "כ": 439,
      "ל": 440,
      "ם": 441,
      "מ": 442,
      "ן": 443,
      "נ": 444,
      "ס": 445,
      "ע": 446,
      "פ": 447,
      "צ": 448,
      "ק": 449,
      "ר": 450,
      "ש": 451,
      "ת": 452,
      "ױ": 453,
      "،": 454,
      "آ": 455,
      "أ": 456,
      "إ": 457,
      "ئ": 458,
      "ا": 459,
      "ب": 460,
      "ة": 461,
      "ت": 462,
      "ث": 463,
      "ج": 464,
      "ح": 465,
      "خ": 466,
      "د": 467,
      "ر": 468,
      "ز": 469,
      "س": 470,
      "ش": 471,
      "ص": 472,
      "ض": 473,
      "ط": 474,
      "ظ": 475,
      "ع": 476,
      "غ": 477,
      "ف": 478,
      "ق": 479,
      "ك": 480,
      "ل": 481,
      "م": 482,
      "ن": 483,
      "ه": 484,
      "و": 485,
      "ى": 486,
      "ي": 487,
      "َ": 488,
      "ِ": 489,
      "ّ": 490,
      "ْ": 491,
      "پ": 492,
      "چ": 493,
      "ڑ": 494,
      "ښ": 495,
      "ک": 496,
      "گ": 497,
      "ھ": 498,
      "ی": 499,
      "ے": 500,
      "ە": 501,
      "۰": 502,
      "۱": 503,
      "ܐ": 504,
      "ܓ": 505,
      "ܙ": 506,
      "ܢ": 507,
      "ܥ": 508,
      "ܪ": 509,
      "ं": 510,
      "ई": 511,
      "क": 512,
      "ख": 513,
      "ठ": 514,
      "ड": 515,
      "त": 516,
      "द": 517,
      "न": 518,
      "भ": 519,
      "म": 520,
      "य": 521,
      "र": 522,
      "ल": 523,
      "व": 524,
      "स": 525,
      "ह": 526,
      "ा": 527,
      "ि": 528,
      "ी": 529,
      "ु": 530,
      "ू": 531,
      "ॆ": 532,
      "े": 533,
      "ै": 534,
      "्": 535,
      "ং": 536,
      "ব": 537,
      "ল": 538,
      "া": 539,
      "ਂ": 540,
      "ਈ": 541,
      "ਕ": 542,
      "ਖ": 543,
      "ਜ": 544,
      "ਤ": 545,
      "ਦ": 546,
      "ਪ": 547,
      "ਬ": 548,
      "ਰ": 549,
      "ਲ": 550,
      "ਸ": 551,
      "ਾ": 552,
      "ਿ": 553,
      "ੀ": 554,
      "ੇ": 555,
      "ੰ": 556,
      "ગ": 557,
      "જ": 558,
      "ત": 559,
      "ર": 560,
      "ા": 561,
      "ી": 562,
      "ુ": 563,
      "த": 564,
      "ம": 565,
      "ழ": 566,
      "ி": 567,
      "்": 568,
      "ಠ": 569,
      "ං": 570,
      "ල": 571,
      "ස": 572,
      "හ": 573,
      "ි": 574,
      "ก": 575,
      "ข": 576,
      "ง": 577,
      "ด": 578,
      "ท": 579,
      "น": 580,
      "ป": 581,
      "ภ": 582,
      "ม": 583,
      "ย": 584,
      "ล": 585,
      "ว": 586,
      "ษ": 587,
      "ส": 588,
      "อ": 589,
      "า": 590,
      "ำ": 591,
      "ี": 592,
      "ใ": 593,
      "ไ": 594,
      "้": 595,
      "န": 596,
      "ဘ": 597,
      "မ": 598,
      "သ": 599,
      "ာ": 600,
      "်": 601,
      "ြ": 602,
      "ა": 603,
      "ე": 604,
      "თ": 605,
      "ი": 606,
      "ლ": 607,
      "ნ": 608,
      "რ": 609,
      "უ": 610,
      "ქ": 611,
      "ሐ": 612,
      "መ": 613,
      "ማ": 614,
      "ም": 615,
      "ር": 616,
      "ብ": 617,
      "ን": 618,
      "ኛ": 619,
      "አ": 620,
      "ያ": 621,
      "ድ": 622,
      "Ꮎ": 623,
      "Ꮟ": 624,
      "Ꮤ": 625,
      "ᐅ": 626,
      "ᐊ": 627,
      "ᑎ": 628,
      "ᑐ": 629,
      "ᑕ": 630,
      "ᑦ": 631,
      "ᑰ": 632,
      "ᒋ": 633,
      "ᒪ": 634,
      "ᒻ": 635,
      "ᓂ": 636,
      "ᓇ": 637,
      "ᓯ": 638,
      "ᓴ": 639,
      "ᔉ": 640,
      "ᔊ": 641,
      "ᔵ": 642,
      "ᔺ": 643,
      "ᕈ": 644,
      "ᕋ": 645,
      "ᕐ": 646,
      "ᖅ": 647,
      "ᖏ": 648,
      "ᴀ": 649,
      "ᴏ": 650,
      "ᴛ": 651,
      "᷄": 652,
      "᷅": 653,
      "ḍ": 654,
      "Ḥ": 655,
      "ḥ": 656,
      "ḷ": 657,
      "ṁ": 658,
      "ṃ": 659,
      "ṇ": 660,
      "ṛ": 661,
      "Ṣ": 662,
      "ṣ": 663,
      "ṭ": 664,
      "ả": 665,
      "ấ": 666,
      "ắ": 667,
      "ẹ": 668,
      "ế": 669,
      "ễ": 670,
      "ệ": 671,
      "ọ": 672,
      "ớ": 673,
      "ứ": 674,
      "ữ": 675,
      "ἀ": 676,
      "ἁ": 677,
      "ἄ": 678,
      "Ἄ": 679,
      "ἐ": 680,
      "ἔ": 681,
      "Ἑ": 682,
      "ἢ": 683,
      "ἤ": 684,
      "ἥ": 685,
      "ἰ": 686,
      "ἴ": 687,
      "ἵ": 688,
      "ὀ": 689,
      "ὁ": 690,
      "ὄ": 691,
      "ὐ": 692,
      "ὑ": 693,
      "ὕ": 694,
      "ὥ": 695,
      "ὶ": 696,
      "ὸ": 697,
      "ὺ": 698,
      "᾽": 699,
      "ῆ": 700,
      "ῖ": 701,
      "ῥ": 702,
      "ῦ": 703,
      "ῶ": 704,
      " ": 705,
      " ": 706,
      " ": 707,
      "​": 708,
      "‌": 709,
      "‍": 710,
      "‎": 711,
      "‏": 712,
      "‐": 713,
      "‑": 714,
      "–": 715,
      "—": 716,
      "―": 717,
      "‖": 718,
      "‘": 719,
      "’": 720,
      "‚": 721,
      "“": 722,
      "”": 723,
      "„": 724,
      "†": 725,
      "•": 726,
      "…": 727,
      "‧": 728,
      "‪": 729,
      "‭": 730,
      "‮": 731,
      "‰": 732,
      "′": 733,
      "″": 734,
      "‵": 735,
      "‹": 736,
      "›": 737,
      "※": 738,
      "‼": 739,
      "‾": 740,
      "⁄": 741,
      "⁡": 742,
      "⁻": 743,
      "₂": 744,
      "₤": 745,
      "€": 746,
      "₱": 747,
      "₹": 748,
      "⃣": 749,
      "℃": 750,
      "℅": 751,
      "℉": 752,
      "ℑ": 753,
      "℘": 754,
      "ℜ": 755,
      "℠": 756,
      "™": 757,
      "ℵ": 758,
      "ℶ": 759,
      "⅓": 760,
      "⅜": 761,
      "ⅰ": 762,
      "ⅱ": 763,
      "ⅲ": 764,
      "ⅳ": 765,
      "ⅴ": 766,
      "ⅵ": 767,
      "ⅷ": 768,
      "ⅹ": 769,
      "ⅺ": 770,
      "←": 771,
      "↑": 772,
      "→": 773,
      "↓": 774,
      "↔": 775,
      "↗": 776,
      "↘": 777,
      "↦": 778,
      "↩": 779,
      "⇑": 780,
      "⇒": 781,
      "⇓": 782,
      "⇧": 783,
      "∀": 784,
      "∂": 785,
      "∃": 786,
      "∄": 787,
      "∆": 788,
      "∇": 789,
      "∈": 790,
      "∑": 791,
      "−": 792,
      "∓": 793,
      "∕": 794,
      "∙": 795,
      "√": 796,
      "∝": 797,
      "∞": 798,
      "∣": 799,
      "∧": 800,
      "∨": 801,
      "∩": 802,
      "∪": 803,
      "∫": 804,
      "∮": 805,
      "∴": 806,
      "∵": 807,
      "∶": 808,
      "∼": 809,
      "≅": 810,
      "≈": 811,
      "≌": 812,
      "≠": 813,
      "≡": 814,
      "≤": 815,
      "≥": 816,
      "≦": 817,
      "≧": 818,
      "≫": 819,
      "≮": 820,
      "≯": 821,
      "≻": 822,
      "⊗": 823,
      "⊙": 824,
      "⊥": 825,
      "⋅": 826,
      "⋮": 827,
      "⋯": 828,
      "⌒": 829,
      "⎝": 830,
      "⎠": 831,
      "⏩": 832,
      "①": 833,
      "②": 834,
      "③": 835,
      "④": 836,
      "⑤": 837,
      "⑥": 838,
      "⑦": 839,
      "⑧": 840,
      "⑨": 841,
      "⑩": 842,
      "⑪": 843,
      "⑫": 844,
      "⑬": 845,
      "⑭": 846,
      "⑴": 847,
      "⑵": 848,
      "⑶": 849,
      "⑷": 850,
      "⑸": 851,
      "⑹": 852,
      "⑺": 853,
      "⑻": 854,
      "⑼": 855,
      "⑽": 856,
      "⑾": 857,
      "⑿": 858,
      "⒀": 859,
      "⒁": 860,
      "⒂": 861,
      "⒃": 862,
      "⒄": 863,
      "⒅": 864,
      "⒆": 865,
      "⒇": 866,
      "⒈": 867,
      "⒉": 868,
      "⒊": 869,
      "⒋": 870,
      "⒌": 871,
      "⒍": 872,
      "⒎": 873,
      "⒏": 874,
      "⒐": 875,
      "⒑": 876,
      "⒗": 877,
      "⒚": 878,
      "⒛": 879,
      "Ⓡ": 880,
      "ⓒ": 881,
      "─": 882,
      "━": 883,
      "│": 884,
      "┃": 885,
      "┄": 886,
      "┅": 887,
      "┆": 888,
      "┇": 889,
      "┉": 890,
      "┊": 891,
      "┌": 892,
      "┏": 893,
      "┐": 894,
      "┓": 895,
      "└": 896,
      "┕": 897,
      "┗": 898,
      "┘": 899,
      "┛": 900,
      "├": 901,
      "┝": 902,
      "┠": 903,
      "┤": 904,
      "┦": 905,
      "┨": 906,
      "┬": 907,
      "┯": 908,
      "┰": 909,
      "┴": 910,
      "┷": 911,
      "┼": 912,
      "╋": 913,
      "╥": 914,
      "╬": 915,
      "╭": 916,
      "╮": 917,
      "╯": 918,
      "╰": 919,
      "╱": 920,
      "╹": 921,
      "▁": 922,
      "▄": 923,
      "▅": 924,
      "█": 925,
      "▉": 926,
      "▌": 927,
      "▍": 928,
      "▎": 929,
      "▏": 930,
      "■": 931,
      "□": 932,
      "▣": 933,
      "▪": 934,
      "△": 935,
      "▶": 936,
      "▷": 937,
      "►": 938,
      "▼": 939,
      "▽": 940,
      "▾": 941,
      "◈": 942,
      "◊": 943,
      "○": 944,
      "◎": 945,
      "●": 946,
      "◡": 947,
      "◢": 948,
      "◣": 949,
      "◥": 950,
      "◻": 951,
      "☃": 952,
      "★": 953,
      "☆": 954,
      "☉": 955,
      "☙": 956,
      "☺": 957,
      "♂": 958,
      "♠": 959,
      "♡": 960,
      "♥": 961,
      "♦": 962,
      "⚠": 963,
      "⚡": 964,
      "⚥": 965,
      "⛽": 966,
      "✌": 967,
      "✓": 968,
      "✖": 969,
      "❤": 970,
      "❮": 971,
      "❯": 972,
      "➜": 973,
      "➡": 974,
      "➤": 975,
      "⟺": 976,
      "ⴰ": 977,
      "ⴱ": 978,
      "ⴻ": 979,
      "ⵄ": 980,
      "ⵉ": 981,
      "ⵍ": 982,
      "ⵎ": 983,
      "ⵏ": 984,
      "ⵓ": 985,
      "ⵙ": 986,
      "ⵜ": 987,
      "ⵟ": 988,
      "ⵡ": 989,
      "⼀": 990,
      "⽜": 991,
      "⽤": 992,
      "⽶": 993,
      "⾝": 994,
      "⾥": 995,
      "⾦": 996,
      "⾸": 997,
      "⾼": 998,
      "、": 999,
      "。": 1000,
      "々": 1001,
      "〆": 1002,
      "〇": 1003,
      "〈": 1004,
      "〉": 1005,
      "《": 1006,
      "》": 1007,
      "「": 1008,
      "」": 1009,
      "『": 1010,
      "』": 1011,
      "【": 1012,
      "】": 1013,
      "〓": 1014,
      "〔": 1015,
      "〕": 1016,
      "〖": 1017,
      "〗": 1018,
      "〜": 1019,
      "〝": 1020,
      "〞": 1021,
      "〡": 1022,
      "あ": 1023,
      "い": 1024,
      "う": 1025,
      "え": 1026,
      "お": 1027,
      "か": 1028,
      "が": 1029,
      "き": 1030,
      "く": 1031,
      "ぐ": 1032,
      "け": 1033,
      "げ": 1034,
      "こ": 1035,
      "ご": 1036,
      "さ": 1037,
      "ざ": 1038,
      "し": 1039,
      "じ": 1040,
      "す": 1041,
      "ず": 1042,
      "せ": 1043,
      "ぜ": 1044,
      "そ": 1045,
      "ぞ": 1046,
      "た": 1047,
      "だ": 1048,
      "ち": 1049,
      "っ": 1050,
      "つ": 1051,
      "て": 1052,
      "で": 1053,
      "と": 1054,
      "ど": 1055,
      "な": 1056,
      "に": 1057,
      "ぬ": 1058,
      "ね": 1059,
      "の": 1060,
      "は": 1061,
      "ば": 1062,
      "び": 1063,
      "ふ": 1064,
      "ぶ": 1065,
      "ぷ": 1066,
      "べ": 1067,
      "ほ": 1068,
      "ま": 1069,
      "み": 1070,
      "め": 1071,
      "も": 1072,
      "ゃ": 1073,
      "や": 1074,
      "ゅ": 1075,
      "ゆ": 1076,
      "ょ": 1077,
      "よ": 1078,
      "ら": 1079,
      "り": 1080,
      "る": 1081,
      "れ": 1082,
      "ろ": 1083,
      "わ": 1084,
      "を": 1085,
      "ん": 1086,
      "゜": 1087,
      "ゞ": 1088,
      "ァ": 1089,
      "ア": 1090,
      "ィ": 1091,
      "イ": 1092,
      "ウ": 1093,
      "ェ": 1094,
      "エ": 1095,
      "オ": 1096,
      "カ": 1097,
      "ガ": 1098,
      "キ": 1099,
      "ク": 1100,
      "グ": 1101,
      "ゲ": 1102,
      "コ": 1103,
      "ゴ": 1104,
      "サ": 1105,
      "ザ": 1106,
      "シ": 1107,
      "ジ": 1108,
      "ス": 1109,
      "ズ": 1110,
      "セ": 1111,
      "ゼ": 1112,
      "ソ": 1113,
      "タ": 1114,
      "ダ": 1115,
      "チ": 1116,
      "ッ": 1117,
      "ツ": 1118,
      "テ": 1119,
      "デ": 1120,
      "ト": 1121,
      "ド": 1122,
      "ナ": 1123,
      "ニ": 1124,
      "ヌ": 1125,
      "ノ": 1126,
      "ハ": 1127,
      "バ": 1128,
      "パ": 1129,
      "ヒ": 1130,
      "ビ": 1131,
      "フ": 1132,
      "ブ": 1133,
      "プ": 1134,
      "ヘ": 1135,
      "ベ": 1136,
      "ボ": 1137,
      "マ": 1138,
      "ム": 1139,
      "メ": 1140,
      "モ": 1141,
      "ヤ": 1142,
      "ヨ": 1143,
      "ラ": 1144,
      "リ": 1145,
      "ル": 1146,
      "レ": 1147,
      "ロ": 1148,
      "ワ": 1149,
      "ン": 1150,
      "ヴ": 1151,
      "ヶ": 1152,
      "・": 1153,
      "ー": 1154,
      "ㄇ": 1155,
      "ㄈ": 1156,
      "ㄊ": 1157,
      "ㄌ": 1158,
      "ㄍ": 1159,
      "ㄎ": 1160,
      "ㄐ": 1161,
      "ㄒ": 1162,
      "ㄓ": 1163,
      "ㄖ": 1164,
      "ㄚ": 1165,
      "ㄣ": 1166,
      "ㄧ": 1167,
      "㈠": 1168,
      "㈡": 1169,
      "㈢": 1170,
      "㈣": 1171,
      "㈤": 1172,
      "㈥": 1173,
      "㈦": 1174,
      "㈧": 1175,
      "㈨": 1176,
      "㈩": 1177,
      "㊣": 1178,
      "㎎": 1179,
      "㎏": 1180,
      "㎜": 1181,
      "㎝": 1182,
      "㎡": 1183,
      "㏄": 1184,
      "㧑": 1185,
      "㧟": 1186,
      "㱮": 1187,
      "㶉": 1188,
      "㶽": 1189,
      "䁖": 1190,
      "䍁": 1191,
      "䖝": 1192,
      "䜣": 1193,
      "䴖": 1194,
      "䶮": 1195,
      "一": 1196,
      "丁": 1197,
      "七": 1198,
      "万": 1199,
      "丈": 1200,
      "三": 1201,
      "上": 1202,
      "下": 1203,
      "不": 1204,
      "与": 1205,
      "丐": 1206,
      "丑": 1207,
      "专": 1208,
      "且": 1209,
      "丕": 1210,
      "世": 1211,
      "丗": 1212,
      "丘": 1213,
      "丙": 1214,
      "业": 1215,
      "丛": 1216,
      "东": 1217,
      "丝": 1218,
      "丞": 1219,
      "丢": 1220,
      "两": 1221,
      "严": 1222,
      "丧": 1223,
      "丨": 1224,
      "个": 1225,
      "丫": 1226,
      "中": 1227,
      "丰": 1228,
      "丱": 1229,
      "串": 1230,
      "临": 1231,
      "丶": 1232,
      "丸": 1233,
      "丹": 1234,
      "为": 1235,
      "主": 1236,
      "丽": 1237,
      "举": 1238,
      "丿": 1239,
      "乂": 1240,
      "乃": 1241,
      "乄": 1242,
      "久": 1243,
      "乇": 1244,
      "么": 1245,
      "义": 1246,
      "之": 1247,
      "乌": 1248,
      "乍": 1249,
      "乎": 1250,
      "乏": 1251,
      "乐": 1252,
      "乒": 1253,
      "乓": 1254,
      "乔": 1255,
      "乖": 1256,
      "乘": 1257,
      "乙": 1258,
      "乜": 1259,
      "九": 1260,
      "乞": 1261,
      "也": 1262,
      "习": 1263,
      "乡": 1264,
      "书": 1265,
      "乩": 1266,
      "买": 1267,
      "乱": 1268,
      "乳": 1269,
      "乸": 1270,
      "乾": 1271,
      "亀": 1272,
      "了": 1273,
      "予": 1274,
      "争": 1275,
      "亊": 1276,
      "事": 1277,
      "二": 1278,
      "亍": 1279,
      "于": 1280,
      "亏": 1281,
      "云": 1282,
      "互": 1283,
      "亓": 1284,
      "五": 1285,
      "井": 1286,
      "亘": 1287,
      "亚": 1288,
      "些": 1289,
      "亟": 1290,
      "亡": 1291,
      "亢": 1292,
      "交": 1293,
      "亥": 1294,
      "亦": 1295,
      "产": 1296,
      "亨": 1297,
      "亩": 1298,
      "享": 1299,
      "京": 1300,
      "亭": 1301,
      "亮": 1302,
      "亲": 1303,
      "亳": 1304,
      "亵": 1305,
      "亶": 1306,
      "亸": 1307,
      "人": 1308,
      "亻": 1309,
      "亾": 1310,
      "亿": 1311,
      "什": 1312,
      "仁": 1313,
      "仃": 1314,
      "仄": 1315,
      "仅": 1316,
      "仆": 1317,
      "仇": 1318,
      "仉": 1319,
      "今": 1320,
      "介": 1321,
      "仍": 1322,
      "从": 1323,
      "仐": 1324,
      "仑": 1325,
      "仓": 1326,
      "仔": 1327,
      "仕": 1328,
      "他": 1329,
      "仗": 1330,
      "付": 1331,
      "仙": 1332,
      "仝": 1333,
      "仞": 1334,
      "仟": 1335,
      "仡": 1336,
      "代": 1337,
      "令": 1338,
      "以": 1339,
      "仨": 1340,
      "仪": 1341,
      "仫": 1342,
      "们": 1343,
      "仰": 1344,
      "仲": 1345,
      "仵": 1346,
      "件": 1347,
      "价": 1348,
      "仸": 1349,
      "任": 1350,
      "仼": 1351,
      "份": 1352,
      "仿": 1353,
      "企": 1354,
      "伃": 1355,
      "伉": 1356,
      "伊": 1357,
      "伍": 1358,
      "伎": 1359,
      "伏": 1360,
      "伐": 1361,
      "休": 1362,
      "众": 1363,
      "优": 1364,
      "伙": 1365,
      "会": 1366,
      "伛": 1367,
      "伝": 1368,
      "伞": 1369,
      "伟": 1370,
      "传": 1371,
      "伢": 1372,
      "伤": 1373,
      "伥": 1374,
      "伦": 1375,
      "伧": 1376,
      "伪": 1377,
      "伫": 1378,
      "伯": 1379,
      "估": 1380,
      "伱": 1381,
      "伲": 1382,
      "伴": 1383,
      "伶": 1384,
      "伸": 1385,
      "伺": 1386,
      "似": 1387,
      "伽": 1388,
      "伾": 1389,
      "佃": 1390,
      "但": 1391,
      "佉": 1392,
      "位": 1393,
      "低": 1394,
      "住": 1395,
      "佐": 1396,
      "佑": 1397,
      "体": 1398,
      "何": 1399,
      "佗": 1400,
      "佘": 1401,
      "余": 1402,
      "佚": 1403,
      "佛": 1404,
      "作": 1405,
      "佝": 1406,
      "佞": 1407,
      "佟": 1408,
      "你": 1409,
      "佣": 1410,
      "佤": 1411,
      "佥": 1412,
      "佩": 1413,
      "佬": 1414,
      "佯": 1415,
      "佰": 1416,
      "佳": 1417,
      "佴": 1418,
      "佶": 1419,
      "佷": 1420,
      "佻": 1421,
      "佼": 1422,
      "佾": 1423,
      "使": 1424,
      "侁": 1425,
      "侃": 1426,
      "侄": 1427,
      "侈": 1428,
      "例": 1429,
      "侌": 1430,
      "侍": 1431,
      "侏": 1432,
      "侑": 1433,
      "侔": 1434,
      "侗": 1435,
      "供": 1436,
      "依": 1437,
      "侠": 1438,
      "侣": 1439,
      "侥": 1440,
      "侦": 1441,
      "侧": 1442,
      "侨": 1443,
      "侩": 1444,
      "侪": 1445,
      "侬": 1446,
      "侭": 1447,
      "侮": 1448,
      "侯": 1449,
      "侵": 1450,
      "侹": 1451,
      "便": 1452,
      "促": 1453,
      "俄": 1454,
      "俅": 1455,
      "俊": 1456,
      "俎": 1457,
      "俏": 1458,
      "俐": 1459,
      "俑": 1460,
      "俗": 1461,
      "俘": 1462,
      "俚": 1463,
      "俜": 1464,
      "保": 1465,
      "俞": 1466,
      "俟": 1467,
      "信": 1468,
      "俢": 1469,
      "俦": 1470,
      "俨": 1471,
      "俩": 1472,
      "俪": 1473,
      "俭": 1474,
      "修": 1475,
      "俯": 1476,
      "俱": 1477,
      "俳": 1478,
      "俶": 1479,
      "俸": 1480,
      "俺": 1481,
      "俾": 1482,
      "倅": 1483,
      "倌": 1484,
      "倍": 1485,
      "倏": 1486,
      "倒": 1487,
      "倔": 1488,
      "倗": 1489,
      "倘": 1490,
      "候": 1491,
      "倚": 1492,
      "倜": 1493,
      "倞": 1494,
      "借": 1495,
      "倡": 1496,
      "倥": 1497,
      "倦": 1498,
      "倧": 1499,
      "倨": 1500,
      "倩": 1501,
      "倪": 1502,
      "倬": 1503,
      "倭": 1504,
      "倮": 1505,
      "倴": 1506,
      "债": 1507,
      "值": 1508,
      "倾": 1509,
      "偃": 1510,
      "假": 1511,
      "偈": 1512,
      "偌": 1513,
      "偎": 1514,
      "偏": 1515,
      "偕": 1516,
      "做": 1517,
      "停": 1518,
      "健": 1519,
      "偬": 1520,
      "偱": 1521,
      "偲": 1522,
      "偶": 1523,
      "偷": 1524,
      "偻": 1525,
      "偾": 1526,
      "偿": 1527,
      "傀": 1528,
      "傅": 1529,
      "傈": 1530,
      "傉": 1531,
      "傍": 1532,
      "傒": 1533,
      "傕": 1534,
      "傜": 1535,
      "傣": 1536,
      "傥": 1537,
      "傧": 1538,
      "储": 1539,
      "傩": 1540,
      "催": 1541,
      "傲": 1542,
      "傻": 1543,
      "像": 1544,
      "僕": 1545,
      "僖": 1546,
      "僚": 1547,
      "僝": 1548,
      "僧": 1549,
      "僬": 1550,
      "僭": 1551,
      "僮": 1552,
      "僰": 1553,
      "僳": 1554,
      "僴": 1555,
      "僵": 1556,
      "僻": 1557,
      "僽": 1558,
      "儁": 1559,
      "儆": 1560,
      "儇": 1561,
      "儋": 1562,
      "儒": 1563,
      "儡": 1564,
      "儿": 1565,
      "兀": 1566,
      "允": 1567,
      "兂": 1568,
      "元": 1569,
      "兄": 1570,
      "充": 1571,
      "兆": 1572,
      "先": 1573,
      "光": 1574,
      "克": 1575,
      "免": 1576,
      "兑": 1577,
      "兓": 1578,
      "兔": 1579,
      "兕": 1580,
      "兖": 1581,
      "党": 1582,
      "兜": 1583,
      "兢": 1584,
      "入": 1585,
      "全": 1586,
      "兪": 1587,
      "八": 1588,
      "公": 1589,
      "六": 1590,
      "兮": 1591,
      "兰": 1592,
      "共": 1593,
      "关": 1594,
      "兴": 1595,
      "兵": 1596,
      "其": 1597,
      "具": 1598,
      "典": 1599,
      "兹": 1600,
      "养": 1601,
      "兼": 1602,
      "兽": 1603,
      "冀": 1604,
      "内": 1605,
      "円": 1606,
      "冇": 1607,
      "冈": 1608,
      "冉": 1609,
      "册": 1610,
      "再": 1611,
      "冏": 1612,
      "冒": 1613,
      "冕": 1614,
      "冖": 1615,
      "冗": 1616,
      "写": 1617,
      "冚": 1618,
      "军": 1619,
      "农": 1620,
      "冠": 1621,
      "冢": 1622,
      "冤": 1623,
      "冥": 1624,
      "冦": 1625,
      "冨": 1626,
      "冬": 1627,
      "冯": 1628,
      "冰": 1629,
      "冲": 1630,
      "决": 1631,
      "况": 1632,
      "冶": 1633,
      "冷": 1634,
      "冻": 1635,
      "冼": 1636,
      "冽": 1637,
      "净": 1638,
      "凃": 1639,
      "凄": 1640,
      "准": 1641,
      "凇": 1642,
      "凉": 1643,
      "凊": 1644,
      "凋": 1645,
      "凌": 1646,
      "减": 1647,
      "凑": 1648,
      "凖": 1649,
      "凛": 1650,
      "凝": 1651,
      "几": 1652,
      "凡": 1653,
      "凤": 1654,
      "凫": 1655,
      "凭": 1656,
      "凯": 1657,
      "凰": 1658,
      "凳": 1659,
      "凶": 1660,
      "凸": 1661,
      "凹": 1662,
      "出": 1663,
      "击": 1664,
      "凼": 1665,
      "函": 1666,
      "凿": 1667,
      "刀": 1668,
      "刁": 1669,
      "刃": 1670,
      "刅": 1671,
      "分": 1672,
      "切": 1673,
      "刈": 1674,
      "刊": 1675,
      "刍": 1676,
      "刎": 1677,
      "刑": 1678,
      "划": 1679,
      "刕": 1680,
      "刖": 1681,
      "列": 1682,
      "刘": 1683,
      "则": 1684,
      "刚": 1685,
      "创": 1686,
      "初": 1687,
      "删": 1688,
      "判": 1689,
      "刧": 1690,
      "刨": 1691,
      "利": 1692,
      "别": 1693,
      "刬": 1694,
      "刭": 1695,
      "刮": 1696,
      "到": 1697,
      "刳": 1698,
      "制": 1699,
      "刷": 1700,
      "券": 1701,
      "刹": 1702,
      "刺": 1703,
      "刻": 1704,
      "刽": 1705,
      "刿": 1706,
      "剀": 1707,
      "剁": 1708,
      "剂": 1709,
      "剃": 1710,
      "剉": 1711,
      "削": 1712,
      "剌": 1713,
      "前": 1714,
      "剐": 1715,
      "剑": 1716,
      "剔": 1717,
      "剖": 1718,
      "剜": 1719,
      "剞": 1720,
      "剡": 1721,
      "剥": 1722,
      "剧": 1723,
      "剩": 1724,
      "剪": 1725,
      "副": 1726,
      "割": 1727,
      "剽": 1728,
      "剿": 1729,
      "劂": 1730,
      "劈": 1731,
      "劐": 1732,
      "劓": 1733,
      "劖": 1734,
      "力": 1735,
      "劝": 1736,
      "办": 1737,
      "功": 1738,
      "加": 1739,
      "务": 1740,
      "劢": 1741,
      "劣": 1742,
      "劦": 1743,
      "动": 1744,
      "助": 1745,
      "努": 1746,
      "劫": 1747,
      "劭": 1748,
      "励": 1749,
      "劲": 1750,
      "劳": 1751,
      "劵": 1752,
      "劻": 1753,
      "劼": 1754,
      "劾": 1755,
      "势": 1756,
      "勃": 1757,
      "勅": 1758,
      "勇": 1759,
      "勉": 1760,
      "勋": 1761,
      "勍": 1762,
      "勐": 1763,
      "勒": 1764,
      "勔": 1765,
      "動": 1766,
      "勖": 1767,
      "勘": 1768,
      "勚": 1769,
      "勝": 1770,
      "募": 1771,
      "勠": 1772,
      "勤": 1773,
      "勩": 1774,
      "勰": 1775,
      "勲": 1776,
      "勺": 1777,
      "勾": 1778,
      "勿": 1779,
      "匀": 1780,
      "匄": 1781,
      "包": 1782,
      "匆": 1783,
      "匈": 1784,
      "匋": 1785,
      "匍": 1786,
      "匏": 1787,
      "匐": 1788,
      "匕": 1789,
      "化": 1790,
      "北": 1791,
      "匙": 1792,
      "匚": 1793,
      "匝": 1794,
      "匠": 1795,
      "匡": 1796,
      "匣": 1797,
      "匦": 1798,
      "匪": 1799,
      "匮": 1800,
      "匹": 1801,
      "区": 1802,
      "医": 1803,
      "匾": 1804,
      "匿": 1805,
      "十": 1806,
      "千": 1807,
      "卅": 1808,
      "升": 1809,
      "午": 1810,
      "卉": 1811,
      "半": 1812,
      "卍": 1813,
      "华": 1814,
      "协": 1815,
      "卐": 1816,
      "卑": 1817,
      "卒": 1818,
      "卓": 1819,
      "单": 1820,
      "卖": 1821,
      "南": 1822,
      "単": 1823,
      "博": 1824,
      "卜": 1825,
      "卞": 1826,
      "卟": 1827,
      "占": 1828,
      "卡": 1829,
      "卢": 1830,
      "卣": 1831,
      "卤": 1832,
      "卦": 1833,
      "卧": 1834,
      "卨": 1835,
      "卫": 1836,
      "卬": 1837,
      "卮": 1838,
      "卯": 1839,
      "印": 1840,
      "危": 1841,
      "卲": 1842,
      "即": 1843,
      "却": 1844,
      "卵": 1845,
      "卷": 1846,
      "卸": 1847,
      "卺": 1848,
      "卽": 1849,
      "卿": 1850,
      "厂": 1851,
      "厄": 1852,
      "厅": 1853,
      "历": 1854,
      "厉": 1855,
      "压": 1856,
      "厌": 1857,
      "厍": 1858,
      "厓": 1859,
      "厔": 1860,
      "厕": 1861,
      "厘": 1862,
      "厚": 1863,
      "厝": 1864,
      "原": 1865,
      "厢": 1866,
      "厣": 1867,
      "厥": 1868,
      "厦": 1869,
      "厨": 1870,
      "厩": 1871,
      "厮": 1872,
      "厵": 1873,
      "厶": 1874,
      "去": 1875,
      "厽": 1876,
      "县": 1877,
      "叁": 1878,
      "参": 1879,
      "叄": 1880,
      "叆": 1881,
      "叇": 1882,
      "又": 1883,
      "叉": 1884,
      "及": 1885,
      "友": 1886,
      "双": 1887,
      "反": 1888,
      "収": 1889,
      "发": 1890,
      "叒": 1891,
      "叔": 1892,
      "叕": 1893,
      "取": 1894,
      "受": 1895,
      "变": 1896,
      "叙": 1897,
      "叚": 1898,
      "叛": 1899,
      "叟": 1900,
      "叠": 1901,
      "叡": 1902,
      "口": 1903,
      "古": 1904,
      "句": 1905,
      "另": 1906,
      "叨": 1907,
      "叩": 1908,
      "只": 1909,
      "叫": 1910,
      "召": 1911,
      "叭": 1912,
      "叮": 1913,
      "可": 1914,
      "台": 1915,
      "叱": 1916,
      "史": 1917,
      "右": 1918,
      "叵": 1919,
      "叶": 1920,
      "号": 1921,
      "司": 1922,
      "叹": 1923,
      "叻": 1924,
      "叼": 1925,
      "叽": 1926,
      "吁": 1927,
      "吃": 1928,
      "各": 1929,
      "吆": 1930,
      "合": 1931,
      "吉": 1932,
      "吊": 1933,
      "吋": 1934,
      "同": 1935,
      "名": 1936,
      "后": 1937,
      "吏": 1938,
      "吐": 1939,
      "向": 1940,
      "吒": 1941,
      "吓": 1942,
      "吔": 1943,
      "吕": 1944,
      "吖": 1945,
      "吗": 1946,
      "吙": 1947,
      "君": 1948,
      "吝": 1949,
      "吞": 1950,
      "吟": 1951,
      "吠": 1952,
      "吡": 1953,
      "否": 1954,
      "吧": 1955,
      "吨": 1956,
      "吩": 1957,
      "含": 1958,
      "听": 1959,
      "吭": 1960,
      "吮": 1961,
      "启": 1962,
      "吱": 1963,
      "吲": 1964,
      "吳": 1965,
      "吴": 1966,
      "吵": 1967,
      "吸": 1968,
      "吹": 1969,
      "吻": 1970,
      "吼": 1971,
      "吽": 1972,
      "吾": 1973,
      "吿": 1974,
      "呀": 1975,
      "呃": 1976,
      "呆": 1977,
      "呈": 1978,
      "告": 1979,
      "呋": 1980,
      "呎": 1981,
      "呐": 1982,
      "呑": 1983,
      "呒": 1984,
      "呓": 1985,
      "呔": 1986,
      "呕": 1987,
      "呖": 1988,
      "呗": 1989,
      "员": 1990,
      "呙": 1991,
      "呛": 1992,
      "呜": 1993,
      "呢": 1994,
      "呤": 1995,
      "呦": 1996,
      "周": 1997,
      "呪": 1998,
      "呬": 1999,
      "呯": 2000,
      "呱": 2001,
      "呲": 2002,
      "味": 2003,
      "呴": 2004,
      "呵": 2005,
      "呶": 2006,
      "呷": 2007,
      "呸": 2008,
      "呻": 2009,
      "呼": 2010,
      "命": 2011,
      "咀": 2012,
      "咁": 2013,
      "咂": 2014,
      "咄": 2015,
      "咆": 2016,
      "咋": 2017,
      "和": 2018,
      "咎": 2019,
      "咏": 2020,
      "咐": 2021,
      "咒": 2022,
      "咔": 2023,
      "咕": 2024,
      "咖": 2025,
      "咗": 2026,
      "咘": 2027,
      "咙": 2028,
      "咚": 2029,
      "咛": 2030,
      "咝": 2031,
      "咣": 2032,
      "咤": 2033,
      "咥": 2034,
      "咦": 2035,
      "咧": 2036,
      "咨": 2037,
      "咩": 2038,
      "咪": 2039,
      "咫": 2040,
      "咬": 2041,
      "咮": 2042,
      "咯": 2043,
      "咱": 2044,
      "咲": 2045,
      "咳": 2046,
      "咵": 2047,
      "咷": 2048,
      "咸": 2049,
      "咺": 2050,
      "咻": 2051,
      "咽": 2052,
      "咿": 2053,
      "哀": 2054,
      "品": 2055,
      "哂": 2056,
      "哄": 2057,
      "哆": 2058,
      "哇": 2059,
      "哈": 2060,
      "哉": 2061,
      "哋": 2062,
      "哌": 2063,
      "响": 2064,
      "哎": 2065,
      "哏": 2066,
      "哐": 2067,
      "哑": 2068,
      "哒": 2069,
      "哓": 2070,
      "哔": 2071,
      "哕": 2072,
      "哗": 2073,
      "哙": 2074,
      "哚": 2075,
      "哝": 2076,
      "哞": 2077,
      "哟": 2078,
      "員": 2079,
      "哥": 2080,
      "哦": 2081,
      "哧": 2082,
      "哨": 2083,
      "哩": 2084,
      "哪": 2085,
      "哫": 2086,
      "哭": 2087,
      "哮": 2088,
      "哲": 2089,
      "哺": 2090,
      "哼": 2091,
      "哽": 2092,
      "唁": 2093,
      "唆": 2094,
      "唇": 2095,
      "唉": 2096,
      "唏": 2097,
      "唐": 2098,
      "唑": 2099,
      "唔": 2100,
      "唛": 2101,
      "唞": 2102,
      "唠": 2103,
      "唢": 2104,
      "唤": 2105,
      "唧": 2106,
      "唬": 2107,
      "唭": 2108,
      "售": 2109,
      "唯": 2110,
      "唰": 2111,
      "唱": 2112,
      "唳": 2113,
      "唵": 2114,
      "唷": 2115,
      "唼": 2116,
      "唽": 2117,
      "唾": 2118,
      "唿": 2119,
      "啁": 2120,
      "啃": 2121,
      "啄": 2122,
      "商": 2123,
      "啉": 2124,
      "啊": 2125,
      "問": 2126,
      "啐": 2127,
      "啓": 2128,
      "啕": 2129,
      "啖": 2130,
      "啗": 2131,
      "啜": 2132,
      "啡": 2133,
      "啤": 2134,
      "啥": 2135,
      "啦": 2136,
      "啧": 2137,
      "啪": 2138,
      "啫": 2139,
      "啬": 2140,
      "啭": 2141,
      "啮": 2142,
      "啰": 2143,
      "啴": 2144,
      "啵": 2145,
      "啶": 2146,
      "啷": 2147,
      "啸": 2148,
      "啻": 2149,
      "啼": 2150,
      "啾": 2151,
      "喀": 2152,
      "喁": 2153,
      "喂": 2154,
      "喃": 2155,
      "善": 2156,
      "喆": 2157,
      "喇": 2158,
      "喈": 2159,
      "喉": 2160,
      "喊": 2161,
      "喋": 2162,
      "喎": 2163,
      "喏": 2164,
      "喑": 2165,
      "喔": 2166,
      "喘": 2167,
      "喙": 2168,
      "喜": 2169,
      "喝": 2170,
      "喟": 2171,
      "喤": 2172,
      "喦": 2173,
      "喧": 2174,
      "喰": 2175,
      "喱": 2176,
      "喳": 2177,
      "喵": 2178,
      "喷": 2179,
      "喹": 2180,
      "喻": 2181,
      "喽": 2182,
      "喾": 2183,
      "嗄": 2184,
      "嗅": 2185,
      "嗉": 2186,
      "嗌": 2187,
      "嗍": 2188,
      "嗐": 2189,
      "嗑": 2190,
      "嗒": 2191,
      "嗓": 2192,
      "嗔": 2193,
      "嗖": 2194,
      "嗜": 2195,
      "嗝": 2196,
      "嗞": 2197,
      "嗟": 2198,
      "嗡": 2199,
      "嗢": 2200,
      "嗣": 2201,
      "嗤": 2202,
      "嗥": 2203,
      "嗦": 2204,
      "嗨": 2205,
      "嗪": 2206,
      "嗫": 2207,
      "嗬": 2208,
      "嗮": 2209,
      "嗯": 2210,
      "嗲": 2211,
      "嗳": 2212,
      "嗵": 2213,
      "嗷": 2214,
      "嗽": 2215,
      "嗾": 2216,
      "嘀": 2217,
      "嘁": 2218,
      "嘅": 2219,
      "嘈": 2220,
      "嘉": 2221,
      "嘌": 2222,
      "嘎": 2223,
      "嘏": 2224,
      "嘐": 2225,
      "嘘": 2226,
      "嘚": 2227,
      "嘛": 2228,
      "嘞": 2229,
      "嘟": 2230,
      "嘢": 2231,
      "嘣": 2232,
      "嘤": 2233,
      "嘦": 2234,
      "嘧": 2235,
      "嘬": 2236,
      "嘭": 2237,
      "嘱": 2238,
      "嘲": 2239,
      "嘴": 2240,
      "嘶": 2241,
      "嘹": 2242,
      "嘻": 2243,
      "嘿": 2244,
      "噁": 2245,
      "噌": 2246,
      "噍": 2247,
      "噎": 2248,
      "噏": 2249,
      "噔": 2250,
      "噗": 2251,
      "噘": 2252,
      "噙": 2253,
      "噜": 2254,
      "噞": 2255,
      "噢": 2256,
      "噤": 2257,
      "器": 2258,
      "噩": 2259,
      "噪": 2260,
      "噫": 2261,
      "噬": 2262,
      "噭": 2263,
      "噰": 2264,
      "噱": 2265,
      "噶": 2266,
      "噻": 2267,
      "噼": 2268,
      "嚄": 2269,
      "嚅": 2270,
      "嚈": 2271,
      "嚎": 2272,
      "嚏": 2273,
      "嚒": 2274,
      "嚓": 2275,
      "嚞": 2276,
      "嚣": 2277,
      "嚧": 2278,
      "嚭": 2279,
      "嚯": 2280,
      "嚱": 2281,
      "嚷": 2282,
      "嚹": 2283,
      "嚼": 2284,
      "囊": 2285,
      "囍": 2286,
      "囎": 2287,
      "囏": 2288,
      "囐": 2289,
      "囔": 2290,
      "囗": 2291,
      "囚": 2292,
      "四": 2293,
      "囝": 2294,
      "回": 2295,
      "囟": 2296,
      "因": 2297,
      "囡": 2298,
      "团": 2299,
      "団": 2300,
      "囤": 2301,
      "囧": 2302,
      "囫": 2303,
      "园": 2304,
      "囯": 2305,
      "困": 2306,
      "囱": 2307,
      "围": 2308,
      "囵": 2309,
      "囹": 2310,
      "固": 2311,
      "国": 2312,
      "图": 2313,
      "囿": 2314,
      "圁": 2315,
      "圃": 2316,
      "圄": 2317,
      "圆": 2318,
      "圈": 2319,
      "圉": 2320,
      "圊": 2321,
      "國": 2322,
      "圌": 2323,
      "圏": 2324,
      "圜": 2325,
      "土": 2326,
      "圣": 2327,
      "圧": 2328,
      "在": 2329,
      "圩": 2330,
      "圪": 2331,
      "圬": 2332,
      "圭": 2333,
      "圮": 2334,
      "圯": 2335,
      "地": 2336,
      "圳": 2337,
      "圹": 2338,
      "场": 2339,
      "圻": 2340,
      "圾": 2341,
      "址": 2342,
      "坂": 2343,
      "均": 2344,
      "坉": 2345,
      "坊": 2346,
      "坌": 2347,
      "坍": 2348,
      "坎": 2349,
      "坏": 2350,
      "坐": 2351,
      "坑": 2352,
      "块": 2353,
      "坚": 2354,
      "坛": 2355,
      "坜": 2356,
      "坝": 2357,
      "坞": 2358,
      "坟": 2359,
      "坠": 2360,
      "坡": 2361,
      "坤": 2362,
      "坦": 2363,
      "坨": 2364,
      "坩": 2365,
      "坪": 2366,
      "坫": 2367,
      "坬": 2368,
      "坭": 2369,
      "坯": 2370,
      "坱": 2371,
      "坳": 2372,
      "坷": 2373,
      "坻": 2374,
      "坼": 2375,
      "坽": 2376,
      "垂": 2377,
      "垃": 2378,
      "垄": 2379,
      "垅": 2380,
      "垆": 2381,
      "型": 2382,
      "垌": 2383,
      "垒": 2384,
      "垓": 2385,
      "垕": 2386,
      "垚": 2387,
      "垛": 2388,
      "垞": 2389,
      "垟": 2390,
      "垠": 2391,
      "垡": 2392,
      "垢": 2393,
      "垣": 2394,
      "垦": 2395,
      "垧": 2396,
      "垩": 2397,
      "垫": 2398,
      "垭": 2399,
      "垮": 2400,
      "垯": 2401,
      "垱": 2402,
      "垴": 2403,
      "垵": 2404,
      "垸": 2405,
      "埂": 2406,
      "埃": 2407,
      "埇": 2408,
      "埈": 2409,
      "埋": 2410,
      "埌": 2411,
      "城": 2412,
      "埏": 2413,
      "埒": 2414,
      "埔": 2415,
      "埕": 2416,
      "埗": 2417,
      "埙": 2418,
      "埚": 2419,
      "埝": 2420,
      "域": 2421,
      "埠": 2422,
      "埭": 2423,
      "埯": 2424,
      "埴": 2425,
      "埵": 2426,
      "埸": 2427,
      "培": 2428,
      "基": 2429,
      "埼": 2430,
      "堀": 2431,
      "堂": 2432,
      "堃": 2433,
      "堆": 2434,
      "堇": 2435,
      "堌": 2436,
      "堍": 2437,
      "堑": 2438,
      "堕": 2439,
      "堙": 2440,
      "堞": 2441,
      "堠": 2442,
      "堡": 2443,
      "堤": 2444,
      "堪": 2445,
      "堰": 2446,
      "場": 2447,
      "堵": 2448,
      "堽": 2449,
      "塄": 2450,
      "塅": 2451,
      "塈": 2452,
      "塌": 2453,
      "塍": 2454,
      "塑": 2455,
      "塔": 2456,
      "塘": 2457,
      "塝": 2458,
      "塞": 2459,
      "填": 2460,
      "塬": 2461,
      "塱": 2462,
      "塾": 2463,
      "墀": 2464,
      "境": 2465,
      "墅": 2466,
      "墉": 2467,
      "墎": 2468,
      "墒": 2469,
      "墓": 2470,
      "増": 2471,
      "墘": 2472,
      "墙": 2473,
      "增": 2474,
      "墟": 2475,
      "墠": 2476,
      "墨": 2477,
      "墩": 2478,
      "墶": 2479,
      "墸": 2480,
      "壁": 2481,
      "壅": 2482,
      "壑": 2483,
      "壕": 2484,
      "壤": 2485,
      "士": 2486,
      "壬": 2487,
      "壮": 2488,
      "声": 2489,
      "売": 2490,
      "壳": 2491,
      "壵": 2492,
      "壶": 2493,
      "壸": 2494,
      "壹": 2495,
      "夂": 2496,
      "处": 2497,
      "夆": 2498,
      "备": 2499,
      "変": 2500,
      "复": 2501,
      "夏": 2502,
      "夐": 2503,
      "夔": 2504,
      "夕": 2505,
      "外": 2506,
      "夙": 2507,
      "多": 2508,
      "夜": 2509,
      "够": 2510,
      "夤": 2511,
      "大": 2512,
      "天": 2513,
      "太": 2514,
      "夫": 2515,
      "夬": 2516,
      "夭": 2517,
      "央": 2518,
      "夯": 2519,
      "失": 2520,
      "夲": 2521,
      "头": 2522,
      "夷": 2523,
      "夸": 2524,
      "夹": 2525,
      "夺": 2526,
      "奀": 2527,
      "奁": 2528,
      "奂": 2529,
      "奄": 2530,
      "奇": 2531,
      "奈": 2532,
      "奉": 2533,
      "奋": 2534,
      "奎": 2535,
      "奏": 2536,
      "契": 2537,
      "奓": 2538,
      "奔": 2539,
      "奕": 2540,
      "奖": 2541,
      "套": 2542,
      "奘": 2543,
      "奚": 2544,
      "奠": 2545,
      "奡": 2546,
      "奢": 2547,
      "奣": 2548,
      "奥": 2549,
      "奭": 2550,
      "女": 2551,
      "奴": 2552,
      "奶": 2553,
      "奸": 2554,
      "她": 2555,
      "好": 2556,
      "妁": 2557,
      "如": 2558,
      "妃": 2559,
      "妄": 2560,
      "妆": 2561,
      "妇": 2562,
      "妈": 2563,
      "妊": 2564,
      "妍": 2565,
      "妏": 2566,
      "妐": 2567,
      "妒": 2568,
      "妓": 2569,
      "妖": 2570,
      "妗": 2571,
      "妙": 2572,
      "妞": 2573,
      "妠": 2574,
      "妣": 2575,
      "妤": 2576,
      "妥": 2577,
      "妨": 2578,
      "妩": 2579,
      "妪": 2580,
      "妫": 2581,
      "妮": 2582,
      "妯": 2583,
      "妲": 2584,
      "妹": 2585,
      "妺": 2586,
      "妻": 2587,
      "妾": 2588,
      "姂": 2589,
      "姃": 2590,
      "姆": 2591,
      "姊": 2592,
      "始": 2593,
      "姌": 2594,
      "姐": 2595,
      "姑": 2596,
      "姒": 2597,
      "姓": 2598,
      "委": 2599,
      "姗": 2600,
      "姘": 2601,
      "姚": 2602,
      "姜": 2603,
      "姝": 2604,
      "姞": 2605,
      "姣": 2606,
      "姤": 2607,
      "姥": 2608,
      "姨": 2609,
      "姫": 2610,
      "姬": 2611,
      "姮": 2612,
      "姶": 2613,
      "姹": 2614,
      "姻": 2615,
      "姽": 2616,
      "姿": 2617,
      "娀": 2618,
      "威": 2619,
      "娃": 2620,
      "娄": 2621,
      "娅": 2622,
      "娆": 2623,
      "娇": 2624,
      "娈": 2625,
      "娉": 2626,
      "娌": 2627,
      "娑": 2628,
      "娓": 2629,
      "娕": 2630,
      "娘": 2631,
      "娜": 2632,
      "娟": 2633,
      "娠": 2634,
      "娡": 2635,
      "娣": 2636,
      "娥": 2637,
      "娩": 2638,
      "娭": 2639,
      "娱": 2640,
      "娲": 2641,
      "娴": 2642,
      "娶": 2643,
      "娸": 2644,
      "娼": 2645,
      "婀": 2646,
      "婆": 2647,
      "婇": 2648,
      "婉": 2649,
      "婊": 2650,
      "婕": 2651,
      "婚": 2652,
      "婠": 2653,
      "婡": 2654,
      "婢": 2655,
      "婧": 2656,
      "婪": 2657,
      "婬": 2658,
      "婳": 2659,
      "婴": 2660,
      "婵": 2661,
      "婶": 2662,
      "婷": 2663,
      "婺": 2664,
      "婻": 2665,
      "婿": 2666,
      "媒": 2667,
      "媚": 2668,
      "媛": 2669,
      "媜": 2670,
      "媝": 2671,
      "媞": 2672,
      "媟": 2673,
      "媪": 2674,
      "媲": 2675,
      "媳": 2676,
      "媵": 2677,
      "媷": 2678,
      "媸": 2679,
      "媾": 2680,
      "媿": 2681,
      "嫁": 2682,
      "嫂": 2683,
      "嫄": 2684,
      "嫉": 2685,
      "嫌": 2686,
      "嫑": 2687,
      "嫒": 2688,
      "嫔": 2689,
      "嫖": 2690,
      "嫘": 2691,
      "嫚": 2692,
      "嫜": 2693,
      "嫠": 2694,
      "嫡": 2695,
      "嫣": 2696,
      "嫦": 2697,
      "嫩": 2698,
      "嫪": 2699,
      "嫫": 2700,
      "嫰": 2701,
      "嫱": 2702,
      "嫲": 2703,
      "嫺": 2704,
      "嬅": 2705,
      "嬉": 2706,
      "嬗": 2707,
      "嬛": 2708,
      "嬲": 2709,
      "嬴": 2710,
      "嬷": 2711,
      "嬿": 2712,
      "孀": 2713,
      "子": 2714,
      "孑": 2715,
      "孓": 2716,
      "孔": 2717,
      "孕": 2718,
      "孖": 2719,
      "字": 2720,
      "存": 2721,
      "孙": 2722,
      "孚": 2723,
      "孛": 2724,
      "孜": 2725,
      "孝": 2726,
      "孟": 2727,
      "孢": 2728,
      "季": 2729,
      "孤": 2730,
      "孥": 2731,
      "学": 2732,
      "孨": 2733,
      "孩": 2734,
      "孪": 2735,
      "孬": 2736,
      "孰": 2737,
      "孱": 2738,
      "孳": 2739,
      "孵": 2740,
      "學": 2741,
      "孺": 2742,
      "孽": 2743,
      "宀": 2744,
      "宁": 2745,
      "它": 2746,
      "宄": 2747,
      "宅": 2748,
      "宇": 2749,
      "守": 2750,
      "安": 2751,
      "宊": 2752,
      "宋": 2753,
      "完": 2754,
      "宏": 2755,
      "宓": 2756,
      "宔": 2757,
      "宕": 2758,
      "宗": 2759,
      "官": 2760,
      "宙": 2761,
      "定": 2762,
      "宛": 2763,
      "宜": 2764,
      "宝": 2765,
      "实": 2766,
      "宠": 2767,
      "审": 2768,
      "客": 2769,
      "宣": 2770,
      "室": 2771,
      "宥": 2772,
      "宦": 2773,
      "宨": 2774,
      "宪": 2775,
      "宫": 2776,
      "宮": 2777,
      "宰": 2778,
      "害": 2779,
      "宴": 2780,
      "宵": 2781,
      "家": 2782,
      "宸": 2783,
      "容": 2784,
      "宽": 2785,
      "宾": 2786,
      "宿": 2787,
      "寂": 2788,
      "寄": 2789,
      "寅": 2790,
      "密": 2791,
      "寇": 2792,
      "富": 2793,
      "寐": 2794,
      "寒": 2795,
      "寓": 2796,
      "寛": 2797,
      "寝": 2798,
      "寞": 2799,
      "察": 2800,
      "寡": 2801,
      "寤": 2802,
      "寥": 2803,
      "寨": 2804,
      "寮": 2805,
      "寰": 2806,
      "寳": 2807,
      "寸": 2808,
      "对": 2809,
      "寺": 2810,
      "寻": 2811,
      "导": 2812,
      "対": 2813,
      "寿": 2814,
      "封": 2815,
      "射": 2816,
      "将": 2817,
      "尉": 2818,
      "尊": 2819,
      "小": 2820,
      "尐": 2821,
      "少": 2822,
      "尔": 2823,
      "尕": 2824,
      "尖": 2825,
      "尘": 2826,
      "尙": 2827,
      "尚": 2828,
      "尛": 2829,
      "尜": 2830,
      "尝": 2831,
      "尞": 2832,
      "尟": 2833,
      "尢": 2834,
      "尤": 2835,
      "尥": 2836,
      "尧": 2837,
      "尪": 2838,
      "尬": 2839,
      "就": 2840,
      "尴": 2841,
      "尸": 2842,
      "尹": 2843,
      "尺": 2844,
      "尻": 2845,
      "尼": 2846,
      "尽": 2847,
      "尾": 2848,
      "尿": 2849,
      "局": 2850,
      "屁": 2851,
      "层": 2852,
      "屃": 2853,
      "居": 2854,
      "屈": 2855,
      "屉": 2856,
      "届": 2857,
      "屋": 2858,
      "屌": 2859,
      "屎": 2860,
      "屏": 2861,
      "屐": 2862,
      "屑": 2863,
      "展": 2864,
      "屙": 2865,
      "屛": 2866,
      "属": 2867,
      "屠": 2868,
      "屡": 2869,
      "屣": 2870,
      "履": 2871,
      "屦": 2872,
      "屮": 2873,
      "屯": 2874,
      "山": 2875,
      "屲": 2876,
      "屹": 2877,
      "屺": 2878,
      "屿": 2879,
      "岀": 2880,
      "岁": 2881,
      "岂": 2882,
      "岈": 2883,
      "岌": 2884,
      "岐": 2885,
      "岑": 2886,
      "岔": 2887,
      "岖": 2888,
      "岗": 2889,
      "岘": 2890,
      "岙": 2891,
      "岚": 2892,
      "岛": 2893,
      "岜": 2894,
      "岢": 2895,
      "岣": 2896,
      "岩": 2897,
      "岫": 2898,
      "岬": 2899,
      "岭": 2900,
      "岱": 2901,
      "岳": 2902,
      "岵": 2903,
      "岷": 2904,
      "岸": 2905,
      "岺": 2906,
      "岽": 2907,
      "岿": 2908,
      "峁": 2909,
      "峃": 2910,
      "峄": 2911,
      "峋": 2912,
      "峒": 2913,
      "峙": 2914,
      "峡": 2915,
      "峣": 2916,
      "峤": 2917,
      "峥": 2918,
      "峦": 2919,
      "峨": 2920,
      "峪": 2921,
      "峭": 2922,
      "峯": 2923,
      "峰": 2924,
      "島": 2925,
      "峻": 2926,
      "崀": 2927,
      "崂": 2928,
      "崃": 2929,
      "崆": 2930,
      "崇": 2931,
      "崎": 2932,
      "崐": 2933,
      "崑": 2934,
      "崔": 2935,
      "崖": 2936,
      "崘": 2937,
      "崛": 2938,
      "崟": 2939,
      "崤": 2940,
      "崦": 2941,
      "崧": 2942,
      "崩": 2943,
      "崭": 2944,
      "崮": 2945,
      "崴": 2946,
      "崽": 2947,
      "嵇": 2948,
      "嵊": 2949,
      "嵋": 2950,
      "嵌": 2951,
      "嵓": 2952,
      "嵕": 2953,
      "嵖": 2954,
      "嵘": 2955,
      "嵚": 2956,
      "嵛": 2957,
      "嵜": 2958,
      "嵡": 2959,
      "嵩": 2960,
      "嵫": 2961,
      "嵬": 2962,
      "嵯": 2963,
      "嵴": 2964,
      "嶂": 2965,
      "嶋": 2966,
      "嶍": 2967,
      "嶒": 2968,
      "嶓": 2969,
      "嶙": 2970,
      "嶝": 2971,
      "嶪": 2972,
      "嶷": 2973,
      "巅": 2974,
      "巉": 2975,
      "巌": 2976,
      "巍": 2977,
      "巘": 2978,
      "巜": 2979,
      "川": 2980,
      "州": 2981,
      "巡": 2982,
      "巢": 2983,
      "工": 2984,
      "左": 2985,
      "巧": 2986,
      "巨": 2987,
      "巩": 2988,
      "巫": 2989,
      "巭": 2990,
      "差": 2991,
      "巯": 2992,
      "己": 2993,
      "已": 2994,
      "巳": 2995,
      "巴": 2996,
      "巷": 2997,
      "巻": 2998,
      "巽": 2999,
      "巾": 3000,
      "巿": 3001,
      "币": 3002,
      "市": 3003,
      "布": 3004,
      "帅": 3005,
      "帆": 3006,
      "师": 3007,
      "希": 3008,
      "帏": 3009,
      "帐": 3010,
      "帑": 3011,
      "帔": 3012,
      "帕": 3013,
      "帖": 3014,
      "帘": 3015,
      "帙": 3016,
      "帚": 3017,
      "帛": 3018,
      "帜": 3019,
      "帝": 3020,
      "带": 3021,
      "帧": 3022,
      "席": 3023,
      "帮": 3024,
      "帯": 3025,
      "帲": 3026,
      "帷": 3027,
      "常": 3028,
      "帻": 3029,
      "帼": 3030,
      "帽": 3031,
      "幂": 3032,
      "幄": 3033,
      "幅": 3034,
      "幌": 3035,
      "幔": 3036,
      "幕": 3037,
      "幙": 3038,
      "幛": 3039,
      "幝": 3040,
      "幞": 3041,
      "幡": 3042,
      "幢": 3043,
      "干": 3044,
      "平": 3045,
      "年": 3046,
      "幵": 3047,
      "并": 3048,
      "幷": 3049,
      "幸": 3050,
      "幺": 3051,
      "幻": 3052,
      "幼": 3053,
      "幽": 3054,
      "广": 3055,
      "庄": 3056,
      "庆": 3057,
      "庇": 3058,
      "床": 3059,
      "庋": 3060,
      "庎": 3061,
      "序": 3062,
      "庐": 3063,
      "庑": 3064,
      "庒": 3065,
      "库": 3066,
      "应": 3067,
      "底": 3068,
      "庖": 3069,
      "店": 3070,
      "庙": 3071,
      "庚": 3072,
      "府": 3073,
      "庞": 3074,
      "废": 3075,
      "庠": 3076,
      "庥": 3077,
      "度": 3078,
      "座": 3079,
      "庫": 3080,
      "庭": 3081,
      "庵": 3082,
      "庶": 3083,
      "康": 3084,
      "庸": 3085,
      "庹": 3086,
      "庾": 3087,
      "廉": 3088,
      "廊": 3089,
      "廋": 3090,
      "廑": 3091,
      "廓": 3092,
      "廖": 3093,
      "廙": 3094,
      "廛": 3095,
      "廨": 3096,
      "廪": 3097,
      "廯": 3098,
      "廰": 3099,
      "廴": 3100,
      "延": 3101,
      "廷": 3102,
      "建": 3103,
      "廻": 3104,
      "廾": 3105,
      "廿": 3106,
      "开": 3107,
      "弁": 3108,
      "异": 3109,
      "弃": 3110,
      "弄": 3111,
      "弇": 3112,
      "弈": 3113,
      "弊": 3114,
      "弋": 3115,
      "式": 3116,
      "弑": 3117,
      "弓": 3118,
      "引": 3119,
      "弗": 3120,
      "弘": 3121,
      "弛": 3122,
      "弟": 3123,
      "张": 3124,
      "弢": 3125,
      "弥": 3126,
      "弦": 3127,
      "弧": 3128,
      "弩": 3129,
      "弭": 3130,
      "弯": 3131,
      "弱": 3132,
      "弹": 3133,
      "强": 3134,
      "弼": 3135,
      "彀": 3136,
      "彐": 3137,
      "彑": 3138,
      "归": 3139,
      "当": 3140,
      "录": 3141,
      "彖": 3142,
      "彗": 3143,
      "彘": 3144,
      "彝": 3145,
      "彡": 3146,
      "形": 3147,
      "彤": 3148,
      "彦": 3149,
      "彧": 3150,
      "彩": 3151,
      "彪": 3152,
      "彬": 3153,
      "彭": 3154,
      "彰": 3155,
      "影": 3156,
      "彳": 3157,
      "彷": 3158,
      "役": 3159,
      "彻": 3160,
      "彼": 3161,
      "往": 3162,
      "征": 3163,
      "徂": 3164,
      "径": 3165,
      "待": 3166,
      "徇": 3167,
      "很": 3168,
      "徉": 3169,
      "徊": 3170,
      "律": 3171,
      "後": 3172,
      "徏": 3173,
      "徐": 3174,
      "徒": 3175,
      "従": 3176,
      "徕": 3177,
      "得": 3178,
      "徘": 3179,
      "徙": 3180,
      "徜": 3181,
      "御": 3182,
      "徧": 3183,
      "徨": 3184,
      "循": 3185,
      "徭": 3186,
      "微": 3187,
      "徳": 3188,
      "徴": 3189,
      "徵": 3190,
      "德": 3191,
      "徼": 3192,
      "徽": 3193,
      "徿": 3194,
      "心": 3195,
      "忄": 3196,
      "必": 3197,
      "忆": 3198,
      "忉": 3199,
      "忌": 3200,
      "忍": 3201,
      "忏": 3202,
      "忐": 3203,
      "忑": 3204,
      "忒": 3205,
      "忖": 3206,
      "志": 3207,
      "忘": 3208,
      "忙": 3209,
      "忝": 3210,
      "忠": 3211,
      "忡": 3212,
      "忤": 3213,
      "忧": 3214,
      "忪": 3215,
      "快": 3216,
      "忮": 3217,
      "忱": 3218,
      "忳": 3219,
      "忴": 3220,
      "念": 3221,
      "忸": 3222,
      "忻": 3223,
      "忽": 3224,
      "忾": 3225,
      "忿": 3226,
      "怀": 3227,
      "态": 3228,
      "怂": 3229,
      "怃": 3230,
      "怄": 3231,
      "怅": 3232,
      "怆": 3233,
      "怍": 3234,
      "怎": 3235,
      "怏": 3236,
      "怒": 3237,
      "怔": 3238,
      "怕": 3239,
      "怖": 3240,
      "怙": 3241,
      "怛": 3242,
      "怜": 3243,
      "思": 3244,
      "怠": 3245,
      "怡": 3246,
      "怣": 3247,
      "急": 3248,
      "怦": 3249,
      "性": 3250,
      "怨": 3251,
      "怩": 3252,
      "怪": 3253,
      "怫": 3254,
      "怯": 3255,
      "怳": 3256,
      "怵": 3257,
      "怹": 3258,
      "总": 3259,
      "怼": 3260,
      "怿": 3261,
      "恁": 3262,
      "恂": 3263,
      "恃": 3264,
      "恇": 3265,
      "恉": 3266,
      "恋": 3267,
      "恍": 3268,
      "恏": 3269,
      "恐": 3270,
      "恒": 3271,
      "恓": 3272,
      "恕": 3273,
      "恙": 3274,
      "恚": 3275,
      "恢": 3276,
      "恣": 3277,
      "恤": 3278,
      "恨": 3279,
      "恩": 3280,
      "恪": 3281,
      "恫": 3282,
      "恬": 3283,
      "恭": 3284,
      "息": 3285,
      "恰": 3286,
      "恳": 3287,
      "恶": 3288,
      "恸": 3289,
      "恹": 3290,
      "恺": 3291,
      "恻": 3292,
      "恼": 3293,
      "恽": 3294,
      "恿": 3295,
      "悄": 3296,
      "悉": 3297,
      "悌": 3298,
      "悍": 3299,
      "悒": 3300,
      "悔": 3301,
      "悖": 3302,
      "悚": 3303,
      "悛": 3304,
      "悝": 3305,
      "悟": 3306,
      "悠": 3307,
      "患": 3308,
      "悦": 3309,
      "您": 3310,
      "悫": 3311,
      "悬": 3312,
      "悭": 3313,
      "悯": 3314,
      "悱": 3315,
      "悲": 3316,
      "悴": 3317,
      "悸": 3318,
      "悻": 3319,
      "悼": 3320,
      "情": 3321,
      "惆": 3322,
      "惇": 3323,
      "惊": 3324,
      "惋": 3325,
      "惑": 3326,
      "惔": 3327,
      "惕": 3328,
      "惘": 3329,
      "惚": 3330,
      "惜": 3331,
      "惝": 3332,
      "惟": 3333,
      "惠": 3334,
      "惢": 3335,
      "惣": 3336,
      "惦": 3337,
      "惧": 3338,
      "惨": 3339,
      "惩": 3340,
      "惫": 3341,
      "惬": 3342,
      "惭": 3343,
      "惮": 3344,
      "惯": 3345,
      "惰": 3346,
      "想": 3347,
      "惴": 3348,
      "惶": 3349,
      "惹": 3350,
      "惺": 3351,
      "愀": 3352,
      "愁": 3353,
      "愆": 3354,
      "愈": 3355,
      "愉": 3356,
      "愋": 3357,
      "愍": 3358,
      "愎": 3359,
      "意": 3360,
      "愕": 3361,
      "愚": 3362,
      "愛": 3363,
      "感": 3364,
      "愠": 3365,
      "愣": 3366,
      "愤": 3367,
      "愦": 3368,
      "愧": 3369,
      "愫": 3370,
      "愬": 3371,
      "愰": 3372,
      "愽": 3373,
      "愿": 3374,
      "慆": 3375,
      "慈": 3376,
      "慊": 3377,
      "慌": 3378,
      "慎": 3379,
      "慑": 3380,
      "慒": 3381,
      "慓": 3382,
      "慕": 3383,
      "慜": 3384,
      "慝": 3385,
      "慢": 3386,
      "慧": 3387,
      "慨": 3388,
      "慯": 3389,
      "慰": 3390,
      "慲": 3391,
      "慴": 3392,
      "慵": 3393,
      "慷": 3394,
      "慽": 3395,
      "慾": 3396,
      "憋": 3397,
      "憍": 3398,
      "憎": 3399,
      "憓": 3400,
      "憔": 3401,
      "憧": 3402,
      "憨": 3403,
      "憩": 3404,
      "憬": 3405,
      "憷": 3406,
      "憹": 3407,
      "憺": 3408,
      "憾": 3409,
      "懂": 3410,
      "懈": 3411,
      "懊": 3412,
      "懋": 3413,
      "懑": 3414,
      "懒": 3415,
      "懥": 3416,
      "懦": 3417,
      "懰": 3418,
      "懵": 3419,
      "懿": 3420,
      "戆": 3421,
      "戈": 3422,
      "戊": 3423,
      "戋": 3424,
      "戌": 3425,
      "戍": 3426,
      "戎": 3427,
      "戏": 3428,
      "成": 3429,
      "我": 3430,
      "戒": 3431,
      "戕": 3432,
      "或": 3433,
      "戗": 3434,
      "战": 3435,
      "戚": 3436,
      "戛": 3437,
      "戟": 3438,
      "戡": 3439,
      "戢": 3440,
      "戥": 3441,
      "截": 3442,
      "戬": 3443,
      "戮": 3444,
      "戳": 3445,
      "戴": 3446,
      "户": 3447,
      "戾": 3448,
      "房": 3449,
      "所": 3450,
      "扁": 3451,
      "扃": 3452,
      "扆": 3453,
      "扇": 3454,
      "扈": 3455,
      "扉": 3456,
      "手": 3457,
      "才": 3458,
      "扎": 3459,
      "扑": 3460,
      "扒": 3461,
      "打": 3462,
      "扔": 3463,
      "托": 3464,
      "扛": 3465,
      "扞": 3466,
      "扣": 3467,
      "扥": 3468,
      "扦": 3469,
      "执": 3470,
      "扩": 3471,
      "扪": 3472,
      "扫": 3473,
      "扬": 3474,
      "扭": 3475,
      "扮": 3476,
      "扯": 3477,
      "扰": 3478,
      "扳": 3479,
      "扶": 3480,
      "批": 3481,
      "扼": 3482,
      "扽": 3483,
      "找": 3484,
      "承": 3485,
      "技": 3486,
      "抄": 3487,
      "抉": 3488,
      "把": 3489,
      "抑": 3490,
      "抒": 3491,
      "抓": 3492,
      "抔": 3493,
      "投": 3494,
      "抖": 3495,
      "抗": 3496,
      "折": 3497,
      "抚": 3498,
      "抛": 3499,
      "抟": 3500,
      "抠": 3501,
      "抡": 3502,
      "抢": 3503,
      "护": 3504,
      "报": 3505,
      "抨": 3506,
      "披": 3507,
      "抬": 3508,
      "抱": 3509,
      "抵": 3510,
      "抹": 3511,
      "抺": 3512,
      "抻": 3513,
      "押": 3514,
      "抽": 3515,
      "抿": 3516,
      "拂": 3517,
      "拃": 3518,
      "拄": 3519,
      "担": 3520,
      "拆": 3521,
      "拇": 3522,
      "拈": 3523,
      "拉": 3524,
      "拊": 3525,
      "拌": 3526,
      "拍": 3527,
      "拎": 3528,
      "拏": 3529,
      "拐": 3530,
      "拒": 3531,
      "拓": 3532,
      "拔": 3533,
      "拖": 3534,
      "拗": 3535,
      "拘": 3536,
      "拙": 3537,
      "招": 3538,
      "拜": 3539,
      "拟": 3540,
      "拢": 3541,
      "拣": 3542,
      "拥": 3543,
      "拦": 3544,
      "拧": 3545,
      "拨": 3546,
      "择": 3547,
      "括": 3548,
      "拭": 3549,
      "拮": 3550,
      "拯": 3551,
      "拱": 3552,
      "拳": 3553,
      "拴": 3554,
      "拷": 3555,
      "拼": 3556,
      "拽": 3557,
      "拾": 3558,
      "拿": 3559,
      "持": 3560,
      "挂": 3561,
      "指": 3562,
      "挈": 3563,
      "按": 3564,
      "挌": 3565,
      "挎": 3566,
      "挐": 3567,
      "挑": 3568,
      "挒": 3569,
      "挖": 3570,
      "挙": 3571,
      "挚": 3572,
      "挛": 3573,
      "挝": 3574,
      "挞": 3575,
      "挟": 3576,
      "挠": 3577,
      "挡": 3578,
      "挢": 3579,
      "挣": 3580,
      "挤": 3581,
      "挥": 3582,
      "挨": 3583,
      "挪": 3584,
      "挫": 3585,
      "振": 3586,
      "挲": 3587,
      "挹": 3588,
      "挺": 3589,
      "挻": 3590,
      "挽": 3591,
      "挿": 3592,
      "捂": 3593,
      "捄": 3594,
      "捅": 3595,
      "捆": 3596,
      "捉": 3597,
      "捋": 3598,
      "捌": 3599,
      "捍": 3600,
      "捎": 3601,
      "捏": 3602,
      "捐": 3603,
      "捕": 3604,
      "捞": 3605,
      "损": 3606,
      "捡": 3607,
      "换": 3608,
      "捣": 3609,
      "捧": 3610,
      "捩": 3611,
      "捭": 3612,
      "据": 3613,
      "捯": 3614,
      "捱": 3615,
      "捴": 3616,
      "捵": 3617,
      "捶": 3618,
      "捷": 3619,
      "捺": 3620,
      "捻": 3621,
      "捽": 3622,
      "掀": 3623,
      "掂": 3624,
      "掇": 3625,
      "授": 3626,
      "掉": 3627,
      "掊": 3628,
      "掌": 3629,
      "掎": 3630,
      "掏": 3631,
      "掐": 3632,
      "掑": 3633,
      "排": 3634,
      "掖": 3635,
      "掘": 3636,
      "掠": 3637,
      "探": 3638,
      "掣": 3639,
      "掤": 3640,
      "接": 3641,
      "控": 3642,
      "推": 3643,
      "掩": 3644,
      "措": 3645,
      "掬": 3646,
      "掭": 3647,
      "掮": 3648,
      "掰": 3649,
      "掱": 3650,
      "掳": 3651,
      "掴": 3652,
      "掷": 3653,
      "掸": 3654,
      "掺": 3655,
      "掼": 3656,
      "掾": 3657,
      "揄": 3658,
      "揆": 3659,
      "揉": 3660,
      "揍": 3661,
      "描": 3662,
      "提": 3663,
      "插": 3664,
      "揔": 3665,
      "揖": 3666,
      "揠": 3667,
      "握": 3668,
      "揣": 3669,
      "揩": 3670,
      "揪": 3671,
      "揭": 3672,
      "援": 3673,
      "揵": 3674,
      "揶": 3675,
      "揸": 3676,
      "揽": 3677,
      "揾": 3678,
      "揿": 3679,
      "搀": 3680,
      "搁": 3681,
      "搂": 3682,
      "搅": 3683,
      "搊": 3684,
      "搋": 3685,
      "搌": 3686,
      "搏": 3687,
      "搐": 3688,
      "搓": 3689,
      "搔": 3690,
      "搜": 3691,
      "搞": 3692,
      "搡": 3693,
      "搢": 3694,
      "搥": 3695,
      "搦": 3696,
      "搧": 3697,
      "搨": 3698,
      "搪": 3699,
      "搬": 3700,
      "搭": 3701,
      "搳": 3702,
      "搴": 3703,
      "携": 3704,
      "搽": 3705,
      "摀": 3706,
      "摁": 3707,
      "摃": 3708,
      "摄": 3709,
      "摅": 3710,
      "摆": 3711,
      "摇": 3712,
      "摈": 3713,
      "摊": 3714,
      "摎": 3715,
      "摐": 3716,
      "摒": 3717,
      "摔": 3718,
      "摘": 3719,
      "摚": 3720,
      "摞": 3721,
      "摧": 3722,
      "摩": 3723,
      "摭": 3724,
      "摴": 3725,
      "摸": 3726,
      "摹": 3727,
      "摽": 3728,
      "撂": 3729,
      "撄": 3730,
      "撅": 3731,
      "撆": 3732,
      "撇": 3733,
      "撑": 3734,
      "撒": 3735,
      "撕": 3736,
      "撘": 3737,
      "撙": 3738,
      "撞": 3739,
      "撤": 3740,
      "撩": 3741,
      "撬": 3742,
      "播": 3743,
      "撮": 3744,
      "撰": 3745,
      "撵": 3746,
      "撷": 3747,
      "撸": 3748,
      "撹": 3749,
      "撺": 3750,
      "撼": 3751,
      "擀": 3752,
      "擂": 3753,
      "擅": 3754,
      "操": 3755,
      "擎": 3756,
      "擒": 3757,
      "擘": 3758,
      "擞": 3759,
      "擢": 3760,
      "擤": 3761,
      "擦": 3762,
      "擫": 3763,
      "攀": 3764,
      "攉": 3765,
      "攒": 3766,
      "攘": 3767,
      "攥": 3768,
      "攫": 3769,
      "攮": 3770,
      "支": 3771,
      "攲": 3772,
      "攴": 3773,
      "攵": 3774,
      "收": 3775,
      "攸": 3776,
      "改": 3777,
      "攻": 3778,
      "放": 3779,
      "政": 3780,
      "敁": 3781,
      "故": 3782,
      "效": 3783,
      "敌": 3784,
      "敍": 3785,
      "敎": 3786,
      "敏": 3787,
      "救": 3788,
      "敕": 3789,
      "敖": 3790,
      "教": 3791,
      "敛": 3792,
      "敝": 3793,
      "敞": 3794,
      "敢": 3795,
      "散": 3796,
      "敤": 3797,
      "敦": 3798,
      "敩": 3799,
      "敫": 3800,
      "敬": 3801,
      "敭": 3802,
      "敯": 3803,
      "数": 3804,
      "敲": 3805,
      "整": 3806,
      "敷": 3807,
      "敻": 3808,
      "敼": 3809,
      "斁": 3810,
      "文": 3811,
      "斈": 3812,
      "斋": 3813,
      "斌": 3814,
      "斎": 3815,
      "斐": 3816,
      "斑": 3817,
      "斓": 3818,
      "斗": 3819,
      "斘": 3820,
      "料": 3821,
      "斚": 3822,
      "斛": 3823,
      "斜": 3824,
      "斝": 3825,
      "斟": 3826,
      "斡": 3827,
      "斤": 3828,
      "斥": 3829,
      "斧": 3830,
      "斨": 3831,
      "斩": 3832,
      "斫": 3833,
      "断": 3834,
      "斯": 3835,
      "新": 3836,
      "斲": 3837,
      "方": 3838,
      "於": 3839,
      "施": 3840,
      "旁": 3841,
      "旃": 3842,
      "旄": 3843,
      "旅": 3844,
      "旆": 3845,
      "旋": 3846,
      "旌": 3847,
      "旎": 3848,
      "族": 3849,
      "旒": 3850,
      "旖": 3851,
      "旗": 3852,
      "旜": 3853,
      "无": 3854,
      "既": 3855,
      "日": 3856,
      "旦": 3857,
      "旧": 3858,
      "旨": 3859,
      "早": 3860,
      "旬": 3861,
      "旭": 3862,
      "旮": 3863,
      "旯": 3864,
      "旰": 3865,
      "旱": 3866,
      "旳": 3867,
      "时": 3868,
      "旷": 3869,
      "旸": 3870,
      "旺": 3871,
      "旻": 3872,
      "旼": 3873,
      "昀": 3874,
      "昂": 3875,
      "昃": 3876,
      "昆": 3877,
      "昇": 3878,
      "昉": 3879,
      "昊": 3880,
      "昌": 3881,
      "明": 3882,
      "昏": 3883,
      "昑": 3884,
      "易": 3885,
      "昔": 3886,
      "昕": 3887,
      "昖": 3888,
      "昙": 3889,
      "昚": 3890,
      "昜": 3891,
      "星": 3892,
      "映": 3893,
      "昤": 3894,
      "春": 3895,
      "昧": 3896,
      "昨": 3897,
      "昪": 3898,
      "昭": 3899,
      "是": 3900,
      "昰": 3901,
      "昱": 3902,
      "昳": 3903,
      "昴": 3904,
      "昵": 3905,
      "昶": 3906,
      "昺": 3907,
      "昼": 3908,
      "显": 3909,
      "晁": 3910,
      "時": 3911,
      "晃": 3912,
      "晄": 3913,
      "晋": 3914,
      "晌": 3915,
      "晏": 3916,
      "晒": 3917,
      "晓": 3918,
      "晔": 3919,
      "晕": 3920,
      "晖": 3921,
      "晗": 3922,
      "晙": 3923,
      "晚": 3924,
      "晛": 3925,
      "晜": 3926,
      "晞": 3927,
      "晟": 3928,
      "晡": 3929,
      "晢": 3930,
      "晤": 3931,
      "晥": 3932,
      "晦": 3933,
      "晨": 3934,
      "晩": 3935,
      "普": 3936,
      "景": 3937,
      "晰": 3938,
      "晳": 3939,
      "晴": 3940,
      "晶": 3941,
      "晷": 3942,
      "智": 3943,
      "晻": 3944,
      "晾": 3945,
      "晿": 3946,
      "暁": 3947,
      "暂": 3948,
      "暄": 3949,
      "暇": 3950,
      "暌": 3951,
      "暍": 3952,
      "暐": 3953,
      "暑": 3954,
      "暖": 3955,
      "暗": 3956,
      "暝": 3957,
      "暠": 3958,
      "暡": 3959,
      "暧": 3960,
      "暨": 3961,
      "暩": 3962,
      "暫": 3963,
      "暮": 3964,
      "暲": 3965,
      "暴": 3966,
      "暷": 3967,
      "暸": 3968,
      "暹": 3969,
      "暻": 3970,
      "暾": 3971,
      "曌": 3972,
      "曕": 3973,
      "曙": 3974,
      "曚": 3975,
      "曛": 3976,
      "曜": 3977,
      "曝": 3978,
      "曦": 3979,
      "曩": 3980,
      "曰": 3981,
      "曲": 3982,
      "曳": 3983,
      "更": 3984,
      "曵": 3985,
      "曷": 3986,
      "書": 3987,
      "曹": 3988,
      "曼": 3989,
      "曾": 3990,
      "替": 3991,
      "最": 3992,
      "朅": 3993,
      "月": 3994,
      "有": 3995,
      "朊": 3996,
      "朋": 3997,
      "服": 3998,
      "朏": 3999,
      "朐": 4000,
      "朔": 4001,
      "朕": 4002,
      "朗": 4003,
      "朘": 4004,
      "望": 4005,
      "朜": 4006,
      "朝": 4007,
      "期": 4008,
      "朤": 4009,
      "朦": 4010,
      "木": 4011,
      "朩": 4012,
      "未": 4013,
      "末": 4014,
      "本": 4015,
      "札": 4016,
      "术": 4017,
      "朱": 4018,
      "朴": 4019,
      "朵": 4020,
      "机": 4021,
      "朽": 4022,
      "朿": 4023,
      "杀": 4024,
      "杂": 4025,
      "权": 4026,
      "杆": 4027,
      "杈": 4028,
      "杉": 4029,
      "杌": 4030,
      "杍": 4031,
      "李": 4032,
      "杏": 4033,
      "材": 4034,
      "村": 4035,
      "杓": 4036,
      "杖": 4037,
      "杜": 4038,
      "杞": 4039,
      "束": 4040,
      "杠": 4041,
      "条": 4042,
      "来": 4043,
      "杨": 4044,
      "杪": 4045,
      "杫": 4046,
      "杬": 4047,
      "杭": 4048,
      "杮": 4049,
      "杯": 4050,
      "杰": 4051,
      "東": 4052,
      "杲": 4053,
      "杳": 4054,
      "杵": 4055,
      "杷": 4056,
      "杻": 4057,
      "杼": 4058,
      "松": 4059,
      "板": 4060,
      "极": 4061,
      "构": 4062,
      "枇": 4063,
      "枉": 4064,
      "枋": 4065,
      "析": 4066,
      "枒": 4067,
      "枕": 4068,
      "林": 4069,
      "枙": 4070,
      "枚": 4071,
      "果": 4072,
      "枝": 4073,
      "枞": 4074,
      "枢": 4075,
      "枣": 4076,
      "枥": 4077,
      "枧": 4078,
      "枨": 4079,
      "枪": 4080,
      "枫": 4081,
      "枭": 4082,
      "枯": 4083,
      "枰": 4084,
      "枱": 4085,
      "枲": 4086,
      "枳": 4087,
      "枵": 4088,
      "架": 4089,
      "枷": 4090,
      "枸": 4091,
      "枿": 4092,
      "柁": 4093,
      "柃": 4094,
      "柄": 4095,
      "柅": 4096,
      "柈": 4097,
      "柊": 4098,
      "柏": 4099,
      "某": 4100,
      "柑": 4101,
      "柒": 4102,
      "染": 4103,
      "柔": 4104,
      "柘": 4105,
      "柙": 4106,
      "柚": 4107,
      "柜": 4108,
      "柝": 4109,
      "柞": 4110,
      "柠": 4111,
      "柢": 4112,
      "查": 4113,
      "柩": 4114,
      "柬": 4115,
      "柯": 4116,
      "柰": 4117,
      "柱": 4118,
      "柳": 4119,
      "柴": 4120,
      "柺": 4121,
      "査": 4122,
      "柽": 4123,
      "柾": 4124,
      "柿": 4125,
      "栀": 4126,
      "栂": 4127,
      "栃": 4128,
      "栅": 4129,
      "栆": 4130,
      "标": 4131,
      "栈": 4132,
      "栉": 4133,
      "栊": 4134,
      "栋": 4135,
      "栌": 4136,
      "栎": 4137,
      "栏": 4138,
      "树": 4139,
      "栓": 4140,
      "栖": 4141,
      "栗": 4142,
      "栝": 4143,
      "栟": 4144,
      "校": 4145,
      "栢": 4146,
      "栩": 4147,
      "株": 4148,
      "栯": 4149,
      "栱": 4150,
      "栲": 4151,
      "栳": 4152,
      "栴": 4153,
      "样": 4154,
      "核": 4155,
      "根": 4156,
      "栻": 4157,
      "格": 4158,
      "栽": 4159,
      "栾": 4160,
      "栿": 4161,
      "桀": 4162,
      "桁": 4163,
      "桂": 4164,
      "桃": 4165,
      "桄": 4166,
      "桅": 4167,
      "框": 4168,
      "案": 4169,
      "桉": 4170,
      "桌": 4171,
      "桎": 4172,
      "桐": 4173,
      "桑": 4174,
      "桓": 4175,
      "桔": 4176,
      "桕": 4177,
      "桖": 4178,
      "桠": 4179,
      "桡": 4180,
      "桢": 4181,
      "档": 4182,
      "桤": 4183,
      "桥": 4184,
      "桦": 4185,
      "桧": 4186,
      "桨": 4187,
      "桩": 4188,
      "桫": 4189,
      "桴": 4190,
      "桶": 4191,
      "桷": 4192,
      "梁": 4193,
      "梃": 4194,
      "梅": 4195,
      "梆": 4196,
      "梏": 4197,
      "梓": 4198,
      "梗": 4199,
      "梡": 4200,
      "梢": 4201,
      "梣": 4202,
      "梦": 4203,
      "梧": 4204,
      "梨": 4205,
      "梭": 4206,
      "梯": 4207,
      "械": 4208,
      "梱": 4209,
      "梳": 4210,
      "梵": 4211,
      "梶": 4212,
      "梷": 4213,
      "梼": 4214,
      "梿": 4215,
      "检": 4216,
      "棂": 4217,
      "棃": 4218,
      "棉": 4219,
      "棋": 4220,
      "棍": 4221,
      "棑": 4222,
      "棒": 4223,
      "棕": 4224,
      "棘": 4225,
      "棚": 4226,
      "棠": 4227,
      "棣": 4228,
      "棨": 4229,
      "棪": 4230,
      "森": 4231,
      "棰": 4232,
      "棱": 4233,
      "棵": 4234,
      "棹": 4235,
      "棺": 4236,
      "棻": 4237,
      "棼": 4238,
      "椁": 4239,
      "椅": 4240,
      "椇": 4241,
      "椋": 4242,
      "植": 4243,
      "椎": 4244,
      "椐": 4245,
      "椒": 4246,
      "椟": 4247,
      "椤": 4248,
      "椥": 4249,
      "椪": 4250,
      "椭": 4251,
      "椰": 4252,
      "椴": 4253,
      "椹": 4254,
      "椽": 4255,
      "椿": 4256,
      "楂": 4257,
      "楔": 4258,
      "楗": 4259,
      "楚": 4260,
      "楝": 4261,
      "楞": 4262,
      "楠": 4263,
      "楡": 4264,
      "楣": 4265,
      "楥": 4266,
      "楦": 4267,
      "楪": 4268,
      "楫": 4269,
      "業": 4270,
      "楮": 4271,
      "楯": 4272,
      "楱": 4273,
      "楳": 4274,
      "楷": 4275,
      "楸": 4276,
      "楹": 4277,
      "楼": 4278,
      "楽": 4279,
      "概": 4280,
      "榃": 4281,
      "榄": 4282,
      "榆": 4283,
      "榇": 4284,
      "榈": 4285,
      "榉": 4286,
      "榊": 4287,
      "榔": 4288,
      "榕": 4289,
      "榖": 4290,
      "榘": 4291,
      "榛": 4292,
      "榜": 4293,
      "榣": 4294,
      "榧": 4295,
      "榨": 4296,
      "榫": 4297,
      "榭": 4298,
      "榴": 4299,
      "榷": 4300,
      "榻": 4301,
      "榼": 4302,
      "槁": 4303,
      "槃": 4304,
      "槅": 4305,
      "槊": 4306,
      "槌": 4307,
      "槎": 4308,
      "槐": 4309,
      "槑": 4310,
      "槕": 4311,
      "槖": 4312,
      "様": 4313,
      "槛": 4314,
      "槟": 4315,
      "槤": 4316,
      "槪": 4317,
      "槭": 4318,
      "槲": 4319,
      "槴": 4320,
      "槵": 4321,
      "槽": 4322,
      "槿": 4323,
      "樊": 4324,
      "樋": 4325,
      "樗": 4326,
      "樘": 4327,
      "樟": 4328,
      "模": 4329,
      "樧": 4330,
      "樨": 4331,
      "横": 4332,
      "樯": 4333,
      "樱": 4334,
      "樵": 4335,
      "樽": 4336,
      "樾": 4337,
      "橄": 4338,
      "橇": 4339,
      "橋": 4340,
      "橐": 4341,
      "橒": 4342,
      "橘": 4343,
      "橙": 4344,
      "橛": 4345,
      "橞": 4346,
      "橡": 4347,
      "橥": 4348,
      "橦": 4349,
      "橪": 4350,
      "橱": 4351,
      "橹": 4352,
      "橼": 4353,
      "檀": 4354,
      "檃": 4355,
      "檄": 4356,
      "檇": 4357,
      "檎": 4358,
      "檐": 4359,
      "檗": 4360,
      "檩": 4361,
      "檫": 4362,
      "檬": 4363,
      "檵": 4364,
      "櫆": 4365,
      "櫜": 4366,
      "櫵": 4367,
      "欃": 4368,
      "欇": 4369,
      "欐": 4370,
      "欠": 4371,
      "次": 4372,
      "欢": 4373,
      "欣": 4374,
      "欤": 4375,
      "欧": 4376,
      "欲": 4377,
      "欷": 4378,
      "欸": 4379,
      "欹": 4380,
      "欺": 4381,
      "欻": 4382,
      "款": 4383,
      "歃": 4384,
      "歆": 4385,
      "歇": 4386,
      "歉": 4387,
      "歌": 4388,
      "歓": 4389,
      "歙": 4390,
      "歛": 4391,
      "止": 4392,
      "正": 4393,
      "此": 4394,
      "步": 4395,
      "武": 4396,
      "歧": 4397,
      "歩": 4398,
      "歪": 4399,
      "歮": 4400,
      "歯": 4401,
      "歳": 4402,
      "歹": 4403,
      "歺": 4404,
      "死": 4405,
      "歼": 4406,
      "歾": 4407,
      "殀": 4408,
      "殁": 4409,
      "殂": 4410,
      "殃": 4411,
      "殄": 4412,
      "殆": 4413,
      "殇": 4414,
      "殉": 4415,
      "殊": 4416,
      "残": 4417,
      "殍": 4418,
      "殒": 4419,
      "殓": 4420,
      "殖": 4421,
      "殚": 4422,
      "殛": 4423,
      "殡": 4424,
      "殢": 4425,
      "殪": 4426,
      "殳": 4427,
      "殴": 4428,
      "段": 4429,
      "殷": 4430,
      "殹": 4431,
      "殻": 4432,
      "殿": 4433,
      "毁": 4434,
      "毂": 4435,
      "毅": 4436,
      "毋": 4437,
      "母": 4438,
      "毎": 4439,
      "每": 4440,
      "毐": 4441,
      "毑": 4442,
      "毒": 4443,
      "毓": 4444,
      "比": 4445,
      "毕": 4446,
      "毖": 4447,
      "毗": 4448,
      "毘": 4449,
      "毙": 4450,
      "毛": 4451,
      "毡": 4452,
      "毫": 4453,
      "毯": 4454,
      "毳": 4455,
      "毽": 4456,
      "氅": 4457,
      "氍": 4458,
      "氏": 4459,
      "氐": 4460,
      "民": 4461,
      "氓": 4462,
      "气": 4463,
      "氖": 4464,
      "気": 4465,
      "氘": 4466,
      "氙": 4467,
      "氚": 4468,
      "氛": 4469,
      "氟": 4470,
      "氡": 4471,
      "氢": 4472,
      "氤": 4473,
      "氦": 4474,
      "氧": 4475,
      "氨": 4476,
      "氩": 4477,
      "氪": 4478,
      "氮": 4479,
      "氯": 4480,
      "氰": 4481,
      "氲": 4482,
      "水": 4483,
      "氵": 4484,
      "氷": 4485,
      "永": 4486,
      "氹": 4487,
      "氺": 4488,
      "氽": 4489,
      "氿": 4490,
      "汀": 4491,
      "汁": 4492,
      "求": 4493,
      "汆": 4494,
      "汇": 4495,
      "汉": 4496,
      "汊": 4497,
      "汐": 4498,
      "汔": 4499,
      "汕": 4500,
      "汖": 4501,
      "汗": 4502,
      "汛": 4503,
      "汜": 4504,
      "汝": 4505,
      "汞": 4506,
      "江": 4507,
      "池": 4508,
      "污": 4509,
      "汤": 4510,
      "汨": 4511,
      "汩": 4512,
      "汪": 4513,
      "汰": 4514,
      "汲": 4515,
      "汴": 4516,
      "汶": 4517,
      "汹": 4518,
      "決": 4519,
      "汻": 4520,
      "汽": 4521,
      "汾": 4522,
      "沁": 4523,
      "沂": 4524,
      "沃": 4525,
      "沄": 4526,
      "沅": 4527,
      "沆": 4528,
      "沈": 4529,
      "沉": 4530,
      "沌": 4531,
      "沏": 4532,
      "沐": 4533,
      "沓": 4534,
      "沔": 4535,
      "沙": 4536,
      "沚": 4537,
      "沛": 4538,
      "沟": 4539,
      "没": 4540,
      "沢": 4541,
      "沣": 4542,
      "沤": 4543,
      "沥": 4544,
      "沦": 4545,
      "沧": 4546,
      "沨": 4547,
      "沩": 4548,
      "沪": 4549,
      "沫": 4550,
      "沬": 4551,
      "沭": 4552,
      "沮": 4553,
      "沱": 4554,
      "河": 4555,
      "沴": 4556,
      "沵": 4557,
      "沷": 4558,
      "沸": 4559,
      "油": 4560,
      "沺": 4561,
      "治": 4562,
      "沼": 4563,
      "沽": 4564,
      "沾": 4565,
      "沿": 4566,
      "泂": 4567,
      "泄": 4568,
      "泅": 4569,
      "泉": 4570,
      "泊": 4571,
      "泌": 4572,
      "泐": 4573,
      "泓": 4574,
      "泔": 4575,
      "法": 4576,
      "泖": 4577,
      "泗": 4578,
      "泙": 4579,
      "泚": 4580,
      "泛": 4581,
      "泜": 4582,
      "泞": 4583,
      "泠": 4584,
      "泡": 4585,
      "波": 4586,
      "泣": 4587,
      "泥": 4588,
      "注": 4589,
      "泪": 4590,
      "泫": 4591,
      "泬": 4592,
      "泮": 4593,
      "泯": 4594,
      "泰": 4595,
      "泱": 4596,
      "泳": 4597,
      "泵": 4598,
      "泷": 4599,
      "泸": 4600,
      "泺": 4601,
      "泻": 4602,
      "泼": 4603,
      "泽": 4604,
      "泾": 4605,
      "洁": 4606,
      "洄": 4607,
      "洇": 4608,
      "洈": 4609,
      "洉": 4610,
      "洋": 4611,
      "洌": 4612,
      "洎": 4613,
      "洏": 4614,
      "洑": 4615,
      "洒": 4616,
      "洗": 4617,
      "洙": 4618,
      "洚": 4619,
      "洛": 4620,
      "洞": 4621,
      "津": 4622,
      "洧": 4623,
      "洨": 4624,
      "洪": 4625,
      "洫": 4626,
      "洮": 4627,
      "洱": 4628,
      "洲": 4629,
      "洳": 4630,
      "洵": 4631,
      "洸": 4632,
      "洹": 4633,
      "洺": 4634,
      "活": 4635,
      "洼": 4636,
      "洽": 4637,
      "派": 4638,
      "流": 4639,
      "浃": 4640,
      "浅": 4641,
      "浆": 4642,
      "浇": 4643,
      "浈": 4644,
      "浉": 4645,
      "浊": 4646,
      "测": 4647,
      "浍": 4648,
      "济": 4649,
      "浏": 4650,
      "浐": 4651,
      "浑": 4652,
      "浒": 4653,
      "浓": 4654,
      "浔": 4655,
      "浘": 4656,
      "浙": 4657,
      "浚": 4658,
      "浜": 4659,
      "浞": 4660,
      "浠": 4661,
      "浡": 4662,
      "浣": 4663,
      "浤": 4664,
      "浥": 4665,
      "浦": 4666,
      "浩": 4667,
      "浪": 4668,
      "浬": 4669,
      "浮": 4670,
      "浯": 4671,
      "浴": 4672,
      "浵": 4673,
      "海": 4674,
      "浸": 4675,
      "涂": 4676,
      "涅": 4677,
      "消": 4678,
      "涉": 4679,
      "涌": 4680,
      "涎": 4681,
      "涏": 4682,
      "涑": 4683,
      "涓": 4684,
      "涔": 4685,
      "涕": 4686,
      "涘": 4687,
      "涙": 4688,
      "涛": 4689,
      "涝": 4690,
      "涞": 4691,
      "涟": 4692,
      "涠": 4693,
      "涡": 4694,
      "涢": 4695,
      "涣": 4696,
      "涤": 4697,
      "润": 4698,
      "涧": 4699,
      "涨": 4700,
      "涩": 4701,
      "涪": 4702,
      "涬": 4703,
      "涮": 4704,
      "涯": 4705,
      "液": 4706,
      "涴": 4707,
      "涵": 4708,
      "涸": 4709,
      "涿": 4710,
      "淀": 4711,
      "淄": 4712,
      "淅": 4713,
      "淆": 4714,
      "淇": 4715,
      "淋": 4716,
      "淌": 4717,
      "淑": 4718,
      "淖": 4719,
      "淘": 4720,
      "淙": 4721,
      "淛": 4722,
      "淝": 4723,
      "淞": 4724,
      "淠": 4725,
      "淡": 4726,
      "淢": 4727,
      "淤": 4728,
      "淦": 4729,
      "淫": 4730,
      "淬": 4731,
      "淮": 4732,
      "深": 4733,
      "淳": 4734,
      "混": 4735,
      "淸": 4736,
      "淹": 4737,
      "添": 4738,
      "淼": 4739,
      "清": 4740,
      "渉": 4741,
      "渊": 4742,
      "渌": 4743,
      "渍": 4744,
      "渎": 4745,
      "渐": 4746,
      "渑": 4747,
      "渔": 4748,
      "渖": 4749,
      "渗": 4750,
      "渚": 4751,
      "渝": 4752,
      "渟": 4753,
      "渠": 4754,
      "渡": 4755,
      "渣": 4756,
      "渤": 4757,
      "渥": 4758,
      "渧": 4759,
      "温": 4760,
      "渫": 4761,
      "渭": 4762,
      "港": 4763,
      "渲": 4764,
      "渴": 4765,
      "游": 4766,
      "渺": 4767,
      "渼": 4768,
      "湃": 4769,
      "湄": 4770,
      "湉": 4771,
      "湋": 4772,
      "湍": 4773,
      "湎": 4774,
      "湓": 4775,
      "湔": 4776,
      "湖": 4777,
      "湘": 4778,
      "湛": 4779,
      "湜": 4780,
      "湟": 4781,
      "湣": 4782,
      "湦": 4783,
      "湫": 4784,
      "湮": 4785,
      "湲": 4786,
      "湴": 4787,
      "湼": 4788,
      "湾": 4789,
      "湿": 4790,
      "満": 4791,
      "溁": 4792,
      "溃": 4793,
      "溄": 4794,
      "溅": 4795,
      "溆": 4796,
      "溇": 4797,
      "溉": 4798,
      "溏": 4799,
      "源": 4800,
      "溔": 4801,
      "溘": 4802,
      "溙": 4803,
      "溜": 4804,
      "溟": 4805,
      "溢": 4806,
      "溥": 4807,
      "溧": 4808,
      "溪": 4809,
      "溯": 4810,
      "溱": 4811,
      "溲": 4812,
      "溴": 4813,
      "溶": 4814,
      "溷": 4815,
      "溺": 4816,
      "溻": 4817,
      "溽": 4818,
      "滁": 4819,
      "滂": 4820,
      "滆": 4821,
      "滇": 4822,
      "滋": 4823,
      "滏": 4824,
      "滑": 4825,
      "滓": 4826,
      "滔": 4827,
      "滕": 4828,
      "滗": 4829,
      "滘": 4830,
      "滚": 4831,
      "滝": 4832,
      "滞": 4833,
      "滟": 4834,
      "滠": 4835,
      "满": 4836,
      "滢": 4837,
      "滤": 4838,
      "滥": 4839,
      "滦": 4840,
      "滨": 4841,
      "滩": 4842,
      "滪": 4843,
      "滮": 4844,
      "滳": 4845,
      "滴": 4846,
      "滹": 4847,
      "漁": 4848,
      "漂": 4849,
      "漆": 4850,
      "漈": 4851,
      "漉": 4852,
      "漏": 4853,
      "漓": 4854,
      "演": 4855,
      "漕": 4856,
      "漠": 4857,
      "漩": 4858,
      "漪": 4859,
      "漫": 4860,
      "漭": 4861,
      "漯": 4862,
      "漱": 4863,
      "漳": 4864,
      "漶": 4865,
      "漷": 4866,
      "漼": 4867,
      "漾": 4868,
      "潄": 4869,
      "潆": 4870,
      "潇": 4871,
      "潋": 4872,
      "潍": 4873,
      "潘": 4874,
      "潜": 4875,
      "潞": 4876,
      "潟": 4877,
      "潢": 4878,
      "潦": 4879,
      "潬": 4880,
      "潭": 4881,
      "潮": 4882,
      "潲": 4883,
      "潴": 4884,
      "潸": 4885,
      "潺": 4886,
      "潼": 4887,
      "潽": 4888,
      "潾": 4889,
      "澁": 4890,
      "澂": 4891,
      "澄": 4892,
      "澈": 4893,
      "澌": 4894,
      "澍": 4895,
      "澎": 4896,
      "澒": 4897,
      "澓": 4898,
      "澔": 4899,
      "澜": 4900,
      "澡": 4901,
      "澥": 4902,
      "澧": 4903,
      "澪": 4904,
      "澳": 4905,
      "澶": 4906,
      "澹": 4907,
      "澼": 4908,
      "激": 4909,
      "濂": 4910,
      "濉": 4911,
      "濑": 4912,
      "濒": 4913,
      "濛": 4914,
      "濞": 4915,
      "濠": 4916,
      "濡": 4917,
      "濬": 4918,
      "濮": 4919,
      "濯": 4920,
      "瀍": 4921,
      "瀑": 4922,
      "瀚": 4923,
      "瀛": 4924,
      "瀞": 4925,
      "瀣": 4926,
      "瀵": 4927,
      "瀹": 4928,
      "瀿": 4929,
      "灌": 4930,
      "灏": 4931,
      "灘": 4932,
      "灞": 4933,
      "灣": 4934,
      "灥": 4935,
      "火": 4936,
      "灬": 4937,
      "灭": 4938,
      "灯": 4939,
      "灰": 4940,
      "灵": 4941,
      "灶": 4942,
      "灸": 4943,
      "灼": 4944,
      "灾": 4945,
      "灿": 4946,
      "炀": 4947,
      "炁": 4948,
      "炅": 4949,
      "炆": 4950,
      "炉": 4951,
      "炊": 4952,
      "炎": 4953,
      "炒": 4954,
      "炔": 4955,
      "炕": 4956,
      "炖": 4957,
      "炘": 4958,
      "炙": 4959,
      "炜": 4960,
      "炝": 4961,
      "炟": 4962,
      "炤": 4963,
      "炩": 4964,
      "炫": 4965,
      "炬": 4966,
      "炭": 4967,
      "炮": 4968,
      "炯": 4969,
      "炱": 4970,
      "炳": 4971,
      "炷": 4972,
      "炸": 4973,
      "点": 4974,
      "炼": 4975,
      "炽": 4976,
      "烀": 4977,
      "烁": 4978,
      "烂": 4979,
      "烃": 4980,
      "烈": 4981,
      "烊": 4982,
      "烔": 4983,
      "烘": 4984,
      "烙": 4985,
      "烛": 4986,
      "烜": 4987,
      "烝": 4988,
      "烟": 4989,
      "烤": 4990,
      "烦": 4991,
      "烧": 4992,
      "烨": 4993,
      "烩": 4994,
      "烫": 4995,
      "烬": 4996,
      "热": 4997,
      "烮": 4998,
      "烯": 4999,
      "烱": 5000,
      "烳": 5001,
      "烷": 5002,
      "烹": 5003,
      "烽": 5004,
      "焀": 5005,
      "焉": 5006,
      "焊": 5007,
      "焐": 5008,
      "焕": 5009,
      "焖": 5010,
      "焗": 5011,
      "焘": 5012,
      "焙": 5013,
      "焚": 5014,
      "焜": 5015,
      "焠": 5016,
      "無": 5017,
      "焢": 5018,
      "焦": 5019,
      "焪": 5020,
      "焮": 5021,
      "焯": 5022,
      "焰": 5023,
      "焱": 5024,
      "然": 5025,
      "煅": 5026,
      "煇": 5027,
      "煊": 5028,
      "煌": 5029,
      "煎": 5030,
      "煏": 5031,
      "煖": 5032,
      "煚": 5033,
      "煜": 5034,
      "煞": 5035,
      "煤": 5036,
      "煦": 5037,
      "照": 5038,
      "煨": 5039,
      "煮": 5040,
      "煲": 5041,
      "煳": 5042,
      "煴": 5043,
      "煸": 5044,
      "煺": 5045,
      "煽": 5046,
      "煿": 5047,
      "熁": 5048,
      "熄": 5049,
      "熅": 5050,
      "熊": 5051,
      "熎": 5052,
      "熏": 5053,
      "熔": 5054,
      "熕": 5055,
      "熘": 5056,
      "熙": 5057,
      "熚": 5058,
      "熜": 5059,
      "熟": 5060,
      "熠": 5061,
      "熣": 5062,
      "熥": 5063,
      "熨": 5064,
      "熬": 5065,
      "熳": 5066,
      "熵": 5067,
      "熹": 5068,
      "熺": 5069,
      "燃": 5070,
      "燊": 5071,
      "燎": 5072,
      "燔": 5073,
      "燕": 5074,
      "燖": 5075,
      "燚": 5076,
      "燠": 5077,
      "燡": 5078,
      "燥": 5079,
      "燧": 5080,
      "燮": 5081,
      "燹": 5082,
      "燻": 5083,
      "燿": 5084,
      "爁": 5085,
      "爆": 5086,
      "爊": 5087,
      "爓": 5088,
      "爠": 5089,
      "爨": 5090,
      "爪": 5091,
      "爬": 5092,
      "爰": 5093,
      "爱": 5094,
      "爵": 5095,
      "父": 5096,
      "爷": 5097,
      "爸": 5098,
      "爹": 5099,
      "爻": 5100,
      "爽": 5101,
      "爿": 5102,
      "牀": 5103,
      "牁": 5104,
      "牂": 5105,
      "片": 5106,
      "版": 5107,
      "牋": 5108,
      "牌": 5109,
      "牍": 5110,
      "牒": 5111,
      "牖": 5112,
      "牙": 5113,
      "牚": 5114,
      "牛": 5115,
      "牝": 5116,
      "牟": 5117,
      "牠": 5118,
      "牡": 5119,
      "牢": 5120,
      "牦": 5121,
      "牧": 5122,
      "物": 5123,
      "牯": 5124,
      "牲": 5125,
      "牵": 5126,
      "特": 5127,
      "牺": 5128,
      "牻": 5129,
      "牾": 5130,
      "犀": 5131,
      "犁": 5132,
      "犄": 5133,
      "犇": 5134,
      "犊": 5135,
      "犍": 5136,
      "犒": 5137,
      "犟": 5138,
      "犬": 5139,
      "犯": 5140,
      "犴": 5141,
      "状": 5142,
      "犷": 5143,
      "犸": 5144,
      "犹": 5145,
      "犽": 5146,
      "狂": 5147,
      "狃": 5148,
      "狄": 5149,
      "狈": 5150,
      "狉": 5151,
      "狍": 5152,
      "狎": 5153,
      "狐": 5154,
      "狒": 5155,
      "狗": 5156,
      "狘": 5157,
      "狙": 5158,
      "狚": 5159,
      "狞": 5160,
      "狠": 5161,
      "狡": 5162,
      "狨": 5163,
      "狩": 5164,
      "独": 5165,
      "狭": 5166,
      "狮": 5167,
      "狰": 5168,
      "狱": 5169,
      "狲": 5170,
      "狷": 5171,
      "狸": 5172,
      "狻": 5173,
      "狼": 5174,
      "猁": 5175,
      "猃": 5176,
      "猇": 5177,
      "猊": 5178,
      "猋": 5179,
      "猎": 5180,
      "猓": 5181,
      "猕": 5182,
      "猖": 5183,
      "猗": 5184,
      "猛": 5185,
      "猜": 5186,
      "猝": 5187,
      "猞": 5188,
      "猢": 5189,
      "猥": 5190,
      "猩": 5191,
      "猪": 5192,
      "猫": 5193,
      "猬": 5194,
      "献": 5195,
      "猴": 5196,
      "猷": 5197,
      "猺": 5198,
      "猾": 5199,
      "猿": 5200,
      "獍": 5201,
      "獐": 5202,
      "獒": 5203,
      "獗": 5204,
      "獞": 5205,
      "獠": 5206,
      "獬": 5207,
      "獭": 5208,
      "獯": 5209,
      "獳": 5210,
      "獾": 5211,
      "玄": 5212,
      "率": 5213,
      "玉": 5214,
      "王": 5215,
      "玍": 5216,
      "玏": 5217,
      "玑": 5218,
      "玖": 5219,
      "玗": 5220,
      "玘": 5221,
      "玚": 5222,
      "玛": 5223,
      "玝": 5224,
      "玟": 5225,
      "玠": 5226,
      "玢": 5227,
      "玥": 5228,
      "玦": 5229,
      "玩": 5230,
      "玫": 5231,
      "玭": 5232,
      "玮": 5233,
      "环": 5234,
      "现": 5235,
      "玲": 5236,
      "玳": 5237,
      "玶": 5238,
      "玷": 5239,
      "玹": 5240,
      "玺": 5241,
      "玻": 5242,
      "珀": 5243,
      "珂": 5244,
      "珅": 5245,
      "珈": 5246,
      "珉": 5247,
      "珊": 5248,
      "珍": 5249,
      "珏": 5250,
      "珐": 5251,
      "珑": 5252,
      "珙": 5253,
      "珞": 5254,
      "珠": 5255,
      "珣": 5256,
      "珧": 5257,
      "珩": 5258,
      "珪": 5259,
      "班": 5260,
      "珰": 5261,
      "珲": 5262,
      "珹": 5263,
      "珺": 5264,
      "球": 5265,
      "琅": 5266,
      "理": 5267,
      "琇": 5268,
      "琉": 5269,
      "琊": 5270,
      "琍": 5271,
      "琏": 5272,
      "琐": 5273,
      "琚": 5274,
      "琛": 5275,
      "琢": 5276,
      "琤": 5277,
      "琥": 5278,
      "琦": 5279,
      "琨": 5280,
      "琪": 5281,
      "琬": 5282,
      "琮": 5283,
      "琯": 5284,
      "琰": 5285,
      "琱": 5286,
      "琳": 5287,
      "琴": 5288,
      "琵": 5289,
      "琶": 5290,
      "琼": 5291,
      "瑀": 5292,
      "瑁": 5293,
      "瑄": 5294,
      "瑆": 5295,
      "瑊": 5296,
      "瑓": 5297,
      "瑕": 5298,
      "瑖": 5299,
      "瑗": 5300,
      "瑙": 5301,
      "瑚": 5302,
      "瑛": 5303,
      "瑜": 5304,
      "瑞": 5305,
      "瑟": 5306,
      "瑠": 5307,
      "瑢": 5308,
      "瑧": 5309,
      "瑨": 5310,
      "瑭": 5311,
      "瑰": 5312,
      "瑶": 5313,
      "瑷": 5314,
      "瑸": 5315,
      "瑹": 5316,
      "瑾": 5317,
      "璀": 5318,
      "璁": 5319,
      "璂": 5320,
      "璃": 5321,
      "璄": 5322,
      "璇": 5323,
      "璊": 5324,
      "璋": 5325,
      "璎": 5326,
      "璐": 5327,
      "璑": 5328,
      "璘": 5329,
      "璜": 5330,
      "璞": 5331,
      "璟": 5332,
      "璠": 5333,
      "璥": 5334,
      "璧": 5335,
      "璨": 5336,
      "璩": 5337,
      "璪": 5338,
      "璲": 5339,
      "璺": 5340,
      "瓀": 5341,
      "瓒": 5342,
      "瓘": 5343,
      "瓜": 5344,
      "瓞": 5345,
      "瓠": 5346,
      "瓢": 5347,
      "瓣": 5348,
      "瓤": 5349,
      "瓦": 5350,
      "瓩": 5351,
      "瓮": 5352,
      "瓯": 5353,
      "瓴": 5354,
      "瓶": 5355,
      "瓷": 5356,
      "瓻": 5357,
      "瓿": 5358,
      "甄": 5359,
      "甍": 5360,
      "甏": 5361,
      "甑": 5362,
      "甓": 5363,
      "甘": 5364,
      "甙": 5365,
      "甚": 5366,
      "甜": 5367,
      "甞": 5368,
      "生": 5369,
      "甡": 5370,
      "甥": 5371,
      "用": 5372,
      "甩": 5373,
      "甪": 5374,
      "甫": 5375,
      "甬": 5376,
      "甭": 5377,
      "甯": 5378,
      "田": 5379,
      "由": 5380,
      "甲": 5381,
      "申": 5382,
      "电": 5383,
      "男": 5384,
      "甸": 5385,
      "町": 5386,
      "画": 5387,
      "甽": 5388,
      "甾": 5389,
      "畀": 5390,
      "畅": 5391,
      "畈": 5392,
      "畊": 5393,
      "畋": 5394,
      "界": 5395,
      "畏": 5396,
      "畑": 5397,
      "畔": 5398,
      "留": 5399,
      "畚": 5400,
      "畛": 5401,
      "畜": 5402,
      "畤": 5403,
      "略": 5404,
      "畦": 5405,
      "番": 5406,
      "畲": 5407,
      "畴": 5408,
      "畸": 5409,
      "畹": 5410,
      "畾": 5411,
      "畿": 5412,
      "疃": 5413,
      "疆": 5414,
      "疋": 5415,
      "疍": 5416,
      "疏": 5417,
      "疑": 5418,
      "疒": 5419,
      "疔": 5420,
      "疕": 5421,
      "疖": 5422,
      "疗": 5423,
      "疙": 5424,
      "疚": 5425,
      "疝": 5426,
      "疟": 5427,
      "疠": 5428,
      "疡": 5429,
      "疣": 5430,
      "疤": 5431,
      "疥": 5432,
      "疫": 5433,
      "疬": 5434,
      "疭": 5435,
      "疮": 5436,
      "疯": 5437,
      "疰": 5438,
      "疱": 5439,
      "疲": 5440,
      "疳": 5441,
      "疴": 5442,
      "疵": 5443,
      "疸": 5444,
      "疹": 5445,
      "疼": 5446,
      "疽": 5447,
      "疾": 5448,
      "痂": 5449,
      "痃": 5450,
      "痄": 5451,
      "病": 5452,
      "症": 5453,
      "痈": 5454,
      "痉": 5455,
      "痊": 5456,
      "痍": 5457,
      "痒": 5458,
      "痔": 5459,
      "痕": 5460,
      "痖": 5461,
      "痘": 5462,
      "痛": 5463,
      "痜": 5464,
      "痞": 5465,
      "痢": 5466,
      "痣": 5467,
      "痤": 5468,
      "痦": 5469,
      "痧": 5470,
      "痨": 5471,
      "痩": 5472,
      "痪": 5473,
      "痫": 5474,
      "痰": 5475,
      "痱": 5476,
      "痴": 5477,
      "痹": 5478,
      "痼": 5479,
      "痿": 5480,
      "瘀": 5481,
      "瘁": 5482,
      "瘅": 5483,
      "瘆": 5484,
      "瘈": 5485,
      "瘊": 5486,
      "瘌": 5487,
      "瘐": 5488,
      "瘑": 5489,
      "瘕": 5490,
      "瘖": 5491,
      "瘗": 5492,
      "瘘": 5493,
      "瘙": 5494,
      "瘛": 5495,
      "瘜": 5496,
      "瘟": 5497,
      "瘠": 5498,
      "瘢": 5499,
      "瘤": 5500,
      "瘥": 5501,
      "瘦": 5502,
      "瘩": 5503,
      "瘪": 5504,
      "瘫": 5505,
      "瘰": 5506,
      "瘳": 5507,
      "瘴": 5508,
      "瘵": 5509,
      "瘸": 5510,
      "瘼": 5511,
      "瘾": 5512,
      "瘿": 5513,
      "癀": 5514,
      "癃": 5515,
      "癈": 5516,
      "癊": 5517,
      "癌": 5518,
      "癍": 5519,
      "癎": 5520,
      "癒": 5521,
      "癓": 5522,
      "癔": 5523,
      "癖": 5524,
      "癗": 5525,
      "癜": 5526,
      "癞": 5527,
      "癣": 5528,
      "癧": 5529,
      "癫": 5530,
      "癯": 5531,
      "癳": 5532,
      "癸": 5533,
      "発": 5534,
      "登": 5535,
      "白": 5536,
      "百": 5537,
      "皀": 5538,
      "皂": 5539,
      "的": 5540,
      "皆": 5541,
      "皇": 5542,
      "皈": 5543,
      "皋": 5544,
      "皎": 5545,
      "皑": 5546,
      "皓": 5547,
      "皕": 5548,
      "皖": 5549,
      "皙": 5550,
      "皛": 5551,
      "皝": 5552,
      "皤": 5553,
      "皦": 5554,
      "皮": 5555,
      "皱": 5556,
      "皲": 5557,
      "皴": 5558,
      "皿": 5559,
      "盂": 5560,
      "盅": 5561,
      "盆": 5562,
      "盈": 5563,
      "盉": 5564,
      "益": 5565,
      "盍": 5566,
      "盎": 5567,
      "盏": 5568,
      "盐": 5569,
      "监": 5570,
      "盒": 5571,
      "盔": 5572,
      "盖": 5573,
      "盗": 5574,
      "盘": 5575,
      "盛": 5576,
      "盟": 5577,
      "盥": 5578,
      "盦": 5579,
      "盩": 5580,
      "目": 5581,
      "盯": 5582,
      "盱": 5583,
      "盲": 5584,
      "直": 5585,
      "盷": 5586,
      "相": 5587,
      "盹": 5588,
      "盼": 5589,
      "盾": 5590,
      "眀": 5591,
      "省": 5592,
      "眂": 5593,
      "眇": 5594,
      "眈": 5595,
      "眉": 5596,
      "看": 5597,
      "眍": 5598,
      "眕": 5599,
      "眙": 5600,
      "眚": 5601,
      "眛": 5602,
      "眜": 5603,
      "真": 5604,
      "眠": 5605,
      "眢": 5606,
      "眦": 5607,
      "眨": 5608,
      "眩": 5609,
      "眬": 5610,
      "眭": 5611,
      "眯": 5612,
      "眰": 5613,
      "眱": 5614,
      "眴": 5615,
      "眵": 5616,
      "眶": 5617,
      "眷": 5618,
      "眸": 5619,
      "眺": 5620,
      "眼": 5621,
      "着": 5622,
      "睁": 5623,
      "睇": 5624,
      "睋": 5625,
      "睐": 5626,
      "睑": 5627,
      "睒": 5628,
      "睗": 5629,
      "睚": 5630,
      "睛": 5631,
      "睡": 5632,
      "睢": 5633,
      "督": 5634,
      "睥": 5635,
      "睦": 5636,
      "睨": 5637,
      "睫": 5638,
      "睬": 5639,
      "睹": 5640,
      "睽": 5641,
      "睾": 5642,
      "睿": 5643,
      "瞀": 5644,
      "瞄": 5645,
      "瞅": 5646,
      "瞆": 5647,
      "瞋": 5648,
      "瞌": 5649,
      "瞍": 5650,
      "瞎": 5651,
      "瞐": 5652,
      "瞑": 5653,
      "瞒": 5654,
      "瞟": 5655,
      "瞠": 5656,
      "瞤": 5657,
      "瞥": 5658,
      "瞧": 5659,
      "瞩": 5660,
      "瞪": 5661,
      "瞬": 5662,
      "瞭": 5663,
      "瞰": 5664,
      "瞳": 5665,
      "瞵": 5666,
      "瞻": 5667,
      "瞽": 5668,
      "瞿": 5669,
      "矌": 5670,
      "矍": 5671,
      "矗": 5672,
      "矛": 5673,
      "矜": 5674,
      "矟": 5675,
      "矢": 5676,
      "矣": 5677,
      "知": 5678,
      "矧": 5679,
      "矩": 5680,
      "矫": 5681,
      "矬": 5682,
      "短": 5683,
      "矮": 5684,
      "石": 5685,
      "矶": 5686,
      "矸": 5687,
      "矼": 5688,
      "矽": 5689,
      "矾": 5690,
      "矿": 5691,
      "砀": 5692,
      "码": 5693,
      "砂": 5694,
      "砌": 5695,
      "砍": 5696,
      "砑": 5697,
      "砒": 5698,
      "研": 5699,
      "砖": 5700,
      "砗": 5701,
      "砙": 5702,
      "砚": 5703,
      "砜": 5704,
      "砝": 5705,
      "砟": 5706,
      "砢": 5707,
      "砣": 5708,
      "砥": 5709,
      "砦": 5710,
      "砧": 5711,
      "砬": 5712,
      "砭": 5713,
      "砰": 5714,
      "破": 5715,
      "砵": 5716,
      "砷": 5717,
      "砸": 5718,
      "砹": 5719,
      "砺": 5720,
      "砻": 5721,
      "砼": 5722,
      "砾": 5723,
      "础": 5724,
      "硁": 5725,
      "硅": 5726,
      "硇": 5727,
      "硌": 5728,
      "硎": 5729,
      "硏": 5730,
      "硐": 5731,
      "硒": 5732,
      "硔": 5733,
      "硕": 5734,
      "硖": 5735,
      "硗": 5736,
      "硚": 5737,
      "硝": 5738,
      "硫": 5739,
      "硬": 5740,
      "硭": 5741,
      "确": 5742,
      "硵": 5743,
      "硷": 5744,
      "硼": 5745,
      "碁": 5746,
      "碇": 5747,
      "碉": 5748,
      "碌": 5749,
      "碍": 5750,
      "碎": 5751,
      "碑": 5752,
      "碓": 5753,
      "碗": 5754,
      "碘": 5755,
      "碚": 5756,
      "碛": 5757,
      "碜": 5758,
      "碟": 5759,
      "碣": 5760,
      "碧": 5761,
      "碰": 5762,
      "碱": 5763,
      "碳": 5764,
      "碴": 5765,
      "確": 5766,
      "碼": 5767,
      "碾": 5768,
      "磁": 5769,
      "磅": 5770,
      "磉": 5771,
      "磊": 5772,
      "磋": 5773,
      "磏": 5774,
      "磐": 5775,
      "磔": 5776,
      "磕": 5777,
      "磙": 5778,
      "磠": 5779,
      "磡": 5780,
      "磦": 5781,
      "磨": 5782,
      "磬": 5783,
      "磲": 5784,
      "磴": 5785,
      "磷": 5786,
      "磹": 5787,
      "磺": 5788,
      "磻": 5789,
      "礁": 5790,
      "礌": 5791,
      "礐": 5792,
      "礞": 5793,
      "礡": 5794,
      "礤": 5795,
      "礧": 5796,
      "礭": 5797,
      "礰": 5798,
      "礴": 5799,
      "示": 5800,
      "礼": 5801,
      "礽": 5802,
      "社": 5803,
      "祀": 5804,
      "祁": 5805,
      "祂": 5806,
      "祅": 5807,
      "祆": 5808,
      "祇": 5809,
      "祈": 5810,
      "祉": 5811,
      "祊": 5812,
      "祎": 5813,
      "祐": 5814,
      "祓": 5815,
      "祖": 5816,
      "祗": 5817,
      "祚": 5818,
      "祛": 5819,
      "祜": 5820,
      "祝": 5821,
      "神": 5822,
      "祟": 5823,
      "祠": 5824,
      "祢": 5825,
      "祥": 5826,
      "票": 5827,
      "祭": 5828,
      "祯": 5829,
      "祷": 5830,
      "祸": 5831,
      "祺": 5832,
      "祼": 5833,
      "禀": 5834,
      "禁": 5835,
      "禄": 5836,
      "禅": 5837,
      "禆": 5838,
      "禊": 5839,
      "福": 5840,
      "禕": 5841,
      "禛": 5842,
      "禤": 5843,
      "禥": 5844,
      "禧": 5845,
      "禩": 5846,
      "禳": 5847,
      "禹": 5848,
      "禺": 5849,
      "离": 5850,
      "禽": 5851,
      "禾": 5852,
      "秀": 5853,
      "私": 5854,
      "秃": 5855,
      "秆": 5856,
      "秉": 5857,
      "秋": 5858,
      "种": 5859,
      "科": 5860,
      "秒": 5861,
      "秕": 5862,
      "秘": 5863,
      "租": 5864,
      "秣": 5865,
      "秤": 5866,
      "秦": 5867,
      "秧": 5868,
      "秩": 5869,
      "秪": 5870,
      "秫": 5871,
      "秭": 5872,
      "积": 5873,
      "称": 5874,
      "秸": 5875,
      "移": 5876,
      "秽": 5877,
      "秾": 5878,
      "稀": 5879,
      "稂": 5880,
      "稃": 5881,
      "程": 5882,
      "稍": 5883,
      "税": 5884,
      "稔": 5885,
      "稗": 5886,
      "稚": 5887,
      "稞": 5888,
      "稠": 5889,
      "稣": 5890,
      "稦": 5891,
      "稲": 5892,
      "稳": 5893,
      "稷": 5894,
      "稹": 5895,
      "稻": 5896,
      "稼": 5897,
      "稽": 5898,
      "稿": 5899,
      "穆": 5900,
      "穑": 5901,
      "穗": 5902,
      "穜": 5903,
      "穣": 5904,
      "穰": 5905,
      "穴": 5906,
      "究": 5907,
      "穷": 5908,
      "穸": 5909,
      "穹": 5910,
      "空": 5911,
      "穿": 5912,
      "突": 5913,
      "窂": 5914,
      "窃": 5915,
      "窄": 5916,
      "窈": 5917,
      "窋": 5918,
      "窍": 5919,
      "窑": 5920,
      "窒": 5921,
      "窔": 5922,
      "窕": 5923,
      "窖": 5924,
      "窗": 5925,
      "窘": 5926,
      "窜": 5927,
      "窝": 5928,
      "窟": 5929,
      "窠": 5930,
      "窣": 5931,
      "窥": 5932,
      "窦": 5933,
      "窨": 5934,
      "窬": 5935,
      "窳": 5936,
      "窸": 5937,
      "窾": 5938,
      "窿": 5939,
      "竃": 5940,
      "立": 5941,
      "竑": 5942,
      "竖": 5943,
      "站": 5944,
      "竞": 5945,
      "竟": 5946,
      "章": 5947,
      "竣": 5948,
      "童": 5949,
      "竦": 5950,
      "竭": 5951,
      "端": 5952,
      "竹": 5953,
      "竺": 5954,
      "竽": 5955,
      "竿": 5956,
      "笃": 5957,
      "笄": 5958,
      "笆": 5959,
      "笈": 5960,
      "笊": 5961,
      "笋": 5962,
      "笏": 5963,
      "笑": 5964,
      "笔": 5965,
      "笕": 5966,
      "笙": 5967,
      "笛": 5968,
      "笞": 5969,
      "笠": 5970,
      "笤": 5971,
      "笥": 5972,
      "符": 5973,
      "笨": 5974,
      "笪": 5975,
      "笫": 5976,
      "第": 5977,
      "笮": 5978,
      "笳": 5979,
      "笸": 5980,
      "笹": 5981,
      "笺": 5982,
      "笼": 5983,
      "筅": 5984,
      "筇": 5985,
      "等": 5986,
      "筋": 5987,
      "筌": 5988,
      "筏": 5989,
      "筐": 5990,
      "筑": 5991,
      "筒": 5992,
      "答": 5993,
      "策": 5994,
      "筚": 5995,
      "筛": 5996,
      "筜": 5997,
      "筝": 5998,
      "筠": 5999,
      "筩": 6000,
      "筮": 6001,
      "筯": 6002,
      "筰": 6003,
      "筱": 6004,
      "筲": 6005,
      "筳": 6006,
      "筵": 6007,
      "筶": 6008,
      "筷": 6009,
      "筹": 6010,
      "筻": 6011,
      "筼": 6012,
      "签": 6013,
      "简": 6014,
      "箅": 6015,
      "箍": 6016,
      "箎": 6017,
      "箐": 6018,
      "箓": 6019,
      "箔": 6020,
      "箕": 6021,
      "箖": 6022,
      "算": 6023,
      "箜": 6024,
      "箝": 6025,
      "箟": 6026,
      "管": 6027,
      "箧": 6028,
      "箨": 6029,
      "箩": 6030,
      "箪": 6031,
      "箫": 6032,
      "箬": 6033,
      "箭": 6034,
      "箱": 6035,
      "箴": 6036,
      "箸": 6037,
      "箻": 6038,
      "篁": 6039,
      "篆": 6040,
      "篇": 6041,
      "篌": 6042,
      "篍": 6043,
      "篑": 6044,
      "篓": 6045,
      "篙": 6046,
      "篛": 6047,
      "篝": 6048,
      "篡": 6049,
      "篥": 6050,
      "篦": 6051,
      "篪": 6052,
      "篮": 6053,
      "篯": 6054,
      "篱": 6055,
      "篷": 6056,
      "篼": 6057,
      "篾": 6058,
      "簃": 6059,
      "簇": 6060,
      "簊": 6061,
      "簋": 6062,
      "簌": 6063,
      "簏": 6064,
      "簒": 6065,
      "簕": 6066,
      "簜": 6067,
      "簟": 6068,
      "簠": 6069,
      "簦": 6070,
      "簧": 6071,
      "簪": 6072,
      "簰": 6073,
      "簸": 6074,
      "簿": 6075,
      "籀": 6076,
      "籁": 6077,
      "籍": 6078,
      "籖": 6079,
      "籣": 6080,
      "米": 6081,
      "籴": 6082,
      "类": 6083,
      "籼": 6084,
      "籽": 6085,
      "籾": 6086,
      "粉": 6087,
      "粑": 6088,
      "粒": 6089,
      "粕": 6090,
      "粗": 6091,
      "粘": 6092,
      "粜": 6093,
      "粝": 6094,
      "粞": 6095,
      "粟": 6096,
      "粢": 6097,
      "粤": 6098,
      "粥": 6099,
      "粨": 6100,
      "粪": 6101,
      "粮": 6102,
      "粱": 6103,
      "粲": 6104,
      "粳": 6105,
      "粸": 6106,
      "粹": 6107,
      "粼": 6108,
      "粽": 6109,
      "精": 6110,
      "粿": 6111,
      "糀": 6112,
      "糁": 6113,
      "糅": 6114,
      "糊": 6115,
      "糌": 6116,
      "糍": 6117,
      "糕": 6118,
      "糖": 6119,
      "糗": 6120,
      "糙": 6121,
      "糜": 6122,
      "糟": 6123,
      "糠": 6124,
      "糥": 6125,
      "糨": 6126,
      "糯": 6127,
      "系": 6128,
      "糼": 6129,
      "紊": 6130,
      "素": 6131,
      "索": 6132,
      "紧": 6133,
      "紫": 6134,
      "累": 6135,
      "終": 6136,
      "絜": 6137,
      "給": 6138,
      "絪": 6139,
      "絮": 6140,
      "絶": 6141,
      "綦": 6142,
      "綫": 6143,
      "維": 6144,
      "綮": 6145,
      "綷": 6146,
      "緖": 6147,
      "緛": 6148,
      "緼": 6149,
      "緾": 6150,
      "縁": 6151,
      "縠": 6152,
      "縢": 6153,
      "縩": 6154,
      "縻": 6155,
      "繁": 6156,
      "繇": 6157,
      "繋": 6158,
      "繙": 6159,
      "纂": 6160,
      "纆": 6161,
      "纕": 6162,
      "纛": 6163,
      "纟": 6164,
      "纠": 6165,
      "纡": 6166,
      "红": 6167,
      "纣": 6168,
      "纤": 6169,
      "纥": 6170,
      "约": 6171,
      "级": 6172,
      "纨": 6173,
      "纪": 6174,
      "纫": 6175,
      "纬": 6176,
      "纭": 6177,
      "纯": 6178,
      "纰": 6179,
      "纱": 6180,
      "纲": 6181,
      "纳": 6182,
      "纴": 6183,
      "纵": 6184,
      "纶": 6185,
      "纷": 6186,
      "纸": 6187,
      "纹": 6188,
      "纺": 6189,
      "纽": 6190,
      "纾": 6191,
      "线": 6192,
      "绀": 6193,
      "绂": 6194,
      "练": 6195,
      "组": 6196,
      "绅": 6197,
      "细": 6198,
      "织": 6199,
      "终": 6200,
      "绉": 6201,
      "绊": 6202,
      "绌": 6203,
      "绍": 6204,
      "绎": 6205,
      "经": 6206,
      "绑": 6207,
      "绒": 6208,
      "结": 6209,
      "绔": 6210,
      "绕": 6211,
      "绗": 6212,
      "绘": 6213,
      "给": 6214,
      "绚": 6215,
      "绛": 6216,
      "络": 6217,
      "绝": 6218,
      "绞": 6219,
      "统": 6220,
      "绠": 6221,
      "绡": 6222,
      "绢": 6223,
      "绣": 6224,
      "绥": 6225,
      "绦": 6226,
      "继": 6227,
      "绨": 6228,
      "绩": 6229,
      "绪": 6230,
      "绫": 6231,
      "续": 6232,
      "绮": 6233,
      "绯": 6234,
      "绰": 6235,
      "绱": 6236,
      "绳": 6237,
      "维": 6238,
      "绵": 6239,
      "绶": 6240,
      "绷": 6241,
      "绸": 6242,
      "绹": 6243,
      "绺": 6244,
      "绻": 6245,
      "综": 6246,
      "绽": 6247,
      "绾": 6248,
      "绿": 6249,
      "缀": 6250,
      "缁": 6251,
      "缂": 6252,
      "缃": 6253,
      "缄": 6254,
      "缅": 6255,
      "缆": 6256,
      "缇": 6257,
      "缈": 6258,
      "缉": 6259,
      "缊": 6260,
      "缎": 6261,
      "缐": 6262,
      "缒": 6263,
      "缓": 6264,
      "缔": 6265,
      "缕": 6266,
      "编": 6267,
      "缗": 6268,
      "缘": 6269,
      "缙": 6270,
      "缚": 6271,
      "缛": 6272,
      "缜": 6273,
      "缝": 6274,
      "缟": 6275,
      "缠": 6276,
      "缡": 6277,
      "缢": 6278,
      "缣": 6279,
      "缤": 6280,
      "缥": 6281,
      "缦": 6282,
      "缧": 6283,
      "缨": 6284,
      "缩": 6285,
      "缪": 6286,
      "缫": 6287,
      "缬": 6288,
      "缭": 6289,
      "缮": 6290,
      "缯": 6291,
      "缰": 6292,
      "缱": 6293,
      "缲": 6294,
      "缳": 6295,
      "缴": 6296,
      "缵": 6297,
      "缶": 6298,
      "缸": 6299,
      "缺": 6300,
      "缽": 6301,
      "缿": 6302,
      "罂": 6303,
      "罄": 6304,
      "罅": 6305,
      "罍": 6306,
      "罐": 6307,
      "网": 6308,
      "罔": 6309,
      "罕": 6310,
      "罗": 6311,
      "罘": 6312,
      "罙": 6313,
      "罚": 6314,
      "罝": 6315,
      "罟": 6316,
      "罡": 6317,
      "罢": 6318,
      "罣": 6319,
      "罨": 6320,
      "罩": 6321,
      "罪": 6322,
      "置": 6323,
      "署": 6324,
      "罴": 6325,
      "罹": 6326,
      "羁": 6327,
      "羊": 6328,
      "羌": 6329,
      "美": 6330,
      "羑": 6331,
      "羓": 6332,
      "羔": 6333,
      "羚": 6334,
      "羞": 6335,
      "羟": 6336,
      "羡": 6337,
      "羣": 6338,
      "群": 6339,
      "羧": 6340,
      "義": 6341,
      "羮": 6342,
      "羯": 6343,
      "羰": 6344,
      "羲": 6345,
      "羴": 6346,
      "羶": 6347,
      "羸": 6348,
      "羹": 6349,
      "羼": 6350,
      "羽": 6351,
      "羾": 6352,
      "羿": 6353,
      "翀": 6354,
      "翁": 6355,
      "翃": 6356,
      "翅": 6357,
      "翊": 6358,
      "翌": 6359,
      "翎": 6360,
      "翔": 6361,
      "翕": 6362,
      "翘": 6363,
      "翙": 6364,
      "翚": 6365,
      "翛": 6366,
      "翟": 6367,
      "翠": 6368,
      "翡": 6369,
      "翥": 6370,
      "翦": 6371,
      "翩": 6372,
      "翮": 6373,
      "翰": 6374,
      "翱": 6375,
      "翳": 6376,
      "翻": 6377,
      "翼": 6378,
      "翾": 6379,
      "耀": 6380,
      "老": 6381,
      "考": 6382,
      "耄": 6383,
      "者": 6384,
      "耆": 6385,
      "耋": 6386,
      "而": 6387,
      "耍": 6388,
      "耎": 6389,
      "耐": 6390,
      "耒": 6391,
      "耕": 6392,
      "耗": 6393,
      "耘": 6394,
      "耙": 6395,
      "耜": 6396,
      "耢": 6397,
      "耦": 6398,
      "耧": 6399,
      "耨": 6400,
      "耪": 6401,
      "耱": 6402,
      "耳": 6403,
      "耵": 6404,
      "耶": 6405,
      "耷": 6406,
      "耸": 6407,
      "耻": 6408,
      "耽": 6409,
      "耿": 6410,
      "聂": 6411,
      "聃": 6412,
      "聆": 6413,
      "聊": 6414,
      "聋": 6415,
      "职": 6416,
      "聍": 6417,
      "聒": 6418,
      "联": 6419,
      "聕": 6420,
      "聖": 6421,
      "聘": 6422,
      "聚": 6423,
      "聤": 6424,
      "聩": 6425,
      "聪": 6426,
      "聯": 6427,
      "聱": 6428,
      "聼": 6429,
      "聿": 6430,
      "肃": 6431,
      "肄": 6432,
      "肆": 6433,
      "肇": 6434,
      "肉": 6435,
      "肋": 6436,
      "肌": 6437,
      "肓": 6438,
      "肖": 6439,
      "肘": 6440,
      "肚": 6441,
      "肛": 6442,
      "肝": 6443,
      "肟": 6444,
      "肠": 6445,
      "股": 6446,
      "肢": 6447,
      "肤": 6448,
      "肥": 6449,
      "肩": 6450,
      "肪": 6451,
      "肫": 6452,
      "肬": 6453,
      "肭": 6454,
      "肮": 6455,
      "肯": 6456,
      "肱": 6457,
      "育": 6458,
      "肴": 6459,
      "肷": 6460,
      "肸": 6461,
      "肺": 6462,
      "肼": 6463,
      "肽": 6464,
      "肾": 6465,
      "肿": 6466,
      "胀": 6467,
      "胁": 6468,
      "胃": 6469,
      "胄": 6470,
      "胆": 6471,
      "背": 6472,
      "胍": 6473,
      "胎": 6474,
      "胔": 6475,
      "胕": 6476,
      "胖": 6477,
      "胗": 6478,
      "胙": 6479,
      "胚": 6480,
      "胛": 6481,
      "胜": 6482,
      "胝": 6483,
      "胞": 6484,
      "胠": 6485,
      "胡": 6486,
      "胤": 6487,
      "胥": 6488,
      "胧": 6489,
      "胨": 6490,
      "胪": 6491,
      "胫": 6492,
      "胬": 6493,
      "胭": 6494,
      "胯": 6495,
      "胰": 6496,
      "胱": 6497,
      "胳": 6498,
      "胴": 6499,
      "胶": 6500,
      "胷": 6501,
      "胸": 6502,
      "胺": 6503,
      "胻": 6504,
      "胼": 6505,
      "能": 6506,
      "脂": 6507,
      "脆": 6508,
      "脉": 6509,
      "脊": 6510,
      "脍": 6511,
      "脏": 6512,
      "脐": 6513,
      "脑": 6514,
      "脒": 6515,
      "脓": 6516,
      "脔": 6517,
      "脖": 6518,
      "脘": 6519,
      "脚": 6520,
      "脢": 6521,
      "脤": 6522,
      "脩": 6523,
      "脬": 6524,
      "脯": 6525,
      "脰": 6526,
      "脱": 6527,
      "脲": 6528,
      "脷": 6529,
      "脸": 6530,
      "脾": 6531,
      "腄": 6532,
      "腆": 6533,
      "腈": 6534,
      "腊": 6535,
      "腋": 6536,
      "腌": 6537,
      "腍": 6538,
      "腐": 6539,
      "腑": 6540,
      "腓": 6541,
      "腔": 6542,
      "腕": 6543,
      "腘": 6544,
      "腚": 6545,
      "腠": 6546,
      "腥": 6547,
      "腧": 6548,
      "腨": 6549,
      "腩": 6550,
      "腭": 6551,
      "腮": 6552,
      "腰": 6553,
      "腱": 6554,
      "腴": 6555,
      "腹": 6556,
      "腺": 6557,
      "腻": 6558,
      "腼": 6559,
      "腽": 6560,
      "腾": 6561,
      "腿": 6562,
      "膀": 6563,
      "膂": 6564,
      "膈": 6565,
      "膊": 6566,
      "膏": 6567,
      "膑": 6568,
      "膓": 6569,
      "膕": 6570,
      "膘": 6571,
      "膙": 6572,
      "膛": 6573,
      "膜": 6574,
      "膝": 6575,
      "膦": 6576,
      "膨": 6577,
      "膪": 6578,
      "膫": 6579,
      "膳": 6580,
      "膺": 6581,
      "膻": 6582,
      "臀": 6583,
      "臁": 6584,
      "臂": 6585,
      "臃": 6586,
      "臆": 6587,
      "臊": 6588,
      "臌": 6589,
      "臐": 6590,
      "臑": 6591,
      "臓": 6592,
      "臛": 6593,
      "臜": 6594,
      "臣": 6595,
      "臧": 6596,
      "自": 6597,
      "臬": 6598,
      "臭": 6599,
      "臲": 6600,
      "至": 6601,
      "致": 6602,
      "臵": 6603,
      "臻": 6604,
      "臼": 6605,
      "臾": 6606,
      "舀": 6607,
      "舁": 6608,
      "舂": 6609,
      "舄": 6610,
      "舅": 6611,
      "舆": 6612,
      "舌": 6613,
      "舍": 6614,
      "舐": 6615,
      "舑": 6616,
      "舒": 6617,
      "舔": 6618,
      "舕": 6619,
      "舖": 6620,
      "舙": 6621,
      "舛": 6622,
      "舜": 6623,
      "舞": 6624,
      "舟": 6625,
      "舢": 6626,
      "舣": 6627,
      "舤": 6628,
      "舨": 6629,
      "航": 6630,
      "舫": 6631,
      "般": 6632,
      "舰": 6633,
      "舱": 6634,
      "舲": 6635,
      "舳": 6636,
      "舴": 6637,
      "舵": 6638,
      "舶": 6639,
      "舷": 6640,
      "舸": 6641,
      "船": 6642,
      "舺": 6643,
      "舾": 6644,
      "艄": 6645,
      "艅": 6646,
      "艇": 6647,
      "艉": 6648,
      "艋": 6649,
      "艌": 6650,
      "艎": 6651,
      "艏": 6652,
      "艘": 6653,
      "艟": 6654,
      "艨": 6655,
      "艮": 6656,
      "良": 6657,
      "艰": 6658,
      "色": 6659,
      "艳": 6660,
      "艶": 6661,
      "艹": 6662,
      "艺": 6663,
      "艽": 6664,
      "艾": 6665,
      "艿": 6666,
      "节": 6667,
      "芃": 6668,
      "芄": 6669,
      "芈": 6670,
      "芊": 6671,
      "芋": 6672,
      "芍": 6673,
      "芎": 6674,
      "芏": 6675,
      "芑": 6676,
      "芒": 6677,
      "芔": 6678,
      "芗": 6679,
      "芘": 6680,
      "芙": 6681,
      "芜": 6682,
      "芝": 6683,
      "芟": 6684,
      "芡": 6685,
      "芤": 6686,
      "芥": 6687,
      "芦": 6688,
      "芨": 6689,
      "芩": 6690,
      "芪": 6691,
      "芫": 6692,
      "芬": 6693,
      "芭": 6694,
      "芮": 6695,
      "芯": 6696,
      "芰": 6697,
      "花": 6698,
      "芳": 6699,
      "芴": 6700,
      "芶": 6701,
      "芷": 6702,
      "芸": 6703,
      "芹": 6704,
      "芺": 6705,
      "芽": 6706,
      "芾": 6707,
      "苁": 6708,
      "苄": 6709,
      "苅": 6710,
      "苆": 6711,
      "苇": 6712,
      "苈": 6713,
      "苋": 6714,
      "苌": 6715,
      "苍": 6716,
      "苎": 6717,
      "苏": 6718,
      "苑": 6719,
      "苒": 6720,
      "苓": 6721,
      "苔": 6722,
      "苕": 6723,
      "苗": 6724,
      "苘": 6725,
      "苛": 6726,
      "苜": 6727,
      "苞": 6728,
      "苟": 6729,
      "苡": 6730,
      "苣": 6731,
      "苤": 6732,
      "若": 6733,
      "苦": 6734,
      "苪": 6735,
      "苫": 6736,
      "苭": 6737,
      "苯": 6738,
      "英": 6739,
      "苴": 6740,
      "苶": 6741,
      "苷": 6742,
      "苹": 6743,
      "苻": 6744,
      "苾": 6745,
      "茀": 6746,
      "茁": 6747,
      "茂": 6748,
      "范": 6749,
      "茄": 6750,
      "茅": 6751,
      "茆": 6752,
      "茇": 6753,
      "茉": 6754,
      "茋": 6755,
      "茌": 6756,
      "茎": 6757,
      "茏": 6758,
      "茑": 6759,
      "茔": 6760,
      "茕": 6761,
      "茗": 6762,
      "茙": 6763,
      "茛": 6764,
      "茜": 6765,
      "茝": 6766,
      "茧": 6767,
      "茨": 6768,
      "茫": 6769,
      "茬": 6770,
      "茭": 6771,
      "茯": 6772,
      "茱": 6773,
      "茴": 6774,
      "茵": 6775,
      "茶": 6776,
      "茸": 6777,
      "茹": 6778,
      "茺": 6779,
      "茻": 6780,
      "茼": 6781,
      "茿": 6782,
      "荀": 6783,
      "荃": 6784,
      "荅": 6785,
      "荆": 6786,
      "荇": 6787,
      "草": 6788,
      "荏": 6789,
      "荐": 6790,
      "荑": 6791,
      "荒": 6792,
      "荔": 6793,
      "荘": 6794,
      "荙": 6795,
      "荚": 6796,
      "荛": 6797,
      "荜": 6798,
      "荞": 6799,
      "荟": 6800,
      "荠": 6801,
      "荡": 6802,
      "荣": 6803,
      "荤": 6804,
      "荥": 6805,
      "荦": 6806,
      "荧": 6807,
      "荨": 6808,
      "荩": 6809,
      "荪": 6810,
      "荫": 6811,
      "荬": 6812,
      "荭": 6813,
      "荮": 6814,
      "药": 6815,
      "荳": 6816,
      "荷": 6817,
      "荸": 6818,
      "荻": 6819,
      "荼": 6820,
      "荽": 6821,
      "莃": 6822,
      "莅": 6823,
      "莆": 6824,
      "莉": 6825,
      "莎": 6826,
      "莒": 6827,
      "莓": 6828,
      "莘": 6829,
      "莙": 6830,
      "莛": 6831,
      "莜": 6832,
      "莞": 6833,
      "莠": 6834,
      "莨": 6835,
      "莩": 6836,
      "莪": 6837,
      "莫": 6838,
      "莮": 6839,
      "莱": 6840,
      "莲": 6841,
      "莳": 6842,
      "莴": 6843,
      "莶": 6844,
      "获": 6845,
      "莸": 6846,
      "莹": 6847,
      "莺": 6848,
      "莼": 6849,
      "莽": 6850,
      "莾": 6851,
      "菀": 6852,
      "菁": 6853,
      "菂": 6854,
      "菅": 6855,
      "菇": 6856,
      "菉": 6857,
      "菊": 6858,
      "菌": 6859,
      "菏": 6860,
      "菓": 6861,
      "菔": 6862,
      "菖": 6863,
      "菘": 6864,
      "菜": 6865,
      "菝": 6866,
      "菟": 6867,
      "菠": 6868,
      "菡": 6869,
      "菧": 6870,
      "菩": 6871,
      "菪": 6872,
      "菰": 6873,
      "菱": 6874,
      "菲": 6875,
      "菸": 6876,
      "菹": 6877,
      "菽": 6878,
      "菾": 6879,
      "萁": 6880,
      "萃": 6881,
      "萄": 6882,
      "萆": 6883,
      "萋": 6884,
      "萌": 6885,
      "萍": 6886,
      "萎": 6887,
      "萏": 6888,
      "萑": 6889,
      "萘": 6890,
      "萜": 6891,
      "萝": 6892,
      "萤": 6893,
      "营": 6894,
      "萦": 6895,
      "萧": 6896,
      "萨": 6897,
      "萩": 6898,
      "萯": 6899,
      "萱": 6900,
      "萸": 6901,
      "萹": 6902,
      "萼": 6903,
      "落": 6904,
      "葆": 6905,
      "葇": 6906,
      "葈": 6907,
      "葎": 6908,
      "葖": 6909,
      "著": 6910,
      "葙": 6911,
      "葚": 6912,
      "葛": 6913,
      "葡": 6914,
      "董": 6915,
      "葧": 6916,
      "葩": 6917,
      "葫": 6918,
      "葬": 6919,
      "葭": 6920,
      "葱": 6921,
      "葳": 6922,
      "葵": 6923,
      "葶": 6924,
      "葸": 6925,
      "葺": 6926,
      "蒂": 6927,
      "蒇": 6928,
      "蒉": 6929,
      "蒋": 6930,
      "蒌": 6931,
      "蒎": 6932,
      "蒗": 6933,
      "蒙": 6934,
      "蒜": 6935,
      "蒟": 6936,
      "蒡": 6937,
      "蒣": 6938,
      "蒨": 6939,
      "蒯": 6940,
      "蒱": 6941,
      "蒲": 6942,
      "蒴": 6943,
      "蒸": 6944,
      "蒹": 6945,
      "蒺": 6946,
      "蒻": 6947,
      "蒽": 6948,
      "蒿": 6949,
      "蓁": 6950,
      "蓂": 6951,
      "蓄": 6952,
      "蓇": 6953,
      "蓉": 6954,
      "蓊": 6955,
      "蓐": 6956,
      "蓑": 6957,
      "蓓": 6958,
      "蓖": 6959,
      "蓚": 6960,
      "蓝": 6961,
      "蓟": 6962,
      "蓠": 6963,
      "蓣": 6964,
      "蓥": 6965,
      "蓦": 6966,
      "蓧": 6967,
      "蓬": 6968,
      "蓼": 6969,
      "蓿": 6970,
      "蔌": 6971,
      "蔑": 6972,
      "蔓": 6973,
      "蔗": 6974,
      "蔚": 6975,
      "蔟": 6976,
      "蔡": 6977,
      "蔫": 6978,
      "蔬": 6979,
      "蔴": 6980,
      "蔷": 6981,
      "蔸": 6982,
      "蔹": 6983,
      "蔺": 6984,
      "蔻": 6985,
      "蔼": 6986,
      "蔽": 6987,
      "蕃": 6988,
      "蕅": 6989,
      "蕈": 6990,
      "蕉": 6991,
      "蕊": 6992,
      "蕖": 6993,
      "蕙": 6994,
      "蕞": 6995,
      "蕡": 6996,
      "蕤": 6997,
      "蕨": 6998,
      "蕲": 6999,
      "蕴": 7000,
      "蕸": 7001,
      "蕹": 7002,
      "蕺": 7003,
      "蕻": 7004,
      "蕾": 7005,
      "薄": 7006,
      "薅": 7007,
      "薇": 7008,
      "薏": 7009,
      "薙": 7010,
      "薛": 7011,
      "薜": 7012,
      "薢": 7013,
      "薤": 7014,
      "薨": 7015,
      "薪": 7016,
      "薮": 7017,
      "薯": 7018,
      "薰": 7019,
      "薷": 7020,
      "薹": 7021,
      "藁": 7022,
      "藉": 7023,
      "藊": 7024,
      "藏": 7025,
      "藐": 7026,
      "藓": 7027,
      "藕": 7028,
      "藜": 7029,
      "藟": 7030,
      "藤": 7031,
      "藦": 7032,
      "藩": 7033,
      "藭": 7034,
      "藴": 7035,
      "藻": 7036,
      "藿": 7037,
      "蘅": 7038,
      "蘑": 7039,
      "蘖": 7040,
      "蘘": 7041,
      "蘧": 7042,
      "蘸": 7043,
      "蘼": 7044,
      "虎": 7045,
      "虏": 7046,
      "虐": 7047,
      "虑": 7048,
      "虓": 7049,
      "虔": 7050,
      "虚": 7051,
      "虞": 7052,
      "虢": 7053,
      "虨": 7054,
      "虩": 7055,
      "虫": 7056,
      "虬": 7057,
      "虮": 7058,
      "虱": 7059,
      "虹": 7060,
      "虺": 7061,
      "虻": 7062,
      "虼": 7063,
      "虽": 7064,
      "虾": 7065,
      "虿": 7066,
      "蚀": 7067,
      "蚁": 7068,
      "蚂": 7069,
      "蚃": 7070,
      "蚊": 7071,
      "蚋": 7072,
      "蚌": 7073,
      "蚍": 7074,
      "蚓": 7075,
      "蚕": 7076,
      "蚘": 7077,
      "蚜": 7078,
      "蚝": 7079,
      "蚣": 7080,
      "蚤": 7081,
      "蚧": 7082,
      "蚨": 7083,
      "蚩": 7084,
      "蚪": 7085,
      "蚬": 7086,
      "蚯": 7087,
      "蚰": 7088,
      "蚱": 7089,
      "蚴": 7090,
      "蚵": 7091,
      "蚶": 7092,
      "蚺": 7093,
      "蚻": 7094,
      "蛀": 7095,
      "蛄": 7096,
      "蛆": 7097,
      "蛇": 7098,
      "蛉": 7099,
      "蛊": 7100,
      "蛋": 7101,
      "蛎": 7102,
      "蛏": 7103,
      "蛐": 7104,
      "蛑": 7105,
      "蛔": 7106,
      "蛙": 7107,
      "蛛": 7108,
      "蛟": 7109,
      "蛤": 7110,
      "蛩": 7111,
      "蛭": 7112,
      "蛮": 7113,
      "蛰": 7114,
      "蛱": 7115,
      "蛲": 7116,
      "蛳": 7117,
      "蛴": 7118,
      "蛸": 7119,
      "蛹": 7120,
      "蛾": 7121,
      "蜀": 7122,
      "蜂": 7123,
      "蜃": 7124,
      "蜇": 7125,
      "蜈": 7126,
      "蜉": 7127,
      "蜊": 7128,
      "蜍": 7129,
      "蜒": 7130,
      "蜓": 7131,
      "蜕": 7132,
      "蜗": 7133,
      "蜘": 7134,
      "蜚": 7135,
      "蜜": 7136,
      "蜡": 7137,
      "蜢": 7138,
      "蜣": 7139,
      "蜥": 7140,
      "蜮": 7141,
      "蜰": 7142,
      "蜱": 7143,
      "蜴": 7144,
      "蜷": 7145,
      "蜻": 7146,
      "蜾": 7147,
      "蜿": 7148,
      "蝇": 7149,
      "蝈": 7150,
      "蝉": 7151,
      "蝌": 7152,
      "蝎": 7153,
      "蝗": 7154,
      "蝘": 7155,
      "蝙": 7156,
      "蝠": 7157,
      "蝣": 7158,
      "蝤": 7159,
      "蝥": 7160,
      "蝮": 7161,
      "蝲": 7162,
      "蝴": 7163,
      "蝶": 7164,
      "蝼": 7165,
      "蝾": 7166,
      "螂": 7167,
      "螃": 7168,
      "螅": 7169,
      "螈": 7170,
      "融": 7171,
      "螒": 7172,
      "螓": 7173,
      "螟": 7174,
      "螣": 7175,
      "螨": 7176,
      "螫": 7177,
      "螬": 7178,
      "螭": 7179,
      "螯": 7180,
      "螳": 7181,
      "螵": 7182,
      "螺": 7183,
      "螽": 7184,
      "蟀": 7185,
      "蟅": 7186,
      "蟆": 7187,
      "蟊": 7188,
      "蟋": 7189,
      "蟌": 7190,
      "蟑": 7191,
      "蟒": 7192,
      "蟛": 7193,
      "蟜": 7194,
      "蟠": 7195,
      "蟥": 7196,
      "蟪": 7197,
      "蟫": 7198,
      "蟭": 7199,
      "蟮": 7200,
      "蟹": 7201,
      "蟾": 7202,
      "蠃": 7203,
      "蠊": 7204,
      "蠋": 7205,
      "蠓": 7206,
      "蠕": 7207,
      "蠖": 7208,
      "蠙": 7209,
      "蠡": 7210,
      "蠢": 7211,
      "蠭": 7212,
      "蠲": 7213,
      "蠹": 7214,
      "蠼": 7215,
      "血": 7216,
      "衃": 7217,
      "衄": 7218,
      "衅": 7219,
      "衆": 7220,
      "行": 7221,
      "衍": 7222,
      "衔": 7223,
      "街": 7224,
      "衙": 7225,
      "衛": 7226,
      "衡": 7227,
      "衢": 7228,
      "衣": 7229,
      "补": 7230,
      "表": 7231,
      "衩": 7232,
      "衫": 7233,
      "衬": 7234,
      "衮": 7235,
      "衰": 7236,
      "衲": 7237,
      "衷": 7238,
      "衽": 7239,
      "衾": 7240,
      "衿": 7241,
      "袀": 7242,
      "袁": 7243,
      "袂": 7244,
      "袄": 7245,
      "袅": 7246,
      "袆": 7247,
      "袈": 7248,
      "袋": 7249,
      "袍": 7250,
      "袒": 7251,
      "袓": 7252,
      "袖": 7253,
      "袛": 7254,
      "袜": 7255,
      "袠": 7256,
      "袢": 7257,
      "袣": 7258,
      "袤": 7259,
      "袨": 7260,
      "袪": 7261,
      "被": 7262,
      "袭": 7263,
      "袮": 7264,
      "袰": 7265,
      "袱": 7266,
      "袴": 7267,
      "袷": 7268,
      "袼": 7269,
      "裁": 7270,
      "裂": 7271,
      "装": 7272,
      "裆": 7273,
      "裉": 7274,
      "裒": 7275,
      "裔": 7276,
      "裕": 7277,
      "裘": 7278,
      "裙": 7279,
      "裟": 7280,
      "裢": 7281,
      "裣": 7282,
      "裤": 7283,
      "裥": 7284,
      "裧": 7285,
      "裨": 7286,
      "裰": 7287,
      "裱": 7288,
      "裳": 7289,
      "裴": 7290,
      "裸": 7291,
      "裹": 7292,
      "製": 7293,
      "裾": 7294,
      "褂": 7295,
      "褆": 7296,
      "褊": 7297,
      "褐": 7298,
      "褒": 7299,
      "褓": 7300,
      "褔": 7301,
      "褙": 7302,
      "褚": 7303,
      "褛": 7304,
      "褡": 7305,
      "褥": 7306,
      "褦": 7307,
      "褪": 7308,
      "褫": 7309,
      "褰": 7310,
      "褴": 7311,
      "褶": 7312,
      "襁": 7313,
      "襄": 7314,
      "襞": 7315,
      "襟": 7316,
      "襦": 7317,
      "襶": 7318,
      "襻": 7319,
      "襽": 7320,
      "西": 7321,
      "要": 7322,
      "覃": 7323,
      "覅": 7324,
      "覆": 7325,
      "覚": 7326,
      "親": 7327,
      "観": 7328,
      "见": 7329,
      "观": 7330,
      "规": 7331,
      "觅": 7332,
      "视": 7333,
      "觇": 7334,
      "览": 7335,
      "觉": 7336,
      "觊": 7337,
      "觌": 7338,
      "觎": 7339,
      "觏": 7340,
      "觐": 7341,
      "觑": 7342,
      "角": 7343,
      "觚": 7344,
      "觜": 7345,
      "觞": 7346,
      "解": 7347,
      "觥": 7348,
      "触": 7349,
      "觧": 7350,
      "觯": 7351,
      "觿": 7352,
      "言": 7353,
      "訄": 7354,
      "訇": 7355,
      "訚": 7356,
      "訸": 7357,
      "訾": 7358,
      "詈": 7359,
      "詜": 7360,
      "詝": 7361,
      "詟": 7362,
      "話": 7363,
      "詹": 7364,
      "誉": 7365,
      "誊": 7366,
      "認": 7367,
      "誐": 7368,
      "誓": 7369,
      "誕": 7370,
      "語": 7371,
      "説": 7372,
      "調": 7373,
      "諀": 7374,
      "諡": 7375,
      "諦": 7376,
      "諲": 7377,
      "諵": 7378,
      "謇": 7379,
      "謦": 7380,
      "譁": 7381,
      "譆": 7382,
      "譞": 7383,
      "警": 7384,
      "譩": 7385,
      "譪": 7386,
      "譬": 7387,
      "譶": 7388,
      "譿": 7389,
      "讟": 7390,
      "讠": 7391,
      "计": 7392,
      "订": 7393,
      "讣": 7394,
      "认": 7395,
      "讥": 7396,
      "讦": 7397,
      "讧": 7398,
      "讨": 7399,
      "让": 7400,
      "讪": 7401,
      "讫": 7402,
      "讬": 7403,
      "训": 7404,
      "议": 7405,
      "讯": 7406,
      "记": 7407,
      "讲": 7408,
      "讳": 7409,
      "讴": 7410,
      "讵": 7411,
      "讶": 7412,
      "讷": 7413,
      "许": 7414,
      "讹": 7415,
      "论": 7416,
      "讻": 7417,
      "讼": 7418,
      "讽": 7419,
      "设": 7420,
      "访": 7421,
      "诀": 7422,
      "证": 7423,
      "诂": 7424,
      "诃": 7425,
      "评": 7426,
      "诅": 7427,
      "识": 7428,
      "诇": 7429,
      "诈": 7430,
      "诉": 7431,
      "诊": 7432,
      "诋": 7433,
      "诌": 7434,
      "词": 7435,
      "诏": 7436,
      "译": 7437,
      "诒": 7438,
      "诓": 7439,
      "诔": 7440,
      "试": 7441,
      "诖": 7442,
      "诗": 7443,
      "诘": 7444,
      "诙": 7445,
      "诚": 7446,
      "诛": 7447,
      "诜": 7448,
      "话": 7449,
      "诞": 7450,
      "诟": 7451,
      "诠": 7452,
      "诡": 7453,
      "询": 7454,
      "诣": 7455,
      "诤": 7456,
      "该": 7457,
      "详": 7458,
      "诧": 7459,
      "诨": 7460,
      "诩": 7461,
      "诫": 7462,
      "诬": 7463,
      "语": 7464,
      "诮": 7465,
      "误": 7466,
      "诰": 7467,
      "诱": 7468,
      "诲": 7469,
      "诳": 7470,
      "说": 7471,
      "诵": 7472,
      "诶": 7473,
      "请": 7474,
      "诸": 7475,
      "诹": 7476,
      "诺": 7477,
      "读": 7478,
      "诼": 7479,
      "诽": 7480,
      "课": 7481,
      "诿": 7482,
      "谀": 7483,
      "谁": 7484,
      "谂": 7485,
      "调": 7486,
      "谄": 7487,
      "谅": 7488,
      "谆": 7489,
      "谇": 7490,
      "谈": 7491,
      "谊": 7492,
      "谋": 7493,
      "谌": 7494,
      "谍": 7495,
      "谎": 7496,
      "谏": 7497,
      "谐": 7498,
      "谑": 7499,
      "谒": 7500,
      "谓": 7501,
      "谔": 7502,
      "谕": 7503,
      "谖": 7504,
      "谗": 7505,
      "谘": 7506,
      "谙": 7507,
      "谚": 7508,
      "谛": 7509,
      "谜": 7510,
      "谝": 7511,
      "谞": 7512,
      "谟": 7513,
      "谠": 7514,
      "谡": 7515,
      "谢": 7516,
      "谣": 7517,
      "谤": 7518,
      "谥": 7519,
      "谦": 7520,
      "谧": 7521,
      "谨": 7522,
      "谩": 7523,
      "谪": 7524,
      "谬": 7525,
      "谭": 7526,
      "谮": 7527,
      "谯": 7528,
      "谰": 7529,
      "谱": 7530,
      "谲": 7531,
      "谳": 7532,
      "谴": 7533,
      "谵": 7534,
      "谶": 7535,
      "谷": 7536,
      "谿": 7537,
      "豁": 7538,
      "豆": 7539,
      "豇": 7540,
      "豉": 7541,
      "豋": 7542,
      "豌": 7543,
      "豕": 7544,
      "豚": 7545,
      "象": 7546,
      "豢": 7547,
      "豨": 7548,
      "豪": 7549,
      "豫": 7550,
      "豳": 7551,
      "豸": 7552,
      "豹": 7553,
      "豺": 7554,
      "貂": 7555,
      "貅": 7556,
      "貉": 7557,
      "貊": 7558,
      "貌": 7559,
      "貔": 7560,
      "貘": 7561,
      "負": 7562,
      "貴": 7563,
      "賍": 7564,
      "賨": 7565,
      "賫": 7566,
      "贂": 7567,
      "贇": 7568,
      "贔": 7569,
      "贙": 7570,
      "贝": 7571,
      "贞": 7572,
      "负": 7573,
      "贠": 7574,
      "贡": 7575,
      "财": 7576,
      "责": 7577,
      "贤": 7578,
      "败": 7579,
      "账": 7580,
      "货": 7581,
      "质": 7582,
      "贩": 7583,
      "贪": 7584,
      "贫": 7585,
      "贬": 7586,
      "购": 7587,
      "贮": 7588,
      "贯": 7589,
      "贰": 7590,
      "贱": 7591,
      "贲": 7592,
      "贴": 7593,
      "贵": 7594,
      "贶": 7595,
      "贷": 7596,
      "贸": 7597,
      "费": 7598,
      "贺": 7599,
      "贻": 7600,
      "贼": 7601,
      "贽": 7602,
      "贾": 7603,
      "贿": 7604,
      "赀": 7605,
      "赁": 7606,
      "赂": 7607,
      "赃": 7608,
      "资": 7609,
      "赅": 7610,
      "赈": 7611,
      "赉": 7612,
      "赊": 7613,
      "赋": 7614,
      "赌": 7615,
      "赎": 7616,
      "赏": 7617,
      "赐": 7618,
      "赑": 7619,
      "赓": 7620,
      "赔": 7621,
      "赖": 7622,
      "赘": 7623,
      "赚": 7624,
      "赛": 7625,
      "赜": 7626,
      "赝": 7627,
      "赞": 7628,
      "赟": 7629,
      "赠": 7630,
      "赡": 7631,
      "赢": 7632,
      "赣": 7633,
      "赤": 7634,
      "赦": 7635,
      "赧": 7636,
      "赩": 7637,
      "赫": 7638,
      "赭": 7639,
      "走": 7640,
      "赳": 7641,
      "赴": 7642,
      "赵": 7643,
      "赶": 7644,
      "起": 7645,
      "赿": 7646,
      "趁": 7647,
      "趄": 7648,
      "超": 7649,
      "越": 7650,
      "趋": 7651,
      "趑": 7652,
      "趔": 7653,
      "趟": 7654,
      "趣": 7655,
      "趦": 7656,
      "趬": 7657,
      "趯": 7658,
      "趱": 7659,
      "足": 7660,
      "趴": 7661,
      "趵": 7662,
      "趸": 7663,
      "趺": 7664,
      "趼": 7665,
      "趾": 7666,
      "趿": 7667,
      "跂": 7668,
      "跃": 7669,
      "跄": 7670,
      "跆": 7671,
      "跋": 7672,
      "跌": 7673,
      "跎": 7674,
      "跏": 7675,
      "跑": 7676,
      "跕": 7677,
      "跖": 7678,
      "跗": 7679,
      "跚": 7680,
      "跛": 7681,
      "距": 7682,
      "跞": 7683,
      "跟": 7684,
      "跣": 7685,
      "跤": 7686,
      "跨": 7687,
      "跪": 7688,
      "跬": 7689,
      "路": 7690,
      "跳": 7691,
      "践": 7692,
      "跶": 7693,
      "跷": 7694,
      "跸": 7695,
      "跹": 7696,
      "跺": 7697,
      "跻": 7698,
      "跼": 7699,
      "跽": 7700,
      "踅": 7701,
      "踉": 7702,
      "踊": 7703,
      "踌": 7704,
      "踏": 7705,
      "踔": 7706,
      "踖": 7707,
      "踝": 7708,
      "踞": 7709,
      "踟": 7710,
      "踢": 7711,
      "踧": 7712,
      "踩": 7713,
      "踪": 7714,
      "踬": 7715,
      "踭": 7716,
      "踮": 7717,
      "踯": 7718,
      "踰": 7719,
      "踱": 7720,
      "踵": 7721,
      "踹": 7722,
      "踽": 7723,
      "蹀": 7724,
      "蹁": 7725,
      "蹂": 7726,
      "蹄": 7727,
      "蹇": 7728,
      "蹈": 7729,
      "蹉": 7730,
      "蹊": 7731,
      "蹋": 7732,
      "蹍": 7733,
      "蹑": 7734,
      "蹒": 7735,
      "蹓": 7736,
      "蹙": 7737,
      "蹚": 7738,
      "蹟": 7739,
      "蹡": 7740,
      "蹦": 7741,
      "蹩": 7742,
      "蹬": 7743,
      "蹭": 7744,
      "蹰": 7745,
      "蹲": 7746,
      "蹴": 7747,
      "蹶": 7748,
      "蹼": 7749,
      "蹿": 7750,
      "躁": 7751,
      "躄": 7752,
      "躅": 7753,
      "躇": 7754,
      "躏": 7755,
      "躐": 7756,
      "躔": 7757,
      "躜": 7758,
      "躞": 7759,
      "身": 7760,
      "躬": 7761,
      "躯": 7762,
      "躲": 7763,
      "躶": 7764,
      "躺": 7765,
      "軃": 7766,
      "輙": 7767,
      "輩": 7768,
      "轑": 7769,
      "车": 7770,
      "轧": 7771,
      "轨": 7772,
      "轩": 7773,
      "轫": 7774,
      "转": 7775,
      "轭": 7776,
      "轮": 7777,
      "软": 7778,
      "轰": 7779,
      "轱": 7780,
      "轲": 7781,
      "轳": 7782,
      "轴": 7783,
      "轵": 7784,
      "轶": 7785,
      "轸": 7786,
      "轺": 7787,
      "轻": 7788,
      "轼": 7789,
      "载": 7790,
      "轿": 7791,
      "辂": 7792,
      "较": 7793,
      "辄": 7794,
      "辅": 7795,
      "辆": 7796,
      "辇": 7797,
      "辈": 7798,
      "辉": 7799,
      "辊": 7800,
      "辋": 7801,
      "辍": 7802,
      "辎": 7803,
      "辏": 7804,
      "辐": 7805,
      "辑": 7806,
      "输": 7807,
      "辔": 7808,
      "辕": 7809,
      "辖": 7810,
      "辗": 7811,
      "辘": 7812,
      "辙": 7813,
      "辚": 7814,
      "辛": 7815,
      "辜": 7816,
      "辞": 7817,
      "辟": 7818,
      "辣": 7819,
      "辨": 7820,
      "辩": 7821,
      "辫": 7822,
      "辰": 7823,
      "辱": 7824,
      "農": 7825,
      "辶": 7826,
      "边": 7827,
      "辻": 7828,
      "辽": 7829,
      "达": 7830,
      "辿": 7831,
      "迁": 7832,
      "迂": 7833,
      "迄": 7834,
      "迅": 7835,
      "过": 7836,
      "迈": 7837,
      "迎": 7838,
      "运": 7839,
      "近": 7840,
      "迓": 7841,
      "返": 7842,
      "还": 7843,
      "这": 7844,
      "进": 7845,
      "远": 7846,
      "违": 7847,
      "连": 7848,
      "迟": 7849,
      "迢": 7850,
      "迣": 7851,
      "迤": 7852,
      "迥": 7853,
      "迦": 7854,
      "迨": 7855,
      "迩": 7856,
      "迪": 7857,
      "迫": 7858,
      "迭": 7859,
      "述": 7860,
      "迳": 7861,
      "迵": 7862,
      "迷": 7863,
      "迸": 7864,
      "迹": 7865,
      "迻": 7866,
      "追": 7867,
      "退": 7868,
      "送": 7869,
      "适": 7870,
      "逃": 7871,
      "逄": 7872,
      "逅": 7873,
      "逆": 7874,
      "选": 7875,
      "逊": 7876,
      "逋": 7877,
      "逍": 7878,
      "透": 7879,
      "逐": 7880,
      "逑": 7881,
      "递": 7882,
      "途": 7883,
      "逖": 7884,
      "逗": 7885,
      "通": 7886,
      "逛": 7887,
      "逝": 7888,
      "逞": 7889,
      "速": 7890,
      "造": 7891,
      "逡": 7892,
      "逢": 7893,
      "逥": 7894,
      "逦": 7895,
      "逭": 7896,
      "逮": 7897,
      "逯": 7898,
      "逰": 7899,
      "逵": 7900,
      "逶": 7901,
      "逸": 7902,
      "逹": 7903,
      "逺": 7904,
      "逻": 7905,
      "逼": 7906,
      "逾": 7907,
      "遁": 7908,
      "遂": 7909,
      "遄": 7910,
      "遇": 7911,
      "遍": 7912,
      "遏": 7913,
      "遐": 7914,
      "遑": 7915,
      "遒": 7916,
      "道": 7917,
      "達": 7918,
      "遗": 7919,
      "遛": 7920,
      "遝": 7921,
      "遢": 7922,
      "遣": 7923,
      "遥": 7924,
      "遨": 7925,
      "遭": 7926,
      "遮": 7927,
      "遯": 7928,
      "遴": 7929,
      "遵": 7930,
      "遽": 7931,
      "避": 7932,
      "邀": 7933,
      "邂": 7934,
      "邃": 7935,
      "邅": 7936,
      "邈": 7937,
      "邉": 7938,
      "邊": 7939,
      "邋": 7940,
      "邑": 7941,
      "邓": 7942,
      "邔": 7943,
      "邕": 7944,
      "邗": 7945,
      "邙": 7946,
      "邛": 7947,
      "邝": 7948,
      "邠": 7949,
      "邡": 7950,
      "邢": 7951,
      "那": 7952,
      "邦": 7953,
      "邨": 7954,
      "邪": 7955,
      "邬": 7956,
      "邭": 7957,
      "邮": 7958,
      "邯": 7959,
      "邰": 7960,
      "邱": 7961,
      "邲": 7962,
      "邳": 7963,
      "邴": 7964,
      "邵": 7965,
      "邶": 7966,
      "邸": 7967,
      "邹": 7968,
      "邺": 7969,
      "邻": 7970,
      "邽": 7971,
      "邾": 7972,
      "郁": 7973,
      "郄": 7974,
      "郅": 7975,
      "郇": 7976,
      "郊": 7977,
      "郎": 7978,
      "郏": 7979,
      "郐": 7980,
      "郑": 7981,
      "郓": 7982,
      "郗": 7983,
      "郙": 7984,
      "郛": 7985,
      "郜": 7986,
      "郝": 7987,
      "郞": 7988,
      "郡": 7989,
      "郢": 7990,
      "郤": 7991,
      "郦": 7992,
      "郧": 7993,
      "部": 7994,
      "郫": 7995,
      "郭": 7996,
      "郯": 7997,
      "郴": 7998,
      "郸": 7999,
      "都": 8000,
      "郾": 8001,
      "郿": 8002,
      "鄀": 8003,
      "鄁": 8004,
      "鄂": 8005,
      "鄄": 8006,
      "鄑": 8007,
      "鄘": 8008,
      "鄙": 8009,
      "鄚": 8010,
      "鄜": 8011,
      "鄞": 8012,
      "鄠": 8013,
      "鄢": 8014,
      "鄣": 8015,
      "鄬": 8016,
      "鄯": 8017,
      "鄱": 8018,
      "酂": 8019,
      "酆": 8020,
      "酉": 8021,
      "酊": 8022,
      "酋": 8023,
      "酌": 8024,
      "配": 8025,
      "酐": 8026,
      "酒": 8027,
      "酗": 8028,
      "酚": 8029,
      "酝": 8030,
      "酞": 8031,
      "酡": 8032,
      "酢": 8033,
      "酣": 8034,
      "酥": 8035,
      "酩": 8036,
      "酪": 8037,
      "酬": 8038,
      "酮": 8039,
      "酯": 8040,
      "酰": 8041,
      "酱": 8042,
      "酲": 8043,
      "酴": 8044,
      "酵": 8045,
      "酶": 8046,
      "酷": 8047,
      "酸": 8048,
      "酹": 8049,
      "酽": 8050,
      "酾": 8051,
      "酿": 8052,
      "醅": 8053,
      "醇": 8054,
      "醉": 8055,
      "醋": 8056,
      "醌": 8057,
      "醍": 8058,
      "醐": 8059,
      "醑": 8060,
      "醒": 8061,
      "醚": 8062,
      "醛": 8063,
      "醠": 8064,
      "醢": 8065,
      "醣": 8066,
      "醤": 8067,
      "醨": 8068,
      "醩": 8069,
      "醪": 8070,
      "醭": 8071,
      "醮": 8072,
      "醴": 8073,
      "醸": 8074,
      "醺": 8075,
      "醽": 8076,
      "釆": 8077,
      "采": 8078,
      "釉": 8079,
      "释": 8080,
      "里": 8081,
      "重": 8082,
      "野": 8083,
      "量": 8084,
      "金": 8085,
      "釗": 8086,
      "釜": 8087,
      "釭": 8088,
      "釴": 8089,
      "釿": 8090,
      "鈎": 8091,
      "鈖": 8092,
      "鈜": 8093,
      "鉄": 8094,
      "鉴": 8095,
      "銮": 8096,
      "鋆": 8097,
      "鋐": 8098,
      "鋬": 8099,
      "鋹": 8100,
      "錞": 8101,
      "錤": 8102,
      "録": 8103,
      "錾": 8104,
      "鍦": 8105,
      "鍪": 8106,
      "鍼": 8107,
      "鎏": 8108,
      "鎚": 8109,
      "鏊": 8110,
      "鏐": 8111,
      "鏖": 8112,
      "鏸": 8113,
      "鐧": 8114,
      "鐱": 8115,
      "鐻": 8116,
      "鑫": 8117,
      "钅": 8118,
      "钇": 8119,
      "针": 8120,
      "钉": 8121,
      "钊": 8122,
      "钋": 8123,
      "钌": 8124,
      "钍": 8125,
      "钎": 8126,
      "钏": 8127,
      "钐": 8128,
      "钒": 8129,
      "钓": 8130,
      "钔": 8131,
      "钕": 8132,
      "钖": 8133,
      "钗": 8134,
      "钘": 8135,
      "钙": 8136,
      "钚": 8137,
      "钛": 8138,
      "钜": 8139,
      "钝": 8140,
      "钞": 8141,
      "钟": 8142,
      "钠": 8143,
      "钡": 8144,
      "钢": 8145,
      "钣": 8146,
      "钤": 8147,
      "钥": 8148,
      "钦": 8149,
      "钧": 8150,
      "钨": 8151,
      "钩": 8152,
      "钪": 8153,
      "钬": 8154,
      "钭": 8155,
      "钮": 8156,
      "钯": 8157,
      "钰": 8158,
      "钱": 8159,
      "钲": 8160,
      "钳": 8161,
      "钴": 8162,
      "钵": 8163,
      "钹": 8164,
      "钺": 8165,
      "钻": 8166,
      "钼": 8167,
      "钽": 8168,
      "钾": 8169,
      "钿": 8170,
      "铀": 8171,
      "铁": 8172,
      "铂": 8173,
      "铃": 8174,
      "铄": 8175,
      "铅": 8176,
      "铆": 8177,
      "铈": 8178,
      "铉": 8179,
      "铊": 8180,
      "铋": 8181,
      "铌": 8182,
      "铍": 8183,
      "铎": 8184,
      "铏": 8185,
      "铐": 8186,
      "铑": 8187,
      "铒": 8188,
      "铖": 8189,
      "铗": 8190,
      "铘": 8191,
      "铙": 8192,
      "铚": 8193,
      "铛": 8194,
      "铜": 8195,
      "铝": 8196,
      "铟": 8197,
      "铠": 8198,
      "铡": 8199,
      "铢": 8200,
      "铣": 8201,
      "铤": 8202,
      "铥": 8203,
      "铧": 8204,
      "铨": 8205,
      "铩": 8206,
      "铫": 8207,
      "铬": 8208,
      "铭": 8209,
      "铮": 8210,
      "铯": 8211,
      "铰": 8212,
      "铱": 8213,
      "铲": 8214,
      "铳": 8215,
      "铵": 8216,
      "银": 8217,
      "铷": 8218,
      "铸": 8219,
      "铹": 8220,
      "铺": 8221,
      "铼": 8222,
      "铽": 8223,
      "链": 8224,
      "铿": 8225,
      "销": 8226,
      "锁": 8227,
      "锂": 8228,
      "锃": 8229,
      "锄": 8230,
      "锅": 8231,
      "锆": 8232,
      "锈": 8233,
      "锉": 8234,
      "锋": 8235,
      "锌": 8236,
      "锏": 8237,
      "锐": 8238,
      "锑": 8239,
      "锒": 8240,
      "锔": 8241,
      "锕": 8242,
      "锖": 8243,
      "锗": 8244,
      "锘": 8245,
      "错": 8246,
      "锚": 8247,
      "锛": 8248,
      "锜": 8249,
      "锝": 8250,
      "锞": 8251,
      "锟": 8252,
      "锡": 8253,
      "锢": 8254,
      "锣": 8255,
      "锤": 8256,
      "锥": 8257,
      "锦": 8258,
      "锨": 8259,
      "锩": 8260,
      "锭": 8261,
      "键": 8262,
      "锯": 8263,
      "锰": 8264,
      "锱": 8265,
      "锲": 8266,
      "锴": 8267,
      "锵": 8268,
      "锶": 8269,
      "锷": 8270,
      "锹": 8271,
      "锺": 8272,
      "锻": 8273,
      "锼": 8274,
      "镀": 8275,
      "镁": 8276,
      "镂": 8277,
      "镃": 8278,
      "镅": 8279,
      "镆": 8280,
      "镇": 8281,
      "镉": 8282,
      "镊": 8283,
      "镋": 8284,
      "镌": 8285,
      "镍": 8286,
      "镎": 8287,
      "镏": 8288,
      "镐": 8289,
      "镑": 8290,
      "镒": 8291,
      "镓": 8292,
      "镔": 8293,
      "镕": 8294,
      "镖": 8295,
      "镗": 8296,
      "镘": 8297,
      "镙": 8298,
      "镚": 8299,
      "镛": 8300,
      "镜": 8301,
      "镝": 8302,
      "镞": 8303,
      "镠": 8304,
      "镡": 8305,
      "镢": 8306,
      "镣": 8307,
      "镤": 8308,
      "镦": 8309,
      "镧": 8310,
      "镫": 8311,
      "镬": 8312,
      "镭": 8313,
      "镯": 8314,
      "镰": 8315,
      "镱": 8316,
      "镲": 8317,
      "镳": 8318,
      "镵": 8319,
      "镶": 8320,
      "长": 8321,
      "間": 8322,
      "闇": 8323,
      "關": 8324,
      "门": 8325,
      "闩": 8326,
      "闪": 8327,
      "闫": 8328,
      "闭": 8329,
      "问": 8330,
      "闯": 8331,
      "闰": 8332,
      "闱": 8333,
      "闲": 8334,
      "闳": 8335,
      "间": 8336,
      "闵": 8337,
      "闷": 8338,
      "闸": 8339,
      "闹": 8340,
      "闺": 8341,
      "闻": 8342,
      "闼": 8343,
      "闽": 8344,
      "闾": 8345,
      "闿": 8346,
      "阀": 8347,
      "阁": 8348,
      "阂": 8349,
      "阃": 8350,
      "阄": 8351,
      "阅": 8352,
      "阆": 8353,
      "阇": 8354,
      "阈": 8355,
      "阉": 8356,
      "阊": 8357,
      "阋": 8358,
      "阍": 8359,
      "阎": 8360,
      "阏": 8361,
      "阐": 8362,
      "阑": 8363,
      "阔": 8364,
      "阕": 8365,
      "阖": 8366,
      "阗": 8367,
      "阙": 8368,
      "阚": 8369,
      "阜": 8370,
      "阝": 8371,
      "队": 8372,
      "阡": 8373,
      "阢": 8374,
      "阪": 8375,
      "阮": 8376,
      "阱": 8377,
      "防": 8378,
      "阳": 8379,
      "阴": 8380,
      "阵": 8381,
      "阶": 8382,
      "阻": 8383,
      "阼": 8384,
      "阽": 8385,
      "阿": 8386,
      "陀": 8387,
      "陂": 8388,
      "附": 8389,
      "际": 8390,
      "陆": 8391,
      "陇": 8392,
      "陈": 8393,
      "陉": 8394,
      "陋": 8395,
      "陌": 8396,
      "降": 8397,
      "限": 8398,
      "陔": 8399,
      "陕": 8400,
      "陚": 8401,
      "陛": 8402,
      "陟": 8403,
      "陡": 8404,
      "院": 8405,
      "除": 8406,
      "陥": 8407,
      "陧": 8408,
      "陨": 8409,
      "险": 8410,
      "陪": 8411,
      "陬": 8412,
      "陲": 8413,
      "陴": 8414,
      "陵": 8415,
      "陶": 8416,
      "陷": 8417,
      "隅": 8418,
      "隆": 8419,
      "隈": 8420,
      "隋": 8421,
      "隍": 8422,
      "随": 8423,
      "隐": 8424,
      "隔": 8425,
      "隗": 8426,
      "隘": 8427,
      "隙": 8428,
      "障": 8429,
      "隧": 8430,
      "隰": 8431,
      "隳": 8432,
      "隶": 8433,
      "隹": 8434,
      "隼": 8435,
      "隽": 8436,
      "难": 8437,
      "雀": 8438,
      "雁": 8439,
      "雄": 8440,
      "雅": 8441,
      "集": 8442,
      "雇": 8443,
      "雉": 8444,
      "雌": 8445,
      "雍": 8446,
      "雎": 8447,
      "雏": 8448,
      "雒": 8449,
      "雔": 8450,
      "雕": 8451,
      "雚": 8452,
      "雠": 8453,
      "難": 8454,
      "雥": 8455,
      "雦": 8456,
      "雨": 8457,
      "雩": 8458,
      "雪": 8459,
      "雫": 8460,
      "雮": 8461,
      "雯": 8462,
      "雱": 8463,
      "雳": 8464,
      "零": 8465,
      "雷": 8466,
      "雹": 8467,
      "雾": 8468,
      "需": 8469,
      "霁": 8470,
      "霄": 8471,
      "霅": 8472,
      "霆": 8473,
      "震": 8474,
      "霈": 8475,
      "霉": 8476,
      "霍": 8477,
      "霎": 8478,
      "霏": 8479,
      "霓": 8480,
      "霖": 8481,
      "霜": 8482,
      "霝": 8483,
      "霞": 8484,
      "霪": 8485,
      "霭": 8486,
      "霰": 8487,
      "露": 8488,
      "霸": 8489,
      "霹": 8490,
      "霾": 8491,
      "靐": 8492,
      "靑": 8493,
      "青": 8494,
      "靓": 8495,
      "靖": 8496,
      "静": 8497,
      "靛": 8498,
      "非": 8499,
      "靠": 8500,
      "靡": 8501,
      "面": 8502,
      "靥": 8503,
      "革": 8504,
      "靳": 8505,
      "靴": 8506,
      "靶": 8507,
      "靺": 8508,
      "靼": 8509,
      "鞅": 8510,
      "鞋": 8511,
      "鞍": 8512,
      "鞑": 8513,
      "鞒": 8514,
      "鞕": 8515,
      "鞘": 8516,
      "鞠": 8517,
      "鞣": 8518,
      "鞥": 8519,
      "鞨": 8520,
      "鞫": 8521,
      "鞬": 8522,
      "鞭": 8523,
      "鞮": 8524,
      "鞯": 8525,
      "鞴": 8526,
      "韈": 8527,
      "韦": 8528,
      "韧": 8529,
      "韩": 8530,
      "韪": 8531,
      "韫": 8532,
      "韬": 8533,
      "韭": 8534,
      "韮": 8535,
      "音": 8536,
      "韵": 8537,
      "韶": 8538,
      "頁": 8539,
      "須": 8540,
      "預": 8541,
      "頔": 8542,
      "頞": 8543,
      "頫": 8544,
      "頭": 8545,
      "頼": 8546,
      "頽": 8547,
      "顔": 8548,
      "願": 8549,
      "顣": 8550,
      "顯": 8551,
      "页": 8552,
      "顶": 8553,
      "顷": 8554,
      "顸": 8555,
      "项": 8556,
      "顺": 8557,
      "须": 8558,
      "顼": 8559,
      "顽": 8560,
      "顾": 8561,
      "顿": 8562,
      "颀": 8563,
      "颁": 8564,
      "颂": 8565,
      "颃": 8566,
      "预": 8567,
      "颅": 8568,
      "领": 8569,
      "颇": 8570,
      "颈": 8571,
      "颉": 8572,
      "颊": 8573,
      "颌": 8574,
      "颍": 8575,
      "颎": 8576,
      "颏": 8577,
      "颐": 8578,
      "频": 8579,
      "颓": 8580,
      "颔": 8581,
      "颖": 8582,
      "颗": 8583,
      "题": 8584,
      "颙": 8585,
      "颚": 8586,
      "颛": 8587,
      "颜": 8588,
      "额": 8589,
      "颞": 8590,
      "颟": 8591,
      "颠": 8592,
      "颡": 8593,
      "颢": 8594,
      "颤": 8595,
      "颥": 8596,
      "颦": 8597,
      "颧": 8598,
      "飍": 8599,
      "风": 8600,
      "飏": 8601,
      "飐": 8602,
      "飑": 8603,
      "飒": 8604,
      "飓": 8605,
      "飕": 8606,
      "飖": 8607,
      "飘": 8608,
      "飙": 8609,
      "飚": 8610,
      "飝": 8611,
      "飞": 8612,
      "食": 8613,
      "飧": 8614,
      "飨": 8615,
      "餋": 8616,
      "餍": 8617,
      "餐": 8618,
      "餬": 8619,
      "餮": 8620,
      "饐": 8621,
      "饔": 8622,
      "饕": 8623,
      "饟": 8624,
      "饣": 8625,
      "饥": 8626,
      "饦": 8627,
      "饧": 8628,
      "饨": 8629,
      "饪": 8630,
      "饫": 8631,
      "饬": 8632,
      "饭": 8633,
      "饮": 8634,
      "饯": 8635,
      "饰": 8636,
      "饱": 8637,
      "饲": 8638,
      "饴": 8639,
      "饵": 8640,
      "饶": 8641,
      "饷": 8642,
      "饸": 8643,
      "饹": 8644,
      "饺": 8645,
      "饼": 8646,
      "饽": 8647,
      "饿": 8648,
      "馀": 8649,
      "馁": 8650,
      "馃": 8651,
      "馄": 8652,
      "馅": 8653,
      "馆": 8654,
      "馇": 8655,
      "馈": 8656,
      "馊": 8657,
      "馋": 8658,
      "馍": 8659,
      "馏": 8660,
      "馐": 8661,
      "馑": 8662,
      "馒": 8663,
      "馓": 8664,
      "馔": 8665,
      "馕": 8666,
      "首": 8667,
      "馗": 8668,
      "香": 8669,
      "馥": 8670,
      "馨": 8671,
      "馫": 8672,
      "馼": 8673,
      "駅": 8674,
      "駇": 8675,
      "駹": 8676,
      "騑": 8677,
      "騼": 8678,
      "驫": 8679,
      "马": 8680,
      "驭": 8681,
      "驮": 8682,
      "驯": 8683,
      "驰": 8684,
      "驱": 8685,
      "驳": 8686,
      "驴": 8687,
      "驶": 8688,
      "驷": 8689,
      "驸": 8690,
      "驹": 8691,
      "驺": 8692,
      "驻": 8693,
      "驼": 8694,
      "驽": 8695,
      "驾": 8696,
      "驿": 8697,
      "骁": 8698,
      "骂": 8699,
      "骃": 8700,
      "骄": 8701,
      "骅": 8702,
      "骆": 8703,
      "骇": 8704,
      "骈": 8705,
      "骉": 8706,
      "骊": 8707,
      "骋": 8708,
      "验": 8709,
      "骍": 8710,
      "骏": 8711,
      "骐": 8712,
      "骑": 8713,
      "骓": 8714,
      "骕": 8715,
      "骖": 8716,
      "骗": 8717,
      "骘": 8718,
      "骙": 8719,
      "骚": 8720,
      "骛": 8721,
      "骜": 8722,
      "骝": 8723,
      "骞": 8724,
      "骟": 8725,
      "骠": 8726,
      "骡": 8727,
      "骢": 8728,
      "骤": 8729,
      "骥": 8730,
      "骧": 8731,
      "骨": 8732,
      "骰": 8733,
      "骵": 8734,
      "骶": 8735,
      "骷": 8736,
      "骸": 8737,
      "骺": 8738,
      "骼": 8739,
      "骾": 8740,
      "髀": 8741,
      "髁": 8742,
      "髂": 8743,
      "髃": 8744,
      "髅": 8745,
      "髆": 8746,
      "髈": 8747,
      "髋": 8748,
      "髌": 8749,
      "髎": 8750,
      "髐": 8751,
      "髑": 8752,
      "髓": 8753,
      "體": 8754,
      "高": 8755,
      "髙": 8756,
      "髡": 8757,
      "髦": 8758,
      "髩": 8759,
      "髫": 8760,
      "髭": 8761,
      "髯": 8762,
      "髹": 8763,
      "髻": 8764,
      "髽": 8765,
      "鬃": 8766,
      "鬇": 8767,
      "鬈": 8768,
      "鬏": 8769,
      "鬓": 8770,
      "鬟": 8771,
      "鬡": 8772,
      "鬣": 8773,
      "鬭": 8774,
      "鬯": 8775,
      "鬲": 8776,
      "鬻": 8777,
      "鬼": 8778,
      "魁": 8779,
      "魂": 8780,
      "魃": 8781,
      "魄": 8782,
      "魅": 8783,
      "魆": 8784,
      "魇": 8785,
      "魈": 8786,
      "魉": 8787,
      "魋": 8788,
      "魍": 8789,
      "魏": 8790,
      "魑": 8791,
      "魔": 8792,
      "魻": 8793,
      "鮀": 8794,
      "鮎": 8795,
      "鮨": 8796,
      "鮩": 8797,
      "鮰": 8798,
      "鱓": 8799,
      "鱻": 8800,
      "鱼": 8801,
      "鱿": 8802,
      "鲀": 8803,
      "鲁": 8804,
      "鲃": 8805,
      "鲅": 8806,
      "鲆": 8807,
      "鲇": 8808,
      "鲈": 8809,
      "鲋": 8810,
      "鲌": 8811,
      "鲍": 8812,
      "鲎": 8813,
      "鲏": 8814,
      "鲐": 8815,
      "鲑": 8816,
      "鲒": 8817,
      "鲔": 8818,
      "鲘": 8819,
      "鲚": 8820,
      "鲛": 8821,
      "鲜": 8822,
      "鲞": 8823,
      "鲟": 8824,
      "鲠": 8825,
      "鲡": 8826,
      "鲢": 8827,
      "鲣": 8828,
      "鲤": 8829,
      "鲥": 8830,
      "鲦": 8831,
      "鲧": 8832,
      "鲨": 8833,
      "鲩": 8834,
      "鲫": 8835,
      "鲭": 8836,
      "鲮": 8837,
      "鲰": 8838,
      "鲱": 8839,
      "鲲": 8840,
      "鲳": 8841,
      "鲴": 8842,
      "鲵": 8843,
      "鲶": 8844,
      "鲷": 8845,
      "鲸": 8846,
      "鲹": 8847,
      "鲺": 8848,
      "鲻": 8849,
      "鲽": 8850,
      "鲿": 8851,
      "鳀": 8852,
      "鳃": 8853,
      "鳄": 8854,
      "鳅": 8855,
      "鳆": 8856,
      "鳇": 8857,
      "鳊": 8858,
      "鳌": 8859,
      "鳍": 8860,
      "鳎": 8861,
      "鳏": 8862,
      "鳐": 8863,
      "鳑": 8864,
      "鳔": 8865,
      "鳕": 8866,
      "鳖": 8867,
      "鳗": 8868,
      "鳙": 8869,
      "鳜": 8870,
      "鳝": 8871,
      "鳞": 8872,
      "鳟": 8873,
      "鳡": 8874,
      "鳢": 8875,
      "鳨": 8876,
      "鳽": 8877,
      "鳾": 8878,
      "鴒": 8879,
      "鴞": 8880,
      "鵐": 8881,
      "鵣": 8882,
      "鶲": 8883,
      "鶺": 8884,
      "鷟": 8885,
      "鸑": 8886,
      "鸜": 8887,
      "鸟": 8888,
      "鸠": 8889,
      "鸡": 8890,
      "鸢": 8891,
      "鸣": 8892,
      "鸥": 8893,
      "鸦": 8894,
      "鸨": 8895,
      "鸩": 8896,
      "鸪": 8897,
      "鸫": 8898,
      "鸬": 8899,
      "鸭": 8900,
      "鸮": 8901,
      "鸯": 8902,
      "鸰": 8903,
      "鸱": 8904,
      "鸲": 8905,
      "鸳": 8906,
      "鸵": 8907,
      "鸶": 8908,
      "鸷": 8909,
      "鸹": 8910,
      "鸻": 8911,
      "鸽": 8912,
      "鸾": 8913,
      "鸿": 8914,
      "鹀": 8915,
      "鹁": 8916,
      "鹂": 8917,
      "鹃": 8918,
      "鹄": 8919,
      "鹅": 8920,
      "鹆": 8921,
      "鹇": 8922,
      "鹈": 8923,
      "鹉": 8924,
      "鹊": 8925,
      "鹌": 8926,
      "鹍": 8927,
      "鹎": 8928,
      "鹏": 8929,
      "鹐": 8930,
      "鹑": 8931,
      "鹓": 8932,
      "鹕": 8933,
      "鹖": 8934,
      "鹗": 8935,
      "鹘": 8936,
      "鹚": 8937,
      "鹜": 8938,
      "鹞": 8939,
      "鹟": 8940,
      "鹡": 8941,
      "鹣": 8942,
      "鹤": 8943,
      "鹦": 8944,
      "鹧": 8945,
      "鹨": 8946,
      "鹩": 8947,
      "鹪": 8948,
      "鹫": 8949,
      "鹬": 8950,
      "鹭": 8951,
      "鹮": 8952,
      "鹰": 8953,
      "鹱": 8954,
      "鹳": 8955,
      "鹿": 8956,
      "麀": 8957,
      "麂": 8958,
      "麇": 8959,
      "麈": 8960,
      "麋": 8961,
      "麑": 8962,
      "麒": 8963,
      "麓": 8964,
      "麝": 8965,
      "麟": 8966,
      "麤": 8967,
      "麦": 8968,
      "麸": 8969,
      "麺": 8970,
      "麻": 8971,
      "麽": 8972,
      "麾": 8973,
      "黄": 8974,
      "黉": 8975,
      "黍": 8976,
      "黎": 8977,
      "黏": 8978,
      "黑": 8979,
      "黒": 8980,
      "黔": 8981,
      "默": 8982,
      "黙": 8983,
      "黛": 8984,
      "黜": 8985,
      "黝": 8986,
      "黟": 8987,
      "黠": 8988,
      "黢": 8989,
      "黥": 8990,
      "黧": 8991,
      "黩": 8992,
      "黮": 8993,
      "黯": 8994,
      "黻": 8995,
      "黼": 8996,
      "黾": 8997,
      "鼋": 8998,
      "鼍": 8999,
      "鼎": 9000,
      "鼏": 9001,
      "鼐": 9002,
      "鼓": 9003,
      "鼗": 9004,
      "鼙": 9005,
      "鼠": 9006,
      "鼢": 9007,
      "鼧": 9008,
      "鼩": 9009,
      "鼬": 9010,
      "鼯": 9011,
      "鼱": 9012,
      "鼷": 9013,
      "鼹": 9014,
      "鼻": 9015,
      "鼽": 9016,
      "鼾": 9017,
      "齁": 9018,
      "齉": 9019,
      "齐": 9020,
      "齑": 9021,
      "齘": 9022,
      "齿": 9023,
      "龂": 9024,
      "龃": 9025,
      "龄": 9026,
      "龅": 9027,
      "龇": 9028,
      "龈": 9029,
      "龉": 9030,
      "龊": 9031,
      "龋": 9032,
      "龌": 9033,
      "龖": 9034,
      "龘": 9035,
      "龙": 9036,
      "龚": 9037,
      "龛": 9038,
      "龟": 9039,
      "龠": 9040,
      "龢": 9041,
      "ꦁ": 9042,
      "ꦂ": 9043,
      "ꦈ": 9044,
      "ꦏ": 9045,
      "ꦛ": 9046,
      "ꦝ": 9047,
      "ꦟ": 9048,
      "ꦠ": 9049,
      "ꦢ": 9050,
      "ꦤ": 9051,
      "ꦥ": 9052,
      "ꦧ": 9053,
      "ꦩ": 9054,
      "ꦫ": 9055,
      "ꦭ": 9056,
      "ꦮ": 9057,
      "ꦱ": 9058,
      "ꦲ": 9059,
      "ꦴ": 9060,
      "ꦶ": 9061,
      "ꦸ": 9062,
      "ꦺ": 9063,
      "ꦼ": 9064,
      "꧀": 9065,
      "꧉": 9066,
      "꧋": 9067,
      "가": 9068,
      "간": 9069,
      "감": 9070,
      "같": 9071,
      "개": 9072,
      "거": 9073,
      "걸": 9074,
      "것": 9075,
      "게": 9076,
      "겠": 9077,
      "겨": 9078,
      "결": 9079,
      "경": 9080,
      "계": 9081,
      "고": 9082,
      "곰": 9083,
      "공": 9084,
      "과": 9085,
      "관": 9086,
      "교": 9087,
      "구": 9088,
      "국": 9089,
      "군": 9090,
      "권": 9091,
      "그": 9092,
      "근": 9093,
      "금": 9094,
      "급": 9095,
      "기": 9096,
      "길": 9097,
      "까": 9098,
      "꾀": 9099,
      "나": 9100,
      "난": 9101,
      "날": 9102,
      "내": 9103,
      "너": 9104,
      "널": 9105,
      "넓": 9106,
      "년": 9107,
      "느": 9108,
      "는": 9109,
      "니": 9110,
      "다": 9111,
      "단": 9112,
      "달": 9113,
      "당": 9114,
      "대": 9115,
      "더": 9116,
      "던": 9117,
      "데": 9118,
      "도": 9119,
      "독": 9120,
      "돈": 9121,
      "돌": 9122,
      "동": 9123,
      "됐": 9124,
      "되": 9125,
      "된": 9126,
      "두": 9127,
      "드": 9128,
      "든": 9129,
      "들": 9130,
      "등": 9131,
      "디": 9132,
      "따": 9133,
      "때": 9134,
      "떠": 9135,
      "또": 9136,
      "라": 9137,
      "란": 9138,
      "랑": 9139,
      "래": 9140,
      "랜": 9141,
      "램": 9142,
      "러": 9143,
      "럼": 9144,
      "렇": 9145,
      "레": 9146,
      "렉": 9147,
      "려": 9148,
      "력": 9149,
      "렸": 9150,
      "령": 9151,
      "로": 9152,
      "록": 9153,
      "롤": 9154,
      "료": 9155,
      "룰": 9156,
      "르": 9157,
      "를": 9158,
      "리": 9159,
      "릴": 9160,
      "림": 9161,
      "마": 9162,
      "막": 9163,
      "만": 9164,
      "말": 9165,
      "망": 9166,
      "맞": 9167,
      "매": 9168,
      "먼": 9169,
      "메": 9170,
      "며": 9171,
      "면": 9172,
      "명": 9173,
      "모": 9174,
      "못": 9175,
      "무": 9176,
      "문": 9177,
      "물": 9178,
      "미": 9179,
      "민": 9180,
      "바": 9181,
      "박": 9182,
      "반": 9183,
      "받": 9184,
      "발": 9185,
      "밝": 9186,
      "방": 9187,
      "배": 9188,
      "버": 9189,
      "번": 9190,
      "벌": 9191,
      "벤": 9192,
      "벽": 9193,
      "변": 9194,
      "별": 9195,
      "병": 9196,
      "보": 9197,
      "본": 9198,
      "부": 9199,
      "분": 9200,
      "불": 9201,
      "비": 9202,
      "사": 9203,
      "삭": 9204,
      "삼": 9205,
      "상": 9206,
      "새": 9207,
      "생": 9208,
      "서": 9209,
      "석": 9210,
      "선": 9211,
      "설": 9212,
      "성": 9213,
      "세": 9214,
      "셈": 9215,
      "션": 9216,
      "소": 9217,
      "속": 9218,
      "솔": 9219,
      "송": 9220,
      "수": 9221,
      "숙": 9222,
      "순": 9223,
      "스": 9224,
      "슬": 9225,
      "습": 9226,
      "슷": 9227,
      "승": 9228,
      "시": 9229,
      "식": 9230,
      "신": 9231,
      "실": 9232,
      "심": 9233,
      "씩": 9234,
      "아": 9235,
      "악": 9236,
      "안": 9237,
      "않": 9238,
      "았": 9239,
      "애": 9240,
      "액": 9241,
      "앨": 9242,
      "야": 9243,
      "약": 9244,
      "양": 9245,
      "어": 9246,
      "억": 9247,
      "얻": 9248,
      "업": 9249,
      "없": 9250,
      "었": 9251,
      "엉": 9252,
      "에": 9253,
      "여": 9254,
      "역": 9255,
      "연": 9256,
      "열": 9257,
      "염": 9258,
      "였": 9259,
      "영": 9260,
      "예": 9261,
      "온": 9262,
      "올": 9263,
      "와": 9264,
      "외": 9265,
      "요": 9266,
      "용": 9267,
      "우": 9268,
      "욱": 9269,
      "운": 9270,
      "원": 9271,
      "월": 9272,
      "위": 9273,
      "유": 9274,
      "윤": 9275,
      "으": 9276,
      "은": 9277,
      "을": 9278,
      "음": 9279,
      "의": 9280,
      "이": 9281,
      "익": 9282,
      "인": 9283,
      "일": 9284,
      "임": 9285,
      "입": 9286,
      "잇": 9287,
      "있": 9288,
      "잊": 9289,
      "자": 9290,
      "작": 9291,
      "잔": 9292,
      "장": 9293,
      "재": 9294,
      "저": 9295,
      "적": 9296,
      "전": 9297,
      "절": 9298,
      "접": 9299,
      "정": 9300,
      "제": 9301,
      "젝": 9302,
      "조": 9303,
      "족": 9304,
      "종": 9305,
      "좋": 9306,
      "주": 9307,
      "준": 9308,
      "줄": 9309,
      "중": 9310,
      "즌": 9311,
      "증": 9312,
      "지": 9313,
      "직": 9314,
      "진": 9315,
      "질": 9316,
      "째": 9317,
      "차": 9318,
      "착": 9319,
      "찬": 9320,
      "참": 9321,
      "창": 9322,
      "천": 9323,
      "철": 9324,
      "청": 9325,
      "체": 9326,
      "초": 9327,
      "총": 9328,
      "최": 9329,
      "추": 9330,
      "축": 9331,
      "춘": 9332,
      "출": 9333,
      "춰": 9334,
      "츠": 9335,
      "측": 9336,
      "치": 9337,
      "카": 9338,
      "컨": 9339,
      "콘": 9340,
      "콜": 9341,
      "클": 9342,
      "태": 9343,
      "터": 9344,
      "텐": 9345,
      "통": 9346,
      "트": 9347,
      "틀": 9348,
      "팀": 9349,
      "파": 9350,
      "편": 9351,
      "포": 9352,
      "폭": 9353,
      "표": 9354,
      "풀": 9355,
      "프": 9356,
      "픽": 9357,
      "필": 9358,
      "하": 9359,
      "한": 9360,
      "할": 9361,
      "함": 9362,
      "합": 9363,
      "항": 9364,
      "해": 9365,
      "했": 9366,
      "행": 9367,
      "험": 9368,
      "헝": 9369,
      "현": 9370,
      "혔": 9371,
      "형": 9372,
      "호": 9373,
      "홀": 9374,
      "화": 9375,
      "확": 9376,
      "환": 9377,
      "활": 9378,
      "회": 9379,
      "후": 9380,
      "흥": 9381,
      "히": 9382,
      "힘": 9383,
      "": 9384,
      "": 9385,
      "": 9386,
      "": 9387,
      "": 9388,
      "": 9389,
      "": 9390,
      "": 9391,
      "": 9392,
      "": 9393,
      "": 9394,
      "": 9395,
      "": 9396,
      "": 9397,
      "ﬁ": 9398,
      "ﬂ": 9399,
      "ﷺ": 9400,
      "️": 9401,
      "︰": 9402,
      "︱": 9403,
      "︳": 9404,
      "︶": 9405,
      "︻": 9406,
      "︽": 9407,
      "︿": 9408,
      "﹃": 9409,
      "﹄": 9410,
      "﹏": 9411,
      "﹐": 9412,
      "﹑": 9413,
      "﹒": 9414,
      "﹔": 9415,
      "﹕": 9416,
      "﹖": 9417,
      "﹗": 9418,
      "﹚": 9419,
      "﹝": 9420,
      "﹞": 9421,
      "﹡": 9422,
      "﹢": 9423,
      "﹣": 9424,
      "﹤": 9425,
      "﹥": 9426,
      "﹪": 9427,
      "﻿": 9428,
      "！": 9429,
      "（": 9430,
      "）": 9431,
      "＊": 9432,
      "，": 9433,
      "－": 9434,
      "／": 9435,
      "：": 9436,
      "；": 9437,
      "？": 9438,
      "Ａ": 9439,
      "Ｃ": 9440,
      "Ｅ": 9441,
      "Ｈ": 9442,
      "Ｉ": 9443,
      "Ｓ": 9444,
      "Ｔ": 9445,
      "｀": 9446,
      "ｄ": 9447,
      "ｅ": 9448,
      "ｒ": 9449,
      "ｗ": 9450,
      "｡": 9451,
      "｢": 9452,
      "｣": 9453,
      "､": 9454,
      "･": 9455,
      "ﾉ": 9456,
      "ﾟ": 9457,
      "￣": 9458,
      "￥": 9459,
      "￼": 9460,
      "�": 9461,
      "𝒴": 9462,
      "𝟎": 9463,
      "𝟏": 9464,
      "𝟮": 9465,
      "𝟯": 9466,
      "𝟰": 9467,
      "𝟱": 9468,
      "𝟲": 9469,
      "𝟳": 9470,
      "𝟴": 9471,
      "𝟵": 9472,
      "🆚": 9473,
      "🇪": 9474,
      "🇮": 9475,
      "🇸": 9476,
      "🇹": 9477,
      "🇺": 9478,
      "🌧": 9479,
      "🌹": 9480,
      "🍁": 9481,
      "🍴": 9482,
      "🎉": 9483,
      "🏀": 9484,
      "🏆": 9485,
      "🏈": 9486,
      "🏏": 9487,
      "🏻": 9488,
      "🏼": 9489,
      "🐒": 9490,
      "🐘": 9491,
      "🐧": 9492,
      "👊": 9493,
      "👏": 9494,
      "👟": 9495,
      "👫": 9496,
      "👽": 9497,
      "💀": 9498,
      "💁": 9499,
      "💖": 9500,
      "💚": 9501,
      "💜": 9502,
      "💪": 9503,
      "🔊": 9504,
      "🔥": 9505,
      "🔹": 9506,
      "😀": 9507,
      "😂": 9508,
      "😅": 9509,
      "😈": 9510,
      "😉": 9511,
      "😍": 9512,
      "😎": 9513,
      "😛": 9514,
      "😦": 9515,
      "😱": 9516,
      "🙁": 9517,
      "🙂": 9518,
      "🙄": 9519,
      "🙋": 9520,
      "🚃": 9521,
      "🥶": 9522,
      "🦁": 9523,
      "🧚": 9524,
      "𡒄": 9525,
      "𢽾": 9526,
      "𣍰": 9527,
      "𣸣": 9528,
      "𥆧": 9529,
      "𦈡": 9530,
      "𧹖": 9531,
      "𨱍": 9532,
      "𩠌": 9533,
      "𩾃": 9534,
      "𫌨": 9535,
      "𫍙": 9536,
      "𫍲": 9537,
      "𫏋": 9538,
      "𫐄": 9539,
      "𫐐": 9540,
      "𫘝": 9541,
      "𫚉": 9542,
      "e ": 9543,
      " t": 9544,
      "s ": 9545,
      "in": 9546,
      " th": 9547,
      "er": 9548,
      "t ": 9549,
      "an": 9550,
      "d ": 9551,
      "on": 9552,
      "en": 9553,
      "or": 9554,
      " the ": 9555,
      ", ": 9556,
      "y ": 9557,
      "ar": 9558,
      "at": 9559,
      "al": 9560,
      "o ": 9561,
      "ou": 9562,
      "re": 9563,
      "ing": 9564,
      "it": 9565,
      ". ": 9566,
      "of": 9567,
      "st": 9568,
      "a ": 9569,
      "ic": 9570,
      "。 ": 9571,
      "ed ": 9572,
      "and ": 9573,
      "ing ": 9574,
      "th": 9575,
      "om": 9576,
      "ion": 9577,
      "es": 9578,
      "er ": 9579,
      " to ": 9580,
      "il": 9581,
      "of ": 9582,
      "el": 9583,
      "is ": 9584,
      "ac": 9585,
      "ha": 9586,
      "ed": 9587,
      "is": 9588,
      "h ": 9589,
      "in ": 9590,
      "as": 9591,
      "for": 9592,
      ".\n": 9593,
      "20": 9594,
      "ec": 9595,
      "es ": 9596,
      "ro": 9597,
      "at ": 9598,
      "an ": 9599,
      "ol": 9600,
      "ow": 9601,
      "am": 9602,
      "he ": 9603,
      "ent": 9604,
      "al ": 9605,
      "im": 9606,
      "as ": 9607,
      "id": 9608,
      "em": 9609,
      "ig": 9610,
      "pl": 9611,
      "ve ": 9612,
      "us": 9613,
      "wh": 9614,
      "ur": 9615,
      "all": 9616,
      "et": 9617,
      "en ": 9618,
      "ad": 9619,
      "un": 9620,
      "ir": 9621,
      "ion ": 9622,
      "的,": 9623,
      "可以": 9624,
      "on ": 9625,
      "ver": 9626,
      "ab": 9627,
      "一个": 9628,
      "ch": 9629,
      "公司": 9630,
      "os": 9631,
      "ag": 9632,
      "wit": 9633,
      " that ": 9634,
      "le": 9635,
      "l ": 9636,
      "00": 9637,
      "e th": 9638,
      "k ": 9639,
      "201": 9640,
      "ay": 9641,
      "and": 9642,
      "su": 9643,
      "con": 9644,
      "我们": 9645,
      "ent ": 9646,
      "for ": 9647,
      "ex": 9648,
      "it ": 9649,
      "自己": 9650,
      "The ": 9651,
      ",这": 9652,
      "com": 9653,
      "没有": 9654,
      ",但": 9655,
      ",不": 9656,
      "you": 9657,
      "ot": 9658,
      "ri": 9659,
      "ly ": 9660,
      "of the ": 9661,
      ": ": 9662,
      "pro": 9663,
      "or ": 9664,
      "op": 9665,
      "n ": 9666,
      "合同": 9667,
      "li": 9668,
      "be": 9669,
      "ap": 9670,
      "e t": 9671,
      "se": 9672,
      "ut": 9673,
      "就是": 9674,
      "was ": 9675,
      "int": 9676,
      "res": 9677,
      "fr": 9678,
      "ul": 9679,
      "’s ": 9680,
      "ne": 9681,
      "sh": 9682,
      ",在": 9683,
      "s, ": 9684,
      "di": 9685,
      "are ": 9686,
      " the": 9687,
      "ak": 9688,
      "I ": 9689,
      ",而": 9690,
      "oun": 9691,
      "oo": 9692,
      "中国": 9693,
      "with ": 9694,
      "de": 9695,
      "ere ": 9696,
      "be ": 9697,
      "in the ": 9698,
      "ear": 9699,
      "igh": 9700,
      "ot ": 9701,
      "e, ": 9702,
      "oc": 9703,
      "ation": 9704,
      "法院": 9705,
      "人民": 9706,
      "our": 9707,
      "问题": 9708,
      "oul": 9709,
      " to": 9710,
      "Th": 9711,
      "um": 9712,
      "规定": 9713,
      "了,": 9714,
      "如果": 9715,
      "p ": 9716,
      "10": 9717,
      "have ": 9718,
      "bl": 9719,
      "sa": 9720,
      "后,": 9721,
      "ect": 9722,
      "from": 9723,
      "ers ": 9724,
      ") ": 9725,
      "sp": 9726,
      "uc": 9727,
      "19": 9728,
      "est": 9729,
      "per": 9730,
      "qu": 9731,
      "if": 9732,
      ",也": 9733,
      "ould ": 9734,
      "进行": 9735,
      "。\"": 9736,
      "ay ": 9737,
      "'s ": 9738,
      "cl": 9739,
      "ut ": 9740,
      "ill ": 9741,
      "ev": 9742,
      "enc": 9743,
      "wor": 9744,
      "因为": 9745,
      "oth": 9746,
      "人的": 9747,
      "art": 9748,
      "w ": 9749,
      "工作": 9750,
      "act": 9751,
      ",一": 9752,
      "什么": 9753,
      "ation ": 9754,
      "ic ": 9755,
      "out ": 9756,
      "ist": 9757,
      "时候": 9758,
      "中,": 9759,
      "时,": 9760,
      "iv": 9761,
      "s. ": 9762,
      "ra": 9763,
      "或者": 9764,
      "这个": 9765,
      "by ": 9766,
      "not ": 9767,
      "时间": 9768,
      "le ": 9769,
      "ant": 9770,
      "的人": 9771,
      "已经": 9772,
      "one ": 9773,
      "ate ": 9774,
      "劳动": 9775,
      "ow ": 9776,
      "you ": 9777,
      "。\n": 9778,
      ",并": 9779,
      "por": 9780,
      "e the ": 9781,
      "责任": 9782,
      "e. ": 9783,
      "we": 9784,
      "his ": 9785,
      "所以": 9786,
      " this ": 9787,
      "ir ": 9788,
      "end": 9789,
      "has ": 9790,
      "很多": 9791,
      "ive ": 9792,
      "还是": 9793,
      "不是": 9794,
      "e to ": 9795,
      "ff": 9796,
      "ed to ": 9797,
      "可能": 9798,
      ", the ": 9799,
      "mor": 9800,
      "市场": 9801,
      "pr": 9802,
      ",是": 9803,
      "anc": 9804,
      "行为": 9805,
      "情况": 9806,
      "\" ": 9807,
      "so ": 9808,
      "企业": 9809,
      "rec": 9810,
      "from ": 9811,
      "他们": 9812,
      "ill": 9813,
      "ep": 9814,
      "200": 9815,
      "oug": 9816,
      "法律": 9817,
      "” ": 9818,
      "对于": 9819,
      "ally ": 9820,
      "非常": 9821,
      "ity ": 9822,
      "发展": 9823,
      "ain": 9824,
      "需要": 9825,
      "gr": 9826,
      "人民法院": 9827,
      "。这": 9828,
      "e of ": 9829,
      ",有": 9830,
      "..": 9831,
      "y, ": 9832,
      "over": 9833,
      "。在": 9834,
      "生活": 9835,
      "ov": 9836,
      "ong": 9837,
      "第一": 9838,
      "will ": 9839,
      "的是": 9840,
      "方面": 9841,
      ",其": 9842,
      "out": 9843,
      "ess": 9844,
      "ter": 9845,
      "ar ": 9846,
      "ud": 9847,
      "all ": 9848,
      "不能": 9849,
      "关系": 9850,
      "都是": 9851,
      "od": 9852,
      "pe": 9853,
      "12": 9854,
      "at the ": 9855,
      "孩子": 9856,
      "som": 9857,
      "str": 9858,
      "的一": 9859,
      "with": 9860,
      "了。": 9861,
      "应当": 9862,
      "也是": 9863,
      "30": 9864,
      "通过": 9865,
      "作为": 9866,
      "认为": 9867,
      "现在": 9868,
      "15": 9869,
      "et ": 9870,
      "St": 9871,
      "off": 9872,
      "s of ": 9873,
      "大家": 9874,
      ", and ": 9875,
      "设计": 9876,
      "\",": 9877,
      "we ": 9878,
      ",我": 9879,
      "的。": 9880,
      "的时候": 9881,
      "使用": 9882,
      "m ": 9883,
      ",以": 9884,
      "s and ": 9885,
      "ang": 9886,
      "but ": 9887,
      "保险": 9888,
      "1.": 9889,
      "ob": 9890,
      "自己的": 9891,
      "cont": 9892,
      ",就": 9893,
      "year": 9894,
      ". I": 9895,
      "who ": 9896,
      "id ": 9897,
      "whic": 9898,
      " they ": 9899,
      "lik": 9900,
      "发生": 9901,
      "上,": 9902,
      "ack": 9903,
      "国家": 9904,
      "man": 9905,
      " their ": 9906,
      "ter ": 9907,
      "技术": 9908,
      "单位": 9909,
      "知道": 9910,
      "其他": 9911,
      "认定": 9912,
      "s to ": 9913,
      "诉讼": 9914,
      "th ": 9915,
      "can ": 9916,
      "汽车": 9917,
      "经济": 9918,
      "pos": 9919,
      "iz": 9920,
      "port": 9921,
      "ies ": 9922,
      "根据": 9923,
      "当事": 9924,
      "he": 9925,
      "up": 9926,
      "ell": 9927,
      "hat ": 9928,
      ",但是": 9929,
      "og": 9930,
      ":\"": 9931,
      "关于": 9932,
      "管理": 9933,
      "部分": 9934,
      "提供": 9935,
      "大的": 9936,
      "sc": 9937,
      "要求": 9938,
      " tr": 9939,
      "inc": 9940,
      "av": 9941,
      "服务": 9942,
      "on the ": 9943,
      "\"的": 9944,
      " m": 9945,
      "下,": 9946,
      " (": 9947,
      "说,": 9948,
      "which ": 9949,
      "产品": 9950,
      "est ": 9951,
      "would ": 9952,
      "开始": 9953,
      "来,": 9954,
      "到了": 9955,
      "一些": 9956,
      "案件": 9957,
      "were ": 9958,
      "ch ": 9959,
      "社会": 9960,
      "证据": 9961,
      "ust ": 9962,
      "11": 9963,
      "ard": 9964,
      "的\"": 9965,
      "第二": 9966,
      "ing to ": 9967,
      "被告": 9968,
      "那么": 9969,
      "und": 9970,
      "好的": 9971,
      "这样": 9972,
      "vi": 9973,
      "车型": 9974,
      "比较": 9975,
      "存在": 9976,
      "人,": 9977,
      "一定": 9978,
      "ight ": 9979,
      "fe": 9980,
      "ight": 9981,
      ". The ": 9982,
      " and ": 9983,
      "影响": 9984,
      "成为": 9985,
      "选择": 9986,
      "An": 9987,
      "ass": 9988,
      "had ": 9989,
      "主要": 9990,
      "ost ": 9991,
      "been ": 9992,
      "other ": 9993,
      "pres": 9994,
      "our ": 9995,
      "ind": 9996,
      "重要": 9997,
      "不同": 9998,
      "es, ": 9999,
      "安全": 10000,
      "dis": 10001,
      "中的": 10002,
      "f ": 10003,
      "par": 10004,
      "ial ": 10005,
      "当事人": 10006,
      "内容": 10007,
      "ple ": 10008,
      "her ": 10009,
      "po": 10010,
      "do": 10011,
      ",还": 10012,
      "its ": 10013,
      "最高": 10014,
      "出现": 10015,
      "ast ": 10016,
      "ment": 10017,
      "因此": 10018,
      "世界": 10019,
      "el ": 10020,
      "系统": 10021,
      "所有": 10022,
      "18": 10023,
      "r ": 10024,
      "50": 10025,
      "Ch": 10026,
      "pol": 10027,
      "第三": 10028,
      "more ": 10029,
      "st ": 10030,
      "能够": 10031,
      "虽然": 10032,
      "bec": 10033,
      "上的": 10034,
      "In": 10035,
      "ed the ": 10036,
      "fir": 10037,
      "。但": 10038,
      "s.\n": 10039,
      "承担": 10040,
      "att": 10041,
      "’t ": 10042,
      "ough": 10043,
      "ord": 10044,
      "赔偿": 10045,
      "ast": 10046,
      "是否": 10047,
      "ey ": 10048,
      "ail": 10049,
      "--": 10050,
      "约定": 10051,
      "2.": 10052,
      "said": 10053,
      "pre": 10054,
      "i ": 10055,
      "事实": 10056,
      "具有": 10057,
      "mak": 10058,
      "ser": 10059,
      "ment ": 10060,
      "一种": 10061,
      "ever": 10062,
      "ice ": 10063,
      "特别": 10064,
      "ame ": 10065,
      "form": 10066,
      ". Th": 10067,
      "A ": 10068,
      "方式": 10069,
      "arg": 10070,
      "ip": 10071,
      ",你": 10072,
      "her": 10073,
      "af": 10074,
      "me": 10075,
      "发现": 10076,
      "。而": 10077,
      "ad ": 10078,
      "ug": 10079,
      "peo": 10080,
      "ens": 10081,
      "aw": 10082,
      "人员": 10083,
      "双方": 10084,
      "品牌": 10085,
      "同时": 10086,
      "表示": 10087,
      "aus": 10088,
      "ated ": 10089,
      "also ": 10090,
      ",只": 10091,
      "about ": 10092,
      "投资": 10093,
      ",对": 10094,
      ",他": 10095,
      "目前": 10096,
      "kn": 10097,
      "日,": 10098,
      "000": 10099,
      "e.\n": 10100,
      ",所以": 10101,
      "inter": 10102,
      "以及": 10103,
      "相关": 10104,
      "为了": 10105,
      "fin": 10106,
      "消费": 10107,
      "不会": 10108,
      "go": 10109,
      "ely ": 10110,
      "建设": 10111,
      "呢？": 10112,
      ",从": 10113,
      "个人": 10114,
      "acc": 10115,
      "br": 10116,
      "之间": 10117,
      "万元": 10118,
      "支付": 10119,
      "了一": 10120,
      " that": 10121,
      "代表": 10122,
      "fl": 10123,
      "ical ": 10124,
      "活动": 10125,
      "证明": 10126,
      "age ": 10127,
      "工程": 10128,
      "实际": 10129,
      "si": 10130,
      "能力": 10131,
      "ure ": 10132,
      "a l": 10133,
      "up ": 10134,
      "执行": 10135,
      "Wh": 10136,
      "co": 10137,
      "ary ": 10138,
      "16": 10139,
      "标准": 10140,
      "这些": 10141,
      "属于": 10142,
      "own ": 10143,
      "oll": 10144,
      "财产": 10145,
      "朋友": 10146,
      "duc": 10147,
      "comm": 10148,
      "ous": 10149,
      "房屋": 10150,
      "喜欢": 10151,
      "\"。": 10152,
      "sel": 10153,
      "应该": 10154,
      "ign": 10155,
      "ack ": 10156,
      "part": 10157,
      ",最": 10158,
      "ure": 10159,
      ",让": 10160,
      "美国": 10161,
      "由于": 10162,
      " tim": 10163,
      "处理": 10164,
      ",我们": 10165,
      "em ": 10166,
      "sid": 10167,
      "自然": 10168,
      "ount": 10169,
      "过程": 10170,
      ",如果": 10171,
      "13": 10172,
      "治疗": 10173,
      "y the ": 10174,
      "comp": 10175,
      "如何": 10176,
      "14": 10177,
      "直接": 10178,
      "lin": 10179,
      "my ": 10180,
      "申请": 10181,
      "ess ": 10182,
      "ound": 10183,
      "起来": 10184,
      "ust": 10185,
      "方法": 10186,
      "work": 10187,
      "造成": 10188,
      "价格": 10189,
      "履行": 10190,
      "ph": 10191,
      "一样": 10192,
      "ew": 10193,
      "rit": 10194,
      "年,": 10195,
      "your ": 10196,
      "研究": 10197,
      "eth": 10198,
      "min": 10199,
      "导致": 10200,
      "功能": 10201,
      "ubl": 10202,
      "any ": 10203,
      "采用": 10204,
      "e and ": 10205,
      "犯罪": 10206,
      "ous ": 10207,
      "mon": 10208,
      "a s": 10209,
      "债务": 10210,
      "法》": 10211,
      "play": 10212,
      "医院": 10213,
      "怎么": 10214,
      "him": 10215,
      "一般": 10216,
      "适用": 10217,
      "支持": 10218,
      "17": 10219,
      "原因": 10220,
      "ant ": 10221,
      "交通": 10222,
      "just ": 10223,
      "判决": 10224,
      "ity": 10225,
      "北京": 10226,
      "ook": 10227,
      "mer": 10228,
      "ese ": 10229,
      ",而且": 10230,
      "注意": 10231,
      "day": 10232,
      "来的": 10233,
      "还有": 10234,
      ",可以": 10235,
      "some ": 10236,
      "ose ": 10237,
      "城市": 10238,
      "项目": 10239,
      "共同": 10240,
      "解释": 10241,
      "文化": 10242,
      "what ": 10243,
      "作者": 10244,
      "有限": 10245,
      "say": 10246,
      ". H": 10247,
      "这种": 10248,
      "said ": 10249,
      ",可": 10250,
      "基本": 10251,
      "25": 10252,
      "s the ": 10253,
      "am ": 10254,
      "作用": 10255,
      "大学": 10256,
      "new ": 10257,
      "most ": 10258,
      "own": 10259,
      "包括": 10260,
      "able ": 10261,
      "健康": 10262,
      "不要": 10263,
      ",为": 10264,
      "信息": 10265,
      "when ": 10266,
      "emb": 10267,
      "no ": 10268,
      "外,": 10269,
      "协议": 10270,
      "dec": 10271,
      "看到": 10272,
      "way": 10273,
      "民事": 10274,
      "请求": 10275,
      "not": 10276,
      "1 ": 10277,
      "ly": 10278,
      "ions ": 10279,
      ",” ": 10280,
      "容易": 10281,
      ",因为": 10282,
      "以上": 10283,
      "动机": 10284,
      "觉得": 10285,
      "行业": 10286,
      "vid": 10287,
      "； ": 10288,
      "必须": 10289,
      "实现": 10290,
      "ence ": 10291,
      "rem": 10292,
      "甚至": 10293,
      "Un": 10294,
      "eg": 10295,
      "- ": 10296,
      "ed by ": 10297,
      "！ ": 10298,
      "old ": 10299,
      "ef": 10300,
      "你的": 10301,
      "ach": 10302,
      "义务": 10303,
      "表现": 10304,
      "地方": 10305,
      "like ": 10306,
      "ans": 10307,
      "a c": 10308,
      "年的": 10309,
      "这一": 10310,
      "bet": 10311,
      "vers": 10312,
      "其实": 10313,
      "期间": 10314,
      "er, ": 10315,
      "身体": 10316,
      "一直": 10317,
      "us ": 10318,
      "债权": 10319,
      "ard ": 10320,
      "原告": 10321,
      "？ ": 10322,
      "组织": 10323,
      ",\"": 10324,
      "people ": 10325,
      "3.": 10326,
      "后的": 10327,
      "”\n": 10328,
      "ict": 10329,
      "事故": 10330,
      "ain ": 10331,
      "行政": 10332,
      "ite ": 10333,
      "2 ": 10334,
      "but": 10335,
      "ed in ": 10336,
      "权利": 10337,
      ",那": 10338,
      "des": 10339,
      "ound ": 10340,
      "股东": 10341,
      "re ": 10342,
      "if ": 10343,
      "Al": 10344,
      "don": 10345,
      "数据": 10346,
      "动力": 10347,
      "itt": 10348,
      "无法": 10349,
      "一起": 10350,
      "rat": 10351,
      "效果": 10352,
      "按照": 10353,
      "60": 10354,
      "了解": 10355,
      " tak": 10356,
      ",当": 10357,
      "驾驶": 10358,
      "一次": 10359,
      "作品": 10360,
      "e that ": 10361,
      "运动": 10362,
      "感觉": 10363,
      "提出": 10364,
      "产生": 10365,
      ",即": 10366,
      "ile ": 10367,
      "wo ": 10368,
      "增加": 10369,
      "观点": 10370,
      "登记": 10371,
      "ook ": 10372,
      "sec": 10373,
      "保护": 10374,
      "发动机": 10375,
      "t of ": 10376,
      ",每": 10377,
      "'t ": 10378,
      "40": 10379,
      "银行": 10380,
      "中心": 10381,
      "ick": 10382,
      "reat": 10383,
      "手机": 10384,
      "两个": 10385,
      "ann": 10386,
      "ult": 10387,
      ". S": 10388,
      "ire": 10389,
      "e-": 10390,
      "do ": 10391,
      "不过": 10392,
      "she ": 10393,
      "条件": 10394,
      "could ": 10395,
      "是一": 10396,
      ". B": 10397,
      "a m": 10398,
      "ood ": 10399,
      "律师": 10400,
      "100": 10401,
      "ough ": 10402,
      "ies": 10403,
      "环境": 10404,
      "ish": 10405,
      "x ": 10406,
      "科技": 10407,
      "only ": 10408,
      "bo": 10409,
      "今天": 10410,
      "ong ": 10411,
      "获得": 10412,
      "dr": 10413,
      "经营": 10414,
      ",如": 10415,
      "hel": 10416,
      "。如果": 10417,
      "sy": 10418,
      "stat": 10419,
      "inv": 10420,
      "reg": 10421,
      "机构": 10422,
      " there ": 10423,
      "进入": 10424,
      "平台": 10425,
      "2017": 10426,
      "政府": 10427,
      "车辆": 10428,
      "规定,": 10429,
      "was": 10430,
      "的话": 10431,
      "s in ": 10432,
      "becaus": 10433,
      "1、": 10434,
      "生产": 10435,
      "ret": 10436,
      "然后": 10437,
      "的情况": 10438,
      "教育": 10439,
      "空间": 10440,
      "更多": 10441,
      "超过": 10442,
      "row": 10443,
      "借款": 10444,
      "24": 10445,
      "mar": 10446,
      "...": 10447,
      "abl": 10448,
      "add": 10449,
      "确定": 10450,
      "sup": 10451,
      "纠纷": 10452,
      "ey": 10453,
      "更加": 10454,
      "lat": 10455,
      "s that ": 10456,
      "国内": 10457,
      " the c": 10458,
      "au": 10459,
      "2、": 10460,
      "达到": 10461,
      "vel": 10462,
      "app": 10463,
      ",大": 10464,
      "司法": 10465,
      "希望": 10466,
      "a b": 10467,
      "? ": 10468,
      "继续": 10469,
      "部门": 10470,
      "解决": 10471,
      "gl": 10472,
      "ell ": 10473,
      "决定": 10474,
      "有效": 10475,
      "clud": 10476,
      "用人": 10477,
      "Tr": 10478,
      "劳动合同": 10479,
      "ew ": 10480,
      "ed, ": 10481,
      "的大": 10482,
      "利益": 10483,
      "本案": 10484,
      "精神": 10485,
      "损失": 10486,
      "劳动者": 10487,
      ".”\n": 10488,
      "任何": 10489,
      "是在": 10490,
      "2018": 10491,
      "hap": 10492,
      "合作": 10493,
      "ement": 10494,
      "; ": 10495,
      "ener": 10496,
      "国际": 10497,
      "学习": 10498,
      "新的": 10499,
      "智能": 10500,
      "意见": 10501,
      "之一": 10502,
      "read": 10503,
      "il ": 10504,
      "之前": 10505,
      "5 ": 10506,
      "交易": 10507,
      "] ": 10508,
      "3 ": 10509,
      "形成": 10510,
      "完全": 10511,
      "We ": 10512,
      "ett": 10513,
      "记者": 10514,
      "夫妻": 10515,
      "具体": 10516,
      "明确": 10517,
      "get ": 10518,
      "分钟": 10519,
      "tion ": 10520,
      "sur": 10521,
      "工资": 10522,
      ",将": 10523,
      "用人单位": 10524,
      "结果": 10525,
      "有限公司": 10526,
      "事情": 10527,
      "o the ": 10528,
      "只有": 10529,
      "first ": 10530,
      "上海": 10531,
      "最高人民法院": 10532,
      "into ": 10533,
      "吗？": 10534,
      "用户": 10535,
      "reas": 10536,
      "成功": 10537,
      "产业": 10538,
      "serv": 10539,
      "基础": 10540,
      "bu": 10541,
      "a, ": 10542,
      "范围": 10543,
      "overn": 10544,
      "ory ": 10545,
      "保证": 10546,
      "机关": 10547,
      "这里": 10548,
      "car": 10549,
      "网络": 10550,
      "金融": 10551,
      "– ": 10552,
      ",\" ": 10553,
      "ond": 10554,
      "旅游": 10555,
      "解除": 10556,
      "消费者": 10557,
      "old": 10558,
      "S ": 10559,
      "就会": 10560,
      ",要": 10561,
      "cr": 10562,
      "他的": 10563,
      "有关": 10564,
      "80": 10565,
      "各种": 10566,
      "ition": 10567,
      "比如": 10568,
      "月2": 10569,
      "严重": 10570,
      "ans ": 10571,
      "签订": 10572,
      "损害": 10573,
      "才能": 10574,
      "very ": 10575,
      "ree ": 10576,
      "diff": 10577,
      "want": 10578,
      "ext": 10579,
      "审理": 10580,
      "除了": 10581,
      "ber": 10582,
      ". A": 10583,
      "提升": 10584,
      "199": 10585,
      "左右": 10586,
      "2016": 10587,
      "主张": 10588,
      "情形": 10589,
      "ing, ": 10590,
      "ade ": 10591,
      ",它": 10592,
      "今年": 10593,
      "也不": 10594,
      "includ": 10595,
      "ia ": 10596,
      "by the ": 10597,
      "依据": 10598,
      "明显": 10599,
      "leg": 10600,
      "出了": 10601,
      "ace ": 10602,
      "bas": 10603,
      "质量": 10604,
      "。当": 10605,
      "简单": 10606,
      "符合": 10607,
      "好,": 10608,
      "历史": 10609,
      "鉴定": 10610,
      "并不": 10611,
      "eas": 10612,
      "工伤": 10613,
      "ok": 10614,
      "人们": 10615,
      "eng": 10616,
      "meric": 10617,
      "sl": 10618,
      "bel": 10619,
      "again": 10620,
      ".\"": 10621,
      "publ": 10622,
      "after ": 10623,
      "ist ": 10624,
      "end ": 10625,
      "专业": 10626,
      "Americ": 10627,
      "ing a ": 10628,
      "完成": 10629,
      "ers": 10630,
      "),": 10631,
      "控制": 10632,
      "程序": 10633,
      "n’t ": 10634,
      "转让": 10635,
      "得到": 10636,
      "3、": 10637,
      "一步": 10638,
      "chang": 10639,
      "拥有": 10640,
      "一方": 10641,
      "关注": 10642,
      "东西": 10643,
      "一点": 10644,
      "In ": 10645,
      "so": 10646,
      "价值": 10647,
      "是一个": 10648,
      " thin": 10649,
      "ek": 10650,
      "ect ": 10651,
      "ach ": 10652,
      "一下": 10653,
      "增长": 10654,
      "开发": 10655,
      "销售": 10656,
      "担保": 10657,
      "even ": 10658,
      "都有": 10659,
      "iss": 10660,
      "many ": 10661,
      "取得": 10662,
      "mat": 10663,
      "保持": 10664,
      "车的": 10665,
      "原则": 10666,
      "购买": 10667,
      "之后": 10668,
      " the t": 10669,
      "提高": 10670,
      "之后,": 10671,
      "来看": 10672,
      "依法": 10673,
      "计算": 10674,
      "any": 10675,
      ",更": 10676,
      "随着": 10677,
      "介绍": 10678,
      "的问题": 10679,
      "You": 10680,
      "under": 10681,
      "med": 10682,
      "ial": 10683,
      "全国": 10684,
      "发布": 10685,
      "ident": 10686,
      "— ": 10687,
      "ance ": 10688,
      "患者": 10689,
      "s are ": 10690,
      "4 ": 10691,
      ", but ": 10692,
      "土地": 10693,
      "力,": 10694,
      "riv": 10695,
      "over ": 10696,
      "材料": 10697,
      "联系": 10698,
      "ere": 10699,
      "家庭": 10700,
      ",无": 10701,
      "显示": 10702,
      "。此": 10703,
      "govern": 10704,
      "Mar": 10705,
      "ome ": 10706,
      "cho": 10707,
      "lo": 10708,
      "a f": 10709,
      "ock": 10710,
      "4.": 10711,
      "urn": 10712,
      "不断": 10713,
      ",再": 10714,
      "produc": 10715,
      "办理": 10716,
      "gu": 10717,
      "都会": 10718,
      "专家": 10719,
      "十分": 10720,
      "帮助": 10721,
      "pt": 10722,
      " them": 10723,
      "的小": 10724,
      "地址": 10725,
      "ian ": 10726,
      "传统": 10727,
      "资金": 10728,
      "建筑": 10729,
      "有的": 10730,
      "实施": 10731,
      "about": 10732,
      "offic": 10733,
      "befor": 10734,
      ",用": 10735,
      "作出": 10736,
      "ort": 10737,
      "la": 10738,
      "变化": 10739,
      "这么": 10740,
      "Fr": 10741,
      "不可": 10742,
      "受到": 10743,
      "中华": 10744,
      "以下": 10745,
      "经过": 10746,
      "pa": 10747,
      "mm": 10748,
      "ue ": 10749,
      "配置": 10750,
      "dat": 10751,
      "son": 10752,
      "es and ": 10753,
      "成立": 10754,
      ",这样": 10755,
      "来越": 10756,
      "对方": 10757,
      "uch ": 10758,
      "争议": 10759,
      "eb": 10760,
      "真正": 10761,
      "to ": 10762,
      "a t": 10763,
      "compl": 10764,
      "个月": 10765,
      " thr": 10766,
      "学生": 10767,
      "构成": 10768,
      "集团": 10769,
      "resp": 10770,
      "vis": 10771,
      "越来越": 10772,
      "人生": 10773,
      ":\n": 10774,
      "不仅": 10775,
      "worl": 10776,
      "子,": 10777,
      "未来": 10778,
      "费用": 10779,
      "how ": 10780,
      "违约": 10781,
      "0.": 10782,
      "ement ": 10783,
      "y to ": 10784,
      "being ": 10785,
      "创新": 10786,
      "利用": 10787,
      "ry ": 10788,
      "olog": 10789,
      "业务": 10790,
      "suv": 10791,
      "the ": 10792,
      "call": 10793,
      "地区": 10794,
      "不得": 10795,
      "只是": 10796,
      ",使": 10797,
      " than ": 10798,
      "ations ": 10799,
      "出来": 10800,
      "考虑": 10801,
      "ine ": 10802,
      "接受": 10803,
      "年轻": 10804,
      "政策": 10805,
      "ood": 10806,
      ",那么": 10807,
      ",加": 10808,
      "正常": 10809,
      "全部": 10810,
      "cas": 10811,
      "分析": 10812,
      "sub": 10813,
      "。 (": 10814,
      "全球": 10815,
      "许多": 10816,
      "上诉": 10817,
      ")\n": 10818,
      "exp": 10819,
      "时代": 10820,
      "ma": 10821,
      "性的": 10822,
      "ank": 10823,
      "This ": 10824,
      "。如": 10825,
      "无效": 10826,
      "父母": 10827,
      "day ": 10828,
      "cer": 10829,
      "。我": 10830,
      "70": 10831,
      "人在": 10832,
      ",就是": 10833,
      "back": 10834,
      " these ": 10835,
      "疾病": 10836,
      "认为,": 10837,
      "医疗": 10838,
      " the s": 10839,
      "综合": 10840,
      "不到": 10841,
      "分别": 10842,
      "领域": 10843,
      "2015": 10844,
      ",与": 10845,
      "where ": 10846,
      "It ": 10847,
      "经常": 10848,
      "整个": 10849,
      "整体": 10850,
      "自动": 10851,
      "首先": 10852,
      "文章": 10853,
      "make ": 10854,
      "大,": 10855,
      "last ": 10856,
      "带来": 10857,
      "不少": 10858,
      "抵押": 10859,
      " two ": 10860,
      "ish ": 10861,
      "rel": 10862,
      "op ": 10863,
      "元,": 10864,
      "方面,": 10865,
      "ub": 10866,
      "也有": 10867,
      "On": 10868,
      "来说": 10869,
      "ents ": 10870,
      ".\"\n": 10871,
      "count": 10872,
      "的时候,": 10873,
      "2014": 10874,
      "日本": 10875,
      "Con": 10876,
      "such ": 10877,
      "org": 10878,
      "ech": 10879,
      "should ": 10880,
      "买卖": 10881,
      "这样的": 10882,
      "ik": 10883,
      "水平": 10884,
      "真的": 10885,
      "销量": 10886,
      "new": 10887,
      "can": 10888,
      "。但是": 10889,
      "说明": 10890,
      "结合": 10891,
      "风险": 10892,
      "准备": 10893,
      "in a ": 10894,
      "上市": 10895,
      "不错": 10896,
      "man ": 10897,
      "ual ": 10898,
      "8 ": 10899,
      "is a ": 10900,
      "ings ": 10901,
      "上述": 10902,
      "om ": 10903,
      "有些": 10904,
      "需求": 10905,
      "公司的": 10906,
      "改变": 10907,
      "cent": 10908,
      "6 ": 10909,
      "里,": 10910,
      "wat": 10911,
      "fer": 10912,
      "合法": 10913,
      "。所以": 10914,
      " te": 10915,
      "模式": 10916,
      "最后": 10917,
      "cc": 10918,
      "方向": 10919,
      ",同时": 10920,
      "我的": 10921,
      "Com": 10922,
      "资源": 10923,
      "状态": 10924,
      "oy": 10925,
      "run": 10926,
      "nation": 10927,
      "生命": 10928,
      "关键": 10929,
      "参加": 10930,
      "ited ": 10931,
      "cur": 10932,
      "pow": 10933,
      "程度": 10934,
      ",因此": 10935,
      " the f": 10936,
      "来说,": 10937,
      "differ": 10938,
      "num": 10939,
      "es of ": 10940,
      "ble ": 10941,
      "让人": 10942,
      "now ": 10943,
      "优势": 10944,
      "ce ": 10945,
      "stor": 10946,
      "合理": 10947,
      "商品": 10948,
      "地址:": 10949,
      "别人": 10950,
      "gam": 10951,
      "来源": 10952,
      "引起": 10953,
      "面的": 10954,
      "spec": 10955,
      ",该": 10956,
      ", th": 10957,
      "相信": 10958,
      "5.": 10959,
      "ath": 10960,
      "尤其": 10961,
      "betwe": 10962,
      "ros": 10963,
      "侵权": 10964,
      "ste": 10965,
      "9 ": 10966,
      "里的": 10967,
      "as a ": 10968,
      ",这个": 10969,
      "同样": 10970,
      ". I ": 10971,
      "起诉": 10972,
      ",又": 10973,
      "C ": 10974,
      "ject": 10975,
      "ry": 10976,
      "现场": 10977,
      "work ": 10978,
      "非法": 10979,
      "much ": 10980,
      "2013": 10981,
      "小编": 10982,
      "cre": 10983,
      "6.": 10984,
      "比赛": 10985,
      ". “": 10986,
      "tion": 10987,
      ",然后": 10988,
      "% ": 10989,
      "ost": 10990,
      "ul ": 10991,
      "坚持": 10992,
      "may ": 10993,
      "有一": 10994,
      "ari": 10995,
      "report": 10996,
      ",她": 10997,
      "保障": 10998,
      ",000": 10999,
      "予以": 11000,
      "原文": 11001,
      "外观": 11002,
      "inn": 11003,
      "如此": 11004,
      "为\"": 11005,
      "小时": 11006,
      "联网": 11007,
      "90": 11008,
      "requ": 11009,
      "学校": 11010,
      "出的": 11011,
      "sol": 11012,
      "ime ": 11013,
      "下的": 11014,
      "sm": 11015,
      "确认": 11016,
      "cam": 11017,
      "gre": 11018,
      "high": 11019,
      "。(": 11020,
      "审判": 11021,
      "。从": 11022,
      "ie": 11023,
      "。因此": 11024,
      "贷款": 11025,
      "es to ": 11026,
      "手术": 11027,
      "调整": 11028,
      "ign ": 11029,
      "我们的": 11030,
      "机会": 11031,
      ",则": 11032,
      "And ": 11033,
      "7 ": 11034,
      "cap": 11035,
      " those ": 11036,
      ".[": 11037,
      "通知": 11038,
      ",他们": 11039,
      "先生": 11040,
      "port ": 11041,
      "cor": 11042,
      ",并且": 11043,
      "ed a ": 11044,
      "艺术": 11045,
      "stand": 11046,
      "ash": 11047,
      "er of ": 11048,
      "婚姻": 11049,
      "eff": 11050,
      "真实": 11051,
      "理解": 11052,
      ",都": 11053,
      "女性": 11054,
      "Ar": 11055,
      "色的": 11056,
      "still ": 11057,
      "ors ": 11058,
      "法定": 11059,
      "收入": 11060,
      "wom": 11061,
      " the b": 11062,
      "游戏": 11063,
      "制度": 11064,
      "ually ": 11065,
      "正在": 11066,
      "grou": 11067,
      "问题的": 11068,
      "理由": 11069,
      "媒体": 11070,
      "成了": 11071,
      "体验": 11072,
      "过去": 11073,
      "进一步": 11074,
      "我国": 11075,
      "start": 11076,
      "soc": 11077,
      "It": 11078,
      "建议": 11079,
      "有人": 11080,
      "负责": 11081,
      "不足": 11082,
      "形式": 11083,
      "exper": 11084,
      "ild": 11085,
      "和国": 11086,
      "happ": 11087,
      "竞争": 11088,
      "。其": 11089,
      "同时,": 11090,
      "lear": 11091,
      ". It ": 11092,
      " them ": 11093,
      "ed to": 11094,
      "how": 11095,
      "fi": 11096,
      "issu": 11097,
      "lead": 11098,
      ",而是": 11099,
      "g ": 11100,
      "实践": 11101,
      "能源": 11102,
      "]\n": 11103,
      "女人": 11104,
      "造型": 11105,
      "原文地址:": 11106,
      "4、": 11107,
      "Cl": 11108,
      "计划": 11109,
      "ver ": 11110,
      "为什么": 11111,
      "point": 11112,
      "Trum": 11113,
      "fac": 11114,
      "网友": 11115,
      "多少": 11116,
      "sim": 11117,
      "科学": 11118,
      "减少": 11119,
      "amil": 11120,
      "被告人": 11121,
      "施工": 11122,
      "点,": 11123,
      "9年": 11124,
      ",这是": 11125,
      "New ": 11126,
      "ask": 11127,
      "syst": 11128,
      "nam": 11129,
      "全新": 11130,
      "及时": 11131,
      "2018年": 11132,
      "告诉": 11133,
      "多的": 11134,
      "检查": 11135,
      "相对": 11136,
      "往往": 11137,
      "sul": 11138,
      "show": 11139,
      "妈妈": 11140,
      "both": 11141,
      "dur": 11142,
      "来自": 11143,
      "当时": 11144,
      "审查": 11145,
      "也会": 11146,
      "unt": 11147,
      "效力": 11148,
      ",故": 11149,
      "en the ": 11150,
      "刑事": 11151,
      "I’": 11152,
      "。一": 11153,
      "sk": 11154,
      "ition ": 11155,
      "克,": 11156,
      "es.\n": 11157,
      ",没有": 11158,
      "期限": 11159,
      "新浪": 11160,
      "7.": 11161,
      "look": 11162,
      "son ": 11163,
      "air": 11164,
      "目标": 11165,
      "fact": 11166,
      ",看": 11167,
      "系列": 11168,
      "因素": 11169,
      "polit": 11170,
      "2012": 11171,
      "war": 11172,
      "持续": 11173,
      "阶段": 11174,
      "him ": 11175,
      "back ": 11176,
      "商业": 11177,
      "ful": 11178,
      "%,": 11179,
      "23": 11180,
      "知识": 11181,
      "Re": 11182,
      "食物": 11183,
      "每天": 11184,
      "You ": 11185,
      "全面": 11186,
      "is the ": 11187,
      "def": 11188,
      "动车": 11189,
      "他人": 11190,
      "28": 11191,
      "), ": 11192,
      "se ": 11193,
      "alk": 11194,
      "共和国": 11195,
      "相当": 11196,
      "积极": 11197,
      "应用": 11198,
      "rect": 11199,
      ",也是": 11200,
      "丰富": 11201,
      "物权": 11202,
      "内饰": 11203,
      "皮肤": 11204,
      "um ": 11205,
      "right": 11206,
      "lif": 11207,
      "did ": 11208,
      "充分": 11209,
      "那些": 11210,
      "值得": 11211,
      "elect": 11212,
      "det": 11213,
      "ould": 11214,
      ",甚至": 11215,
      "股权": 11216,
      "plac": 11217,
      "?\n": 11218,
      "tt": 11219,
      "it’s ": 11220,
      ". M": 11221,
      " to be ": 11222,
      "ilit": 11223,
      "2017年": 11224,
      "现代": 11225,
      "最大": 11226,
      "struc": 11227,
      "cha": 11228,
      "加入": 11229,
      "量的": 11230,
      "500": 11231,
      "。据": 11232,
      "leas": 11233,
      "伤害": 11234,
      "me ": 11235,
      "’ ": 11236,
      "裁判": 11237,
      "很多人": 11238,
      "En": 11239,
      "离婚": 11240,
      "违法": 11241,
      ",且": 11242,
      "正式": 11243,
      ",其中": 11244,
      "see ": 11245,
      "get": 11246,
      "参与": 11247,
      "长期": 11248,
      "ident ": 11249,
      "相应": 11250,
      "第十": 11251,
      "cour": 11252,
      "普通": 11253,
      "目的": 11254,
      "' ": 11255,
      "made ": 11256,
      "stud": 11257,
      "成本": 11258,
      "承包": 11259,
      "yp": 11260,
      "contin": 11261,
      "位置": 11262,
      "ific": 11263,
      "条规定": 11264,
      "意思": 11265,
      "week": 11266,
      "ept": 11267,
      ",后": 11268,
      "判断": 11269,
      "适合": 11270,
      "风格": 11271,
      "死亡": 11272,
      "devel": 11273,
      "gener": 11274,
      "人民共和国": 11275,
      "只能": 11276,
      "仲裁": 11277,
      "肯定": 11278,
      "中华人民共和国": 11279,
      "mod": 11280,
      "老师": 11281,
      ".S": 11282,
      "宝宝": 11283,
      "。\" ": 11284,
      "proc": 11285,
      "避免": 11286,
      "did": 11287,
      "人体": 11288,
      "领导": 11289,
      "相比": 11290,
      "ric": 11291,
      "多,": 11292,
      "know": 11293,
      "dem": 11294,
      "really ": 11295,
      "prot": 11296,
      " time ": 11297,
      "稳定": 11298,
      "expl": 11299,
      "down": 11300,
      "违反": 11301,
      "搭配": 11302,
      "客户": 11303,
      "！\n": 11304,
      "确实": 11305,
      "地产": 11306,
      "月,": 11307,
      "hand": 11308,
      "n't ": 11309,
      "建立": 11310,
      "会有": 11311,
      "针对": 11312,
      "ia": 11313,
      "o, ": 11314,
      "本人": 11315,
      "电影": 11316,
      "22": 11317,
      "vot": 11318,
      "every": 11319,
      "车身": 11320,
      "都不": 11321,
      "’re ": 11322,
      "男人": 11323,
      "ris": 11324,
      "提起": 11325,
      "ke": 11326,
      "He ": 11327,
      "mov": 11328,
      "第四": 11329,
      ". He ": 11330,
      "ently ": 11331,
      ",对于": 11332,
      "sinc": 11333,
      "rol": 11334,
      "ol ": 11335,
      "writ": 11336,
      "econ": 11337,
      "委员": 11338,
      "操作": 11339,
      "了。 ": 11340,
      "Jo": 11341,
      "hear": 11342,
      "oft": 11343,
      "的规定": 11344,
      "的时间": 11345,
      "giv": 11346,
      "面积": 11347,
      "seas": 11348,
      "now": 11349,
      "道路": 11350,
      "说:\"": 11351,
      "互联网": 11352,
      "里面": 11353,
      "出,": 11354,
      "它的": 11355,
      ",不过": 11356,
      "way ": 11357,
      "while ": 11358,
      "案例": 11359,
      "新车": 11360,
      "打造": 11361,
      "就可以": 11362,
      "幸福": 11363,
      "s, and ": 11364,
      "主体": 11365,
      "ollow": 11366,
      "的行为": 11367,
      "的地方": 11368,
      "经验": 11369,
      "ating ": 11370,
      ". T": 11371,
      "借贷": 11372,
      "制造": 11373,
      "的高": 11374,
      "结构": 11375,
      "面对": 11376,
      "公安": 11377,
      "are": 11378,
      "fil": 11379,
      "数额": 11380,
      "会议": 11381,
      "ed on ": 11382,
      "习惯": 11383,
      "ide": 11384,
      "aim": 11385,
      "设备": 11386,
      "as the ": 11387,
      "col": 11388,
      "资产": 11389,
      "的心": 11390,
      "。他": 11391,
      "press": 11392,
      "other": 11393,
      "26": 11394,
      "委托": 11395,
      "good ": 11396,
      "e than ": 11397,
      "根本": 11398,
      "aff": 11399,
      "满足": 11400,
      "想要": 11401,
      "电子": 11402,
      "只要": 11403,
      "someth": 11404,
      "loc": 11405,
      "Ph": 11406,
      ",应": 11407,
      "努力": 11408,
      "develop": 11409,
      "所谓": 11410,
      ",此": 11411,
      "ib": 11412,
      "ember ": 11413,
      "调查": 11414,
      "指导": 11415,
      "ed.\n": 11416,
      "》,": 11417,
      "spe": 11418,
      "E ": 11419,
      "基金": 11420,
      "ative ": 11421,
      ". This ": 11422,
      "Sh": 11423,
      "provid": 11424,
      "sign": 11425,
      "降低": 11426,
      "一定要": 11427,
      "条款": 11428,
      "self": 11429,
      "well ": 11430,
      "改革": 11431,
      "内部": 11432,
      "2011": 11433,
      "beg": 11434,
      "had": 11435,
      "it is ": 11436,
      "核心": 11437,
      "事业": 11438,
      "rac": 11439,
      ",或者": 11440,
      "ind ": 11441,
      "hom": 11442,
      "numb": 11443,
      "val": 11444,
      " take ": 11445,
      "quest": 11446,
      "sear": 11447,
      ". W": 11448,
      "ivers": 11449,
      "而言": 11450,
      "营养": 11451,
      "9.": 11452,
      "之间的": 11453,
      "ever ": 11454,
      "曾经": 11455,
      "、\"": 11456,
      "出资": 11457,
      "ip ": 11458,
      "自身": 11459,
      "ext ": 11460,
      "的《": 11461,
      "意义": 11462,
      "涉及": 11463,
      "commun": 11464,
      "多数": 11465,
      "重点": 11466,
      ",或": 11467,
      "必要": 11468,
      "view": 11469,
      "invest": 11470,
[...]
