{
  "version": "1.0",
  "truncation": null,
  "padding": null,
  "added_tokens": [
    {
      "id": 0,
      "content": "<pad>",
      "single_word": false,
      "lstrip": false,
      "rstrip": false,
      "normalized": false,
      "special": true
    },
    {
      "id": 1,
      "content": "<eos>",
      "single_word": false,
      "lstrip": false,
      "rstrip": false,
      "normalized": false,
      "special": true
    },
    {
      "id": 2,
      "content": "<unk>",
      "single_word": false,
      "lstrip": false,
      "rstrip": false,
      "normalized": false,
      "special": true
    }
  ],
  "normalizer": null,
  "pre_tokenizer": {
    "type": "Split",
    "pattern": {
      "String": "\\s+"
    },
    "behavior": "MergedWithPrevious",
    "invert": false
  },
  "post_processor": null,
  "decoder": null,
  "model": {
    "type": "BPE",
    "dropout": null,
    "unk_token": "<unk>",
    "continuing_subword_prefix": null,
    "end_of_word_suffix": null,
    "fuse_unk": false,
    "byte_fallback": false,
    "ignore_merges": false,
    "vocab": {
      "<pad>": 0,
      "<eos>": 1,
      "<unk>": 2,
      "\n": 3,
      " ": 4,
      "!": 5,
      "\"": 6,
      "#": 7,
      "$": 8,
      "%": 9,
      "&": 10,
      "'": 11,
      "(": 12,
      ")": 13,
      "*": 14,
      "+": 15,
      ",": 16,
      "-": 17,
      ".": 18,
      "/": 19,
      "0": 20,
      "1": 21,
      "2": 22,
      "3": 23,
      "4": 24,
      "5": 25,
      "6": 26,
      "7": 27,
      "8": 28,
      "9": 29,
      ":": 30,
      ";": 31,
      "<": 32,
      "=": 33,
      ">": 34,
      "?": 35,
      "@": 36,
      "A": 37,
      "B": 38,
      "C": 39,
      "D": 40,
      "E": 41,
      "F": 42,
      "G": 43,
      "H": 44,
      "I": 45,
      "J": 46,
      "K": 47,
      "L": 48,
      "M": 49,
      "N": 50,
      "O": 51,
      "P": 52,
      "Q": 53,
      "R": 54,
      "S": 55,
      "T": 56,
      "U": 57,
      "V": 58,
      "W": 59,
      "X": 60,
      "Y": 61,
      "Z": 62,
      "[": 63,
      "\\": 64,
      "]": 65,
      "^": 66,
      "_": 67,
      "`": 68,
      "a": 69,
      "b": 70,
      "c": 71,
      "d": 72,
      "e": 73,
      "f": 74,
      "g": 75,
      "h": 76,
      "i": 77,
      "j": 78,
      "k": 79,
      "l": 80,
      "m": 81,
      "n": 82,
      "o": 83,
      "p": 84,
      "q": 85,
      "r": 86,
      "s": 87,
      "t": 88,
      "u": 89,
      "v": 90,
      "w": 91,
      "x": 92,
      "y": 93,
      "z": 94,
      "{": 95,
      "|": 96,
      "}": 97,
      "~": 98,
      "": 99,
      "": 100,
      "": 101,
      "": 102,
      "": 103,
      "": 104,
      "": 105,
      "": 106,
      "": 107,
      "": 108,
      "": 109,
      "": 110,
      "¡": 111,
      "¢": 112,
      "£": 113,
      "¥": 114,
      "¦": 115,
      "§": 116,
      "¨": 117,
      "©": 118,
      "«": 119,
      "¬": 120,
      "­": 121,
      "®": 122,
      "¯": 123,
      "°": 124,
      "±": 125,
      "²": 126,
      "³": 127,
      "´": 128,
      "µ": 129,
      "¶": 130,
      "·": 131,
      "¹": 132,
      "º": 133,
      "»": 134,
      "¼": 135,
      "½": 136,
      "¾": 137,
      "¿": 138,
      "Á": 139,
      "Â": 140,
      "Ã": 141,
      "Ä": 142,
      "Å": 143,
      "Æ": 144,
      "Ç": 145,
      "È": 146,
      "É": 147,
      "Ê": 148,
      "Î": 149,
      "Ð": 150,
      "Ò": 151,
      "Ó": 152,
      "Õ": 153,
      "Ö": 154,
      "×": 155,
      "Ú": 156,
      "Ü": 157,
      "ß": 158,
      "à": 159,
      "á": 160,
      "â": 161,
      "ã": 162,
      "ä": 163,
      "å": 164,
      "æ": 165,
      "ç": 166,
      "è": 167,
      "é": 168,
      "ê": 169,
      "ë": 170,
      "ì": 171,
      "í": 172,
      "î": 173,
      "ï": 174,
      "ð": 175,
      "ñ": 176,
      "ò": 177,
      "ó": 178,
      "ô": 179,
      "õ": 180,
      "ö": 181,
      "÷": 182,
      "ø": 183,
      "ù": 184,
      "ú": 185,
      "û": 186,
      "ü": 187,
      "ý": 188,
      "ā": 189,
      "Ă": 190,
      "ă": 191,
      "ć": 192,
      "Č": 193,
      "č": 194,
      "đ": 195,
      "ē": 196,
      "ę": 197,
      "ĝ": 198,
      "ğ": 199,
      "ġ": 200,
      "İ": 201,
      "ı": 202,
      "Ł": 203,
      "ł": 204,
      "ń": 205,
      "Ō": 206,
      "ō": 207,
      "Œ": 208,
      "œ": 209,
      "ř": 210,
      "Ş": 211,
      "ş": 212,
      "Š": 213,
      "š": 214,
      "ţ": 215,
      "ū": 216,
      "Ÿ": 217,
      "ż": 218,
      "Ž": 219,
      "ž": 220,
      "Ƃ": 221,
      "ƃ": 222,
      "ƒ": 223,
      "ǎ": 224,
      "ǐ": 225,
      "ǔ": 226,
      "ǖ": 227,
      "ǝ": 228,
      "Ȃ": 229,
      "Ș": 230,
      "ș": 231,
      "ț": 232,
      "ɂ": 233,
      "Ƀ": 234,
      "ɐ": 235,
      "ɓ": 236,
      "ɔ": 237,
      "ə": 238,
      "ɪ": 239,
      "ʁ": 240,
      "ʃ": 241,
      "ʇ": 242,
      "ʒ": 243,
      "ʷ": 244,
      "ˇ": 245,
      "ˈ": 246,
      "ˋ": 247,
      "ː": 248,
      "́": 249,
      "̂": 250,
      "̃": 251,
      "̄": 252,
      "̈": 253,
      "̌": 254,
      "̏": 255,
      "̑": 256,
      "̔": 257,
      "̕": 258,
      "̯": 259,
      "͂": 260,
      "̓": 261,
      "͉": 262,
      "͎": 263,
      "͡": 264,
      "ΐ": 265,
      "Β": 266,
      "Δ": 267,
      "Ε": 268,
      "Θ": 269,
      "Ι": 270,
      "Ν": 271,
      "Σ": 272,
      "Τ": 273,
      "Υ": 274,
      "Χ": 275,
      "Ω": 276,
      "ά": 277,
      "έ": 278,
      "ή": 279,
      "ί": 280,
      "α": 281,
      "β": 282,
      "γ": 283,
      "δ": 284,
      "ε": 285,
      "η": 286,
      "θ": 287,
      "ι": 288,
      "κ": 289,
      "λ": 290,
      "μ": 291,
      "ν": 292,
      "ξ": 293,
      "ο": 294,
      "π": 295,
      "ρ": 296,
      "ς": 297,
      "σ": 298,
      "τ": 299,
      "υ": 300,
      "φ": 301,
      "χ": 302,
      "ψ": 303,
      "ω": 304,
      "ό": 305,
      "ύ": 306,
      "ώ": 307,
      "ϕ": 308,
      "Ϝ": 309,
      "А": 310,
      "В": 311,
      "Д": 312,
      "З": 313,
      "К": 314,
      "М": 315,
      "Н": 316,
      "О": 317,
      "П": 318,
      "Т": 319,
      "Ф": 320,
      "Х": 321,
      "а": 322,
      "б": 323,
      "в": 324,
      "г": 325,
      "д": 326,
      "е": 327,
      "ж": 328,
      "з": 329,
      "и": 330,
      "й": 331,
      "к": 332,
      "л": 333,
      "м": 334,
      "н": 335,
      "о": 336,
      "п": 337,
      "р": 338,
      "с": 339,
      "т": 340,
      "у": 341,
      "ф": 342,
      "х": 343,
      "ц": 344,
      "ч": 345,
      "ш": 346,
      "щ": 347,
      "ы": 348,
      "ь": 349,
      "э": 350,
      "ю": 351,
      "я": 352,
      "ѕ": 353,
      "і": 354,
      "ӂ": 355,
      "ԛ": 356,
      "ա": 357,
      "հ": 358,
      "յ": 359,
      "،": 360,
      "ؐ": 361,
      "؟": 362,
      "ء": 363,
      "آ": 364,
      "أ": 365,
      "ؤ": 366,
      "إ": 367,
      "ئ": 368,
      "ا": 369,
      "ب": 370,
      "ة": 371,
      "ت": 372,
      "ث": 373,
      "ج": 374,
      "ح": 375,
      "خ": 376,
      "د": 377,
      "ذ": 378,
      "ر": 379,
      "ز": 380,
      "س": 381,
      "ش": 382,
      "ص": 383,
      "ض": 384,
      "ط": 385,
      "ظ": 386,
      "ع": 387,
      "غ": 388,
      "ف": 389,
      "ق": 390,
      "ك": 391,
      "ل": 392,
      "م": 393,
      "ن": 394,
      "ه": 395,
      "و": 396,
      "ى": 397,
      "ي": 398,
      "ً": 399,
      "ٌ": 400,
      "ٍ": 401,
      "َ": 402,
      "ُ": 403,
      "ِ": 404,
      "ّ": 405,
      "ْ": 406,
      "٪": 407,
      "ۖ": 408,
      "ۗ": 409,
      "۰": 410,
      "܂": 411,
      "݌": 412,
      "߂": 413,
      "अ": 414,
      "आ": 415,
      "ए": 416,
      "क": 417,
      "ज": 418,
      "ट": 419,
      "त": 420,
      "द": 421,
      "ध": 422,
      "न": 423,
      "प": 424,
      "म": 425,
      "य": 426,
      "र": 427,
      "ल": 428,
      "व": 429,
      "श": 430,
      "ष": 431,
      "स": 432,
      "ा": 433,
      "ि": 434,
      "ी": 435,
      "ु": 436,
      "े": 437,
      "ो": 438,
      "ौ": 439,
      "्": 440,
      "।": 441,
      "অ": 442,
      "ই": 443,
      "এ": 444,
      "ক": 445,
      "গ": 446,
      "চ": 447,
      "ঠ": 448,
      "দ": 449,
      "ম": 450,
      "য": 451,
      "ষ": 452,
      "়": 453,
      "ী": 454,
      "ু": 455,
      "ে": 456,
      "ো": 457,
      "ৌ": 458,
      "্": 459,
      "ช": 460,
      "ร": 461,
      "ว": 462,
      "ส": 463,
      "อ": 464,
      "ั": 465,
      "ื": 466,
      "฿": 467,
      "เ": 468,
      "ไ": 469,
      "้": 470,
      "ḥ": 471,
      "ḫ": 472,
      "ṇ": 473,
      "ṛ": 474,
      "ệ": 475,
      "ủ": 476,
      "ἀ": 477,
      "ἁ": 478,
      "ἄ": 479,
      "ἅ": 480,
      "ἐ": 481,
      "ἑ": 482,
      "ἔ": 483,
      "ἠ": 484,
      "ἡ": 485,
      "ἥ": 486,
      "ἰ": 487,
      "ἴ": 488,
      "ἶ": 489,
      "ὀ": 490,
      "ὁ": 491,
      "ὐ": 492,
      "ὕ": 493,
      "ὥ": 494,
      "ὧ": 495,
      "ὰ": 496,
      "ὴ": 497,
      "ὶ": 498,
      "ί": 499,
      "ὸ": 500,
      "ὼ": 501,
      "᾽": 502,
      "ῆ": 503,
      "ῖ": 504,
      "ῦ": 505,
      "ῶ": 506,
      " ": 507,
      "​": 508,
      "‌": 509,
      "‍": 510,
      "‎": 511,
      "‏": 512,
      "‐": 513,
      "‑": 514,
      "–": 515,
      "—": 516,
      "―": 517,
      "‖": 518,
      "‘": 519,
      "’": 520,
      "‚": 521,
      "“": 522,
      "”": 523,
      "„": 524,
      "†": 525,
      "‡": 526,
      "•": 527,
      "․": 528,
      "…": 529,
      "‧": 530,
      "‪": 531,
      "‬": 532,
      "‰": 533,
      "′": 534,
      "″": 535,
      "‹": 536,
      "›": 537,
      "※": 538,
      "⁄": 539,
      "⁡": 540,
      "⁰": 541,
      "⁹": 542,
      "€": 543,
      "₹": 544,
      "⃣": 545,
      "℃": 546,
      "℅": 547,
      "™": 548,
      "ⅰ": 549,
      "ⅱ": 550,
      "ⅲ": 551,
      "ⅳ": 552,
      "ⅵ": 553,
      "ⅶ": 554,
      "ⅹ": 555,
      "←": 556,
      "↑": 557,
      "→": 558,
      "↓": 559,
      "↖": 560,
      "↗": 561,
      "⇢": 562,
      "∀": 563,
      "∑": 564,
      "−": 565,
      "√": 566,
      "∞": 567,
      "∥": 568,
      "∩": 569,
      "∴": 570,
      "∶": 571,
      "∼": 572,
      "≠": 573,
      "≤": 574,
      "≥": 575,
      "≦": 576,
      "≧": 577,
      "≪": 578,
      "≫": 579,
      "⊙": 580,
      "␣": 581,
      "①": 582,
      "②": 583,
      "③": 584,
      "④": 585,
      "⑤": 586,
      "⑥": 587,
      "⑦": 588,
      "⑧": 589,
      "⑨": 590,
      "⑩": 591,
      "⑴": 592,
      "⑵": 593,
      "⑶": 594,
      "⑸": 595,
      "⑽": 596,
      "⒔": 597,
      "⒕": 598,
      "─": 599,
      "━": 600,
      "│": 601,
      "┃": 602,
      "┌": 603,
      "┐": 604,
      "└": 605,
      "┘": 606,
      "├": 607,
      "┬": 608,
      "┯": 609,
      "┴": 610,
      "╔": 611,
      "╨": 612,
      "╭": 613,
      "╮": 614,
      "╯": 615,
      "╰": 616,
      "╱": 617,
      "╲": 618,
      "╳": 619,
      "▅": 620,
      "█": 621,
      "▉": 622,
      "▎": 623,
      "■": 624,
      "□": 625,
      "▪": 626,
      "▲": 627,
      "△": 628,
      "▴": 629,
      "▶": 630,
      "▷": 631,
      "▼": 632,
      "▽": 633,
      "▾": 634,
      "◇": 635,
      "○": 636,
      "◎": 637,
      "●": 638,
      "◢": 639,
      "◣": 640,
      "◤": 641,
      "◥": 642,
      "☀": 643,
      "★": 644,
      "☷": 645,
      "♥": 646,
      "♦": 647,
      "♪": 648,
      "⚔": 649,
      "⚽": 650,
      "✓": 651,
      "✔": 652,
      "✘": 653,
      "✨": 654,
      "➤": 655,
      "⟨": 656,
      "⟩": 657,
      "⦁": 658,
      "⭐": 659,
      "⸢": 660,
      "⸣": 661,
      "、": 662,
      "。": 663,
      "〇": 664,
      "〈": 665,
      "〉": 666,
      "《": 667,
      "》": 668,
      "「": 669,
      "」": 670,
      "『": 671,
      "』": 672,
      "【": 673,
      "】": 674,
      "〔": 675,
      "〕": 676,
      "〖": 677,
      "〗": 678,
      "あ": 679,
      "い": 680,
      "ぅ": 681,
      "う": 682,
      "え": 683,
      "お": 684,
      "か": 685,
      "が": 686,
      "き": 687,
      "く": 688,
      "ぐ": 689,
      "け": 690,
      "こ": 691,
      "さ": 692,
      "し": 693,
      "じ": 694,
      "す": 695,
      "ず": 696,
      "せ": 697,
      "そ": 698,
      "ぞ": 699,
      "た": 700,
      "だ": 701,
      "ち": 702,
      "っ": 703,
      "つ": 704,
      "て": 705,
      "で": 706,
      "と": 707,
      "ど": 708,
      "な": 709,
      "に": 710,
      "ね": 711,
      "の": 712,
      "は": 713,
      "ば": 714,
      "ほ": 715,
      "ま": 716,
      "め": 717,
      "も": 718,
      "ゃ": 719,
      "や": 720,
      "よ": 721,
      "ら": 722,
      "り": 723,
      "る": 724,
      "れ": 725,
      "ろ": 726,
      "わ": 727,
      "を": 728,
      "ん": 729,
      "ァ": 730,
      "ア": 731,
      "ィ": 732,
      "イ": 733,
      "ウ": 734,
      "ェ": 735,
      "オ": 736,
      "キ": 737,
      "ク": 738,
      "コ": 739,
      "ザ": 740,
      "シ": 741,
      "ジ": 742,
      "ス": 743,
      "ズ": 744,
      "ダ": 745,
      "チ": 746,
      "ッ": 747,
      "ツ": 748,
      "テ": 749,
      "デ": 750,
      "ト": 751,
      "ド": 752,
      "ナ": 753,
      "ニ": 754,
      "ネ": 755,
      "ハ": 756,
      "パ": 757,
      "ビ": 758,
      "ピ": 759,
      "フ": 760,
      "ブ": 761,
      "ベ": 762,
      "ペ": 763,
      "マ": 764,
      "ム": 765,
      "メ": 766,
      "ャ": 767,
      "ュ": 768,
      "ョ": 769,
      "ラ": 770,
      "リ": 771,
      "ル": 772,
      "レ": 773,
      "ロ": 774,
      "ワ": 775,
      "ン": 776,
      "ヴ": 777,
      "・": 778,
      "ー": 779,
      "ㄈ": 780,
      "ㄒ": 781,
      "ㄖ": 782,
      "㎜": 783,
      "㎝": 784,
      "㎡": 785,
      "㏄": 786,
      "㝵": 787,
      "䅉": 788,
      "䴘": 789,
      "䴙": 790,
      "一": 791,
      "丁": 792,
      "七": 793,
      "丄": 794,
      "万": 795,
      "丈": 796,
      "三": 797,
      "上": 798,
      "下": 799,
      "不": 800,
      "与": 801,
      "丏": 802,
      "丐": 803,
      "丑": 804,
      "专": 805,
      "且": 806,
      "丕": 807,
      "世": 808,
      "丘": 809,
      "丙": 810,
      "业": 811,
      "丛": 812,
      "东": 813,
      "丝": 814,
      "丞": 815,
      "丢": 816,
      "两": 817,
      "严": 818,
      "丧": 819,
      "丨": 820,
      "个": 821,
      "丫": 822,
      "中": 823,
      "丰": 824,
      "串": 825,
      "临": 826,
      "丶": 827,
      "丸": 828,
      "丹": 829,
      "为": 830,
      "主": 831,
      "丽": 832,
      "举": 833,
      "乃": 834,
      "久": 835,
      "么": 836,
      "义": 837,
      "之": 838,
      "乌": 839,
      "乍": 840,
      "乎": 841,
      "乏": 842,
      "乐": 843,
      "乒": 844,
      "乓": 845,
      "乔": 846,
      "乖": 847,
      "乘": 848,
      "乙": 849,
      "乜": 850,
      "九": 851,
      "乞": 852,
      "也": 853,
      "习": 854,
      "乡": 855,
      "书": 856,
      "买": 857,
      "乱": 858,
      "乳": 859,
      "乾": 860,
      "亁": 861,
      "了": 862,
      "予": 863,
      "争": 864,
      "事": 865,
      "二": 866,
      "于": 867,
      "亏": 868,
      "云": 869,
      "互": 870,
      "五": 871,
      "井": 872,
      "亘": 873,
      "亚": 874,
      "些": 875,
      "亟": 876,
      "亡": 877,
      "亢": 878,
      "交": 879,
      "亥": 880,
      "亦": 881,
      "产": 882,
      "亨": 883,
      "亩": 884,
      "享": 885,
      "京": 886,
      "亭": 887,
      "亮": 888,
      "亲": 889,
      "亳": 890,
      "亵": 891,
      "人": 892,
      "亻": 893,
      "亿": 894,
      "什": 895,
      "仁": 896,
      "仃": 897,
      "仄": 898,
      "仅": 899,
      "仆": 900,
      "仇": 901,
      "今": 902,
      "介": 903,
      "仍": 904,
      "从": 905,
      "仑": 906,
      "仓": 907,
      "仔": 908,
      "仕": 909,
      "他": 910,
      "仗": 911,
      "付": 912,
      "仙": 913,
      "仝": 914,
      "仟": 915,
      "代": 916,
      "令": 917,
      "以": 918,
      "仨": 919,
      "仪": 920,
      "仫": 921,
      "们": 922,
      "仰": 923,
      "仲": 924,
      "件": 925,
      "价": 926,
      "任": 927,
      "份": 928,
      "仿": 929,
      "企": 930,
      "伉": 931,
      "伊": 932,
      "伍": 933,
      "伎": 934,
      "伏": 935,
      "伐": 936,
      "休": 937,
      "众": 938,
      "优": 939,
      "伙": 940,
      "会": 941,
      "伛": 942,
      "伞": 943,
      "伟": 944,
      "传": 945,
      "伤": 946,
      "伥": 947,
      "伦": 948,
      "伪": 949,
      "伫": 950,
      "伯": 951,
      "估": 952,
      "伴": 953,
      "伶": 954,
      "伸": 955,
      "伺": 956,
      "似": 957,
      "伽": 958,
      "但": 959,
      "位": 960,
      "低": 961,
      "住": 962,
      "佐": 963,
      "佑": 964,
      "体": 965,
      "何": 966,
      "佗": 967,
      "佘": 968,
      "余": 969,
      "佚": 970,
      "佛": 971,
      "作": 972,
      "佞": 973,
      "佟": 974,
      "你": 975,
      "佣": 976,
      "佧": 977,
      "佩": 978,
      "佬": 979,
      "佯": 980,
      "佰": 981,
      "佳": 982,
      "佶": 983,
      "佼": 984,
      "使": 985,
      "侃": 986,
      "侄": 987,
      "侈": 988,
      "例": 989,
      "侍": 990,
      "侏": 991,
      "侑": 992,
      "侗": 993,
      "供": 994,
      "依": 995,
      "侠": 996,
      "侣": 997,
      "侥": 998,
      "侦": 999,
      "侧": 1000,
      "侨": 1001,
      "侪": 1002,
      "侬": 1003,
      "侮": 1004,
      "侯": 1005,
      "侵": 1006,
      "便": 1007,
      "係": 1008,
      "促": 1009,
      "俄": 1010,
      "俅": 1011,
      "俊": 1012,
      "俏": 1013,
      "俐": 1014,
      "俑": 1015,
      "俗": 1016,
      "俘": 1017,
      "俚": 1018,
      "保": 1019,
      "俞": 1020,
      "俟": 1021,
      "信": 1022,
      "俦": 1023,
      "俨": 1024,
      "俩": 1025,
      "俪": 1026,
      "俭": 1027,
      "修": 1028,
      "俯": 1029,
      "俱": 1030,
      "俵": 1031,
      "俺": 1032,
      "俾": 1033,
      "個": 1034,
      "倌": 1035,
      "倍": 1036,
      "倏": 1037,
      "倒": 1038,
      "倔": 1039,
      "倘": 1040,
      "候": 1041,
      "倚": 1042,
      "借": 1043,
      "倡": 1044,
      "倦": 1045,
      "倩": 1046,
      "倪": 1047,
      "债": 1048,
      "值": 1049,
      "倾": 1050,
      "偃": 1051,
      "假": 1052,
      "偈": 1053,
      "偌": 1054,
      "偎": 1055,
      "偏": 1056,
      "偕": 1057,
      "做": 1058,
      "停": 1059,
      "偞": 1060,
      "健": 1061,
      "偪": 1062,
      "偶": 1063,
      "偷": 1064,
      "偻": 1065,
      "偿": 1066,
      "傀": 1067,
      "傅": 1068,
      "傈": 1069,
      "傍": 1070,
      "傣": 1071,
      "储": 1072,
      "催": 1073,
      "傲": 1074,
      "傻": 1075,
      "像": 1076,
      "僖": 1077,
      "僚": 1078,
      "僣": 1079,
      "僧": 1080,
      "僭": 1081,
      "僮": 1082,
      "僳": 1083,
      "僵": 1084,
      "僻": 1085,
      "儆": 1086,
      "儇": 1087,
      "儋": 1088,
      "儒": 1089,
      "儡": 1090,
      "儿": 1091,
      "兀": 1092,
      "允": 1093,
      "元": 1094,
      "兄": 1095,
      "充": 1096,
      "兆": 1097,
      "先": 1098,
      "光": 1099,
      "克": 1100,
      "免": 1101,
      "兑": 1102,
      "兔": 1103,
      "兖": 1104,
      "党": 1105,
      "兜": 1106,
      "兢": 1107,
      "入": 1108,
      "全": 1109,
      "八": 1110,
      "公": 1111,
      "六": 1112,
      "兮": 1113,
      "兰": 1114,
      "共": 1115,
      "关": 1116,
      "兴": 1117,
      "兵": 1118,
      "其": 1119,
      "具": 1120,
      "典": 1121,
      "兹": 1122,
      "养": 1123,
      "兼": 1124,
      "兽": 1125,
      "冀": 1126,
      "内": 1127,
      "冈": 1128,
      "冉": 1129,
      "册": 1130,
      "再": 1131,
      "冒": 1132,
      "冕": 1133,
      "冗": 1134,
      "写": 1135,
      "军": 1136,
      "农": 1137,
      "冠": 1138,
      "冢": 1139,
      "冤": 1140,
      "冥": 1141,
      "冬": 1142,
      "冯": 1143,
      "冰": 1144,
      "冲": 1145,
      "决": 1146,
      "况": 1147,
      "冶": 1148,
      "冷": 1149,
      "冻": 1150,
      "冼": 1151,
      "冽": 1152,
      "净": 1153,
      "凄": 1154,
      "准": 1155,
      "凉": 1156,
      "凋": 1157,
      "凌": 1158,
      "减": 1159,
      "凑": 1160,
      "凛": 1161,
      "凝": 1162,
      "几": 1163,
      "凡": 1164,
      "凤": 1165,
      "凫": 1166,
      "凭": 1167,
      "凯": 1168,
      "凰": 1169,
      "凳": 1170,
      "凶": 1171,
      "凸": 1172,
      "凹": 1173,
      "出": 1174,
      "击": 1175,
      "函": 1176,
      "凿": 1177,
      "刀": 1178,
      "刁": 1179,
      "刂": 1180,
      "刃": 1181,
      "分": 1182,
      "切": 1183,
      "刊": 1184,
      "刍": 1185,
      "刎": 1186,
      "刑": 1187,
      "划": 1188,
      "列": 1189,
      "刘": 1190,
      "则": 1191,
      "刚": 1192,
      "创": 1193,
      "初": 1194,
      "删": 1195,
      "判": 1196,
      "刨": 1197,
      "利": 1198,
      "别": 1199,
      "刭": 1200,
      "刮": 1201,
      "到": 1202,
      "制": 1203,
      "刷": 1204,
      "券": 1205,
      "刹": 1206,
      "刺": 1207,
      "刻": 1208,
      "刽": 1209,
      "剁": 1210,
      "剂": 1211,
      "剃": 1212,
      "削": 1213,
      "剌": 1214,
      "前": 1215,
      "剐": 1216,
      "剑": 1217,
      "剔": 1218,
      "剖": 1219,
      "剞": 1220,
      "剥": 1221,
      "剧": 1222,
      "剩": 1223,
      "剪": 1224,
      "副": 1225,
      "割": 1226,
      "剽": 1227,
      "剿": 1228,
      "劂": 1229,
      "劈": 1230,
      "力": 1231,
      "劝": 1232,
      "办": 1233,
      "功": 1234,
      "加": 1235,
      "务": 1236,
      "劢": 1237,
      "劣": 1238,
      "动": 1239,
      "助": 1240,
      "努": 1241,
      "劫": 1242,
      "励": 1243,
      "劲": 1244,
      "劳": 1245,
      "劻": 1246,
      "劾": 1247,
      "势": 1248,
      "勃": 1249,
      "勇": 1250,
      "勉": 1251,
      "勋": 1252,
      "勐": 1253,
      "勒": 1254,
      "動": 1255,
      "勖": 1256,
      "勘": 1257,
      "募": 1258,
      "勤": 1259,
      "勳": 1260,
      "勺": 1261,
      "勾": 1262,
      "勿": 1263,
      "匀": 1264,
      "包": 1265,
      "匆": 1266,
      "匈": 1267,
      "匍": 1268,
      "匏": 1269,
      "匐": 1270,
      "匕": 1271,
      "化": 1272,
      "北": 1273,
      "匙": 1274,
      "匝": 1275,
      "匠": 1276,
      "匡": 1277,
      "匣": 1278,
      "匦": 1279,
      "匪": 1280,
      "匮": 1281,
      "匹": 1282,
      "区": 1283,
      "医": 1284,
      "匾": 1285,
      "匿": 1286,
      "十": 1287,
      "千": 1288,
      "升": 1289,
      "午": 1290,
      "卉": 1291,
      "半": 1292,
      "华": 1293,
      "协": 1294,
      "卑": 1295,
      "卒": 1296,
      "卓": 1297,
      "单": 1298,
      "卖": 1299,
      "南": 1300,
      "博": 1301,
      "卜": 1302,
      "卞": 1303,
      "占": 1304,
      "卡": 1305,
      "卢": 1306,
      "卤": 1307,
      "卦": 1308,
      "卧": 1309,
      "卫": 1310,
      "卯": 1311,
      "印": 1312,
      "危": 1313,
      "即": 1314,
      "却": 1315,
      "卵": 1316,
      "卷": 1317,
      "卸": 1318,
      "卺": 1319,
      "卿": 1320,
      "厂": 1321,
      "厄": 1322,
      "厅": 1323,
      "历": 1324,
      "厉": 1325,
      "压": 1326,
      "厌": 1327,
      "厕": 1328,
      "厘": 1329,
      "厚": 1330,
      "厝": 1331,
      "原": 1332,
      "厢": 1333,
      "厥": 1334,
      "厦": 1335,
      "厨": 1336,
      "厩": 1337,
      "厮": 1338,
      "去": 1339,
      "县": 1340,
      "叁": 1341,
      "参": 1342,
      "又": 1343,
      "叉": 1344,
      "及": 1345,
      "友": 1346,
      "双": 1347,
      "反": 1348,
      "发": 1349,
      "叔": 1350,
      "取": 1351,
      "受": 1352,
      "变": 1353,
      "叙": 1354,
      "叛": 1355,
      "叟": 1356,
      "叠": 1357,
      "叡": 1358,
      "口": 1359,
      "古": 1360,
      "句": 1361,
      "另": 1362,
      "叨": 1363,
      "叩": 1364,
      "只": 1365,
      "叫": 1366,
      "召": 1367,
      "叭": 1368,
      "叮": 1369,
      "可": 1370,
      "台": 1371,
      "叱": 1372,
      "史": 1373,
      "右": 1374,
      "叵": 1375,
      "叶": 1376,
      "号": 1377,
      "司": 1378,
      "叹": 1379,
      "叻": 1380,
      "叼": 1381,
      "叽": 1382,
      "吁": 1383,
      "吃": 1384,
      "各": 1385,
      "吆": 1386,
      "合": 1387,
      "吉": 1388,
      "吊": 1389,
      "吋": 1390,
      "同": 1391,
      "名": 1392,
      "后": 1393,
      "吏": 1394,
      "吐": 1395,
      "向": 1396,
      "吒": 1397,
      "吓": 1398,
      "吕": 1399,
      "吖": 1400,
      "吗": 1401,
      "君": 1402,
      "吝": 1403,
      "吞": 1404,
      "吟": 1405,
      "吠": 1406,
      "吡": 1407,
      "否": 1408,
      "吧": 1409,
      "吨": 1410,
      "吩": 1411,
      "含": 1412,
      "听": 1413,
      "吭": 1414,
      "吮": 1415,
      "启": 1416,
      "吱": 1417,
      "吴": 1418,
      "吵": 1419,
      "吸": 1420,
      "吹": 1421,
      "吻": 1422,
      "吼": 1423,
      "吽": 1424,
      "吾": 1425,
      "吿": 1426,
      "呀": 1427,
      "呃": 1428,
      "呆": 1429,
      "呈": 1430,
      "告": 1431,
      "呋": 1432,
      "呎": 1433,
      "呐": 1434,
      "呓": 1435,
      "呕": 1436,
      "呗": 1437,
      "员": 1438,
      "呛": 1439,
      "呜": 1440,
      "呢": 1441,
      "呤": 1442,
      "呦": 1443,
      "周": 1444,
      "呱": 1445,
      "呲": 1446,
      "味": 1447,
      "呵": 1448,
      "呸": 1449,
      "呻": 1450,
      "呼": 1451,
      "命": 1452,
      "咀": 1453,
      "咂": 1454,
      "咄": 1455,
      "咆": 1456,
      "咋": 1457,
      "和": 1458,
      "咎": 1459,
      "咏": 1460,
      "咐": 1461,
      "咒": 1462,
      "咔": 1463,
      "咕": 1464,
      "咖": 1465,
      "咙": 1466,
      "咚": 1467,
      "咛": 1468,
      "咣": 1469,
      "咤": 1470,
      "咦": 1471,
      "咧": 1472,
      "咨": 1473,
      "咩": 1474,
      "咪": 1475,
      "咫": 1476,
      "咬": 1477,
      "咯": 1478,
      "咱": 1479,
      "咳": 1480,
      "咸": 1481,
      "咻": 1482,
      "咽": 1483,
      "哀": 1484,
      "品": 1485,
      "哄": 1486,
      "哆": 1487,
      "哇": 1488,
      "哈": 1489,
      "哉": 1490,
      "响": 1491,
      "哎": 1492,
      "哑": 1493,
      "哒": 1494,
      "哔": 1495,
      "哗": 1496,
      "哞": 1497,
      "哟": 1498,
      "員": 1499,
      "哥": 1500,
      "哦": 1501,
      "哧": 1502,
      "哨": 1503,
      "哩": 1504,
      "哪": 1505,
      "哭": 1506,
      "哮": 1507,
      "哲": 1508,
      "哺": 1509,
      "哼": 1510,
      "哽": 1511,
      "唁": 1512,
      "唆": 1513,
      "唇": 1514,
      "唉": 1515,
      "唏": 1516,
      "唐": 1517,
      "唑": 1518,
      "唔": 1519,
      "唛": 1520,
      "唠": 1521,
      "唢": 1522,
      "唤": 1523,
      "唧": 1524,
      "唬": 1525,
      "售": 1526,
      "唯": 1527,
      "唰": 1528,
      "唱": 1529,
      "唳": 1530,
      "唵": 1531,
      "唾": 1532,
      "啃": 1533,
      "啄": 1534,
      "商": 1535,
      "啊": 1536,
      "啖": 1537,
      "啜": 1538,
      "啡": 1539,
      "啤": 1540,
      "啥": 1541,
      "啦": 1542,
      "啧": 1543,
      "啪": 1544,
      "啫": 1545,
      "啬": 1546,
      "啮": 1547,
      "啰": 1548,
      "啶": 1549,
      "啸": 1550,
      "啻": 1551,
      "啼": 1552,
      "喀": 1553,
      "喂": 1554,
      "喃": 1555,
      "善": 1556,
      "喆": 1557,
      "喇": 1558,
      "喉": 1559,
      "喊": 1560,
      "喋": 1561,
      "喑": 1562,
      "喔": 1563,
      "喘": 1564,
      "喜": 1565,
      "喝": 1566,
      "喧": 1567,
      "喱": 1568,
      "喳": 1569,
      "喵": 1570,
      "喷": 1571,
      "喻": 1572,
      "喽": 1573,
      "喾": 1574,
      "嗅": 1575,
      "嗑": 1576,
      "嗒": 1577,
      "嗓": 1578,
      "嗔": 1579,
      "嗖": 1580,
      "嗜": 1581,
      "嗝": 1582,
      "嗟": 1583,
      "嗡": 1584,
      "嗣": 1585,
      "嗤": 1586,
      "嗦": 1587,
      "嗨": 1588,
      "嗪": 1589,
      "嗬": 1590,
      "嗯": 1591,
      "嗲": 1592,
      "嗳": 1593,
      "嗷": 1594,
      "嗽": 1595,
      "嘀": 1596,
      "嘈": 1597,
      "嘉": 1598,
      "嘌": 1599,
      "嘎": 1600,
      "嘘": 1601,
      "嘛": 1602,
      "嘞": 1603,
      "嘟": 1604,
      "嘣": 1605,
      "嘤": 1606,
      "嘧": 1607,
      "嘬": 1608,
      "嘭": 1609,
      "嘱": 1610,
      "嘲": 1611,
      "嘴": 1612,
      "嘶": 1613,
      "嘹": 1614,
      "嘻": 1615,
      "嘿": 1616,
      "噌": 1617,
      "噎": 1618,
      "噔": 1619,
      "噗": 1620,
      "噙": 1621,
      "噜": 1622,
      "噢": 1623,
      "噤": 1624,
      "器": 1625,
      "噩": 1626,
      "噪": 1627,
      "噫": 1628,
      "噬": 1629,
      "噱": 1630,
      "噶": 1631,
      "噻": 1632,
      "噼": 1633,
      "嚎": 1634,
      "嚏": 1635,
      "嚓": 1636,
      "嚣": 1637,
      "嚯": 1638,
      "嚷": 1639,
      "嚼": 1640,
      "囊": 1641,
      "囚": 1642,
      "四": 1643,
      "回": 1644,
      "因": 1645,
      "囡": 1646,
      "团": 1647,
      "囤": 1648,
      "囧": 1649,
      "囫": 1650,
      "园": 1651,
      "困": 1652,
      "囱": 1653,
      "围": 1654,
      "囵": 1655,
      "固": 1656,
      "国": 1657,
      "图": 1658,
      "囿": 1659,
      "圃": 1660,
      "圆": 1661,
      "圈": 1662,
      "圜": 1663,
      "土": 1664,
      "圣": 1665,
      "在": 1666,
      "圩": 1667,
      "圭": 1668,
      "地": 1669,
      "圳": 1670,
      "圹": 1671,
      "场": 1672,
      "圻": 1673,
      "圾": 1674,
      "址": 1675,
      "坂": 1676,
      "均": 1677,
      "坊": 1678,
      "坌": 1679,
      "坍": 1680,
      "坎": 1681,
      "坏": 1682,
      "坐": 1683,
      "坑": 1684,
      "块": 1685,
      "坚": 1686,
      "坛": 1687,
      "坝": 1688,
      "坞": 1689,
      "坟": 1690,
      "坠": 1691,
      "坡": 1692,
      "坤": 1693,
      "坦": 1694,
      "坨": 1695,
      "坪": 1696,
      "坯": 1697,
      "坷": 1698,
      "垂": 1699,
      "垃": 1700,
      "垄": 1701,
      "垅": 1702,
      "型": 1703,
      "垌": 1704,
      "垒": 1705,
      "垚": 1706,
      "垛": 1707,
      "垠": 1708,
      "垢": 1709,
      "垣": 1710,
      "垦": 1711,
      "垫": 1712,
      "垭": 1713,
      "垮": 1714,
      "垲": 1715,
      "垸": 1716,
      "埂": 1717,
      "埃": 1718,
      "埋": 1719,
      "城": 1720,
      "埔": 1721,
      "埝": 1722,
      "域": 1723,
      "埠": 1724,
      "埭": 1725,
      "埵": 1726,
      "埸": 1727,
      "培": 1728,
      "基": 1729,
      "堂": 1730,
      "堃": 1731,
      "堆": 1732,
      "堇": 1733,
      "堉": 1734,
      "堑": 1735,
      "堕": 1736,
      "堞": 1737,
      "堡": 1738,
      "堤": 1739,
      "堪": 1740,
      "堰": 1741,
      "堵": 1742,
      "塁": 1743,
      "塄": 1744,
      "塅": 1745,
      "塈": 1746,
      "塌": 1747,
      "塑": 1748,
      "塔": 1749,
      "塘": 1750,
      "塞": 1751,
      "填": 1752,
      "塬": 1753,
      "塾": 1754,
      "境": 1755,
      "墅": 1756,
      "墉": 1757,
      "墒": 1758,
      "墓": 1759,
      "増": 1760,
      "墙": 1761,
      "增": 1762,
      "墟": 1763,
      "墨": 1764,
      "墩": 1765,
      "墫": 1766,
      "壁": 1767,
      "壅": 1768,
      "壑": 1769,
      "壕": 1770,
      "壤": 1771,
      "士": 1772,
      "壬": 1773,
      "壮": 1774,
      "声": 1775,
      "壳": 1776,
      "壶": 1777,
      "壹": 1778,
      "处": 1779,
      "备": 1780,
      "変": 1781,
      "复": 1782,
      "夏": 1783,
      "夔": 1784,
      "夕": 1785,
      "外": 1786,
      "夙": 1787,
      "多": 1788,
      "夜": 1789,
      "够": 1790,
      "夢": 1791,
      "大": 1792,
      "天": 1793,
      "太": 1794,
      "夫": 1795,
      "夭": 1796,
      "央": 1797,
      "夯": 1798,
      "失": 1799,
      "头": 1800,
      "夷": 1801,
      "夸": 1802,
      "夹": 1803,
      "夺": 1804,
      "奀": 1805,
      "奂": 1806,
      "奄": 1807,
      "奇": 1808,
      "奈": 1809,
      "奉": 1810,
      "奋": 1811,
      "奎": 1812,
      "奏": 1813,
      "契": 1814,
      "奔": 1815,
      "奕": 1816,
      "奖": 1817,
      "套": 1818,
      "奚": 1819,
      "奠": 1820,
      "奢": 1821,
      "奥": 1822,
      "女": 1823,
      "奴": 1824,
      "奶": 1825,
      "奸": 1826,
      "她": 1827,
      "好": 1828,
      "如": 1829,
      "妃": 1830,
      "妄": 1831,
      "妆": 1832,
      "妇": 1833,
      "妈": 1834,
      "妊": 1835,
      "妍": 1836,
      "妒": 1837,
      "妓": 1838,
      "妖": 1839,
      "妗": 1840,
      "妙": 1841,
      "妞": 1842,
      "妠": 1843,
      "妣": 1844,
      "妤": 1845,
      "妥": 1846,
      "妨": 1847,
      "妩": 1848,
      "妪": 1849,
      "妫": 1850,
      "妮": 1851,
      "妲": 1852,
      "妹": 1853,
      "妻": 1854,
      "妾": 1855,
      "姆": 1856,
      "姉": 1857,
      "姊": 1858,
      "始": 1859,
      "姐": 1860,
      "姑": 1861,
      "姒": 1862,
      "姓": 1863,
      "委": 1864,
      "姗": 1865,
      "姘": 1866,
      "姚": 1867,
      "姜": 1868,
      "姝": 1869,
      "姣": 1870,
      "姥": 1871,
      "姨": 1872,
      "姬": 1873,
      "姹": 1874,
      "姻": 1875,
      "姿": 1876,
      "威": 1877,
      "娃": 1878,
      "娄": 1879,
      "娅": 1880,
      "娆": 1881,
      "娇": 1882,
      "娈": 1883,
      "娉": 1884,
      "娑": 1885,
      "娓": 1886,
      "娘": 1887,
      "娜": 1888,
      "娟": 1889,
      "娠": 1890,
      "娣": 1891,
      "娥": 1892,
      "娩": 1893,
      "娱": 1894,
      "娲": 1895,
      "娴": 1896,
      "娶": 1897,
      "娼": 1898,
      "婀": 1899,
      "婆": 1900,
      "婉": 1901,
      "婊": 1902,
      "婍": 1903,
      "婕": 1904,
      "婚": 1905,
      "婢": 1906,
      "婧": 1907,
      "婪": 1908,
      "婴": 1909,
      "婵": 1910,
      "婶": 1911,
      "婷": 1912,
      "婺": 1913,
      "婿": 1914,
      "媒": 1915,
      "媚": 1916,
      "媛": 1917,
      "媲": 1918,
      "媳": 1919,
      "媻": 1920,
      "媾": 1921,
      "嫁": 1922,
      "嫂": 1923,
      "嫄": 1924,
      "嫉": 1925,
      "嫌": 1926,
      "嫔": 1927,
      "嫖": 1928,
      "嫘": 1929,
      "嫡": 1930,
      "嫣": 1931,
      "嫦": 1932,
      "嫩": 1933,
      "嬅": 1934,
      "嬉": 1935,
      "嬗": 1936,
      "嬛": 1937,
      "嬴": 1938,
      "嬷": 1939,
      "孀": 1940,
      "子": 1941,
      "孑": 1942,
      "孔": 1943,
      "孕": 1944,
      "字": 1945,
      "存": 1946,
      "孙": 1947,
      "孚": 1948,
      "孜": 1949,
      "孝": 1950,
      "孟": 1951,
      "孢": 1952,
      "季": 1953,
      "孤": 1954,
      "学": 1955,
      "孩": 1956,
      "孪": 1957,
      "孰": 1958,
      "孱": 1959,
      "孵": 1960,
      "孺": 1961,
      "孽": 1962,
      "宁": 1963,
      "它": 1964,
      "宅": 1965,
      "宇": 1966,
      "守": 1967,
      "安": 1968,
      "宋": 1969,
      "完": 1970,
      "宏": 1971,
      "宓": 1972,
      "宕": 1973,
      "宗": 1974,
      "官": 1975,
      "宙": 1976,
      "定": 1977,
      "宛": 1978,
      "宜": 1979,
      "宝": 1980,
      "实": 1981,
      "実": 1982,
      "宠": 1983,
      "审": 1984,
      "客": 1985,
      "宣": 1986,
      "室": 1987,
      "宥": 1988,
      "宦": 1989,
      "宪": 1990,
      "宫": 1991,
      "宰": 1992,
      "害": 1993,
      "宴": 1994,
      "宵": 1995,
      "家": 1996,
      "宸": 1997,
      "容": 1998,
      "宽": 1999,
      "宾": 2000,
      "宿": 2001,
      "寂": 2002,
      "寄": 2003,
      "寅": 2004,
      "密": 2005,
      "寇": 2006,
      "富": 2007,
      "寐": 2008,
      "寒": 2009,
      "寓": 2010,
      "寝": 2011,
      "寞": 2012,
      "察": 2013,
      "寡": 2014,
      "寤": 2015,
      "寥": 2016,
      "寨": 2017,
      "寮": 2018,
      "寰": 2019,
      "寸": 2020,
      "对": 2021,
      "寺": 2022,
      "寻": 2023,
      "导": 2024,
      "対": 2025,
      "寿": 2026,
      "封": 2027,
      "射": 2028,
      "尅": 2029,
      "将": 2030,
      "尉": 2031,
      "尊": 2032,
      "小": 2033,
      "少": 2034,
      "尔": 2035,
      "尕": 2036,
      "尖": 2037,
      "尘": 2038,
      "尚": 2039,
      "尝": 2040,
      "尤": 2041,
      "尧": 2042,
      "尬": 2043,
      "就": 2044,
      "尴": 2045,
      "尸": 2046,
      "尹": 2047,
      "尺": 2048,
      "尻": 2049,
      "尼": 2050,
      "尽": 2051,
      "尾": 2052,
      "尿": 2053,
      "局": 2054,
      "屁": 2055,
      "层": 2056,
      "居": 2057,
      "屈": 2058,
      "屉": 2059,
      "届": 2060,
      "屋": 2061,
      "屌": 2062,
      "屎": 2063,
      "屏": 2064,
      "屑": 2065,
      "展": 2066,
      "属": 2067,
      "屠": 2068,
      "屡": 2069,
      "履": 2070,
      "屮": 2071,
      "屯": 2072,
      "山": 2073,
      "屹": 2074,
      "屿": 2075,
      "岀": 2076,
      "岁": 2077,
      "岂": 2078,
      "岌": 2079,
      "岐": 2080,
      "岑": 2081,
      "岔": 2082,
      "岖": 2083,
      "岗": 2084,
      "岚": 2085,
      "岛": 2086,
      "岩": 2087,
      "岫": 2088,
      "岭": 2089,
      "岱": 2090,
      "岳": 2091,
      "岷": 2092,
      "岸": 2093,
      "岿": 2094,
      "峁": 2095,
      "峄": 2096,
      "峇": 2097,
      "峋": 2098,
      "峒": 2099,
      "峙": 2100,
      "峡": 2101,
      "峥": 2102,
      "峦": 2103,
      "峨": 2104,
      "峪": 2105,
      "峭": 2106,
      "峯": 2107,
      "峰": 2108,
      "峻": 2109,
      "崃": 2110,
      "崇": 2111,
      "崎": 2112,
      "崔": 2113,
      "崖": 2114,
      "崛": 2115,
      "崩": 2116,
      "崭": 2117,
      "崮": 2118,
      "崴": 2119,
      "崽": 2120,
      "嵇": 2121,
      "嵌": 2122,
      "嵘": 2123,
      "嵩": 2124,
      "嵫": 2125,
      "嵬": 2126,
      "嵴": 2127,
      "嶋": 2128,
      "嶙": 2129,
      "巅": 2130,
      "巍": 2131,
      "川": 2132,
      "州": 2133,
      "巡": 2134,
      "巢": 2135,
      "工": 2136,
      "左": 2137,
      "巧": 2138,
      "巨": 2139,
      "巩": 2140,
      "巫": 2141,
      "差": 2142,
      "己": 2143,
      "已": 2144,
      "巳": 2145,
      "巴": 2146,
      "巷": 2147,
      "巻": 2148,
      "巽": 2149,
      "巾": 2150,
      "币": 2151,
      "市": 2152,
      "布": 2153,
      "帅": 2154,
      "帆": 2155,
      "师": 2156,
      "希": 2157,
      "帐": 2158,
      "帕": 2159,
      "帖": 2160,
      "帘": 2161,
      "帚": 2162,
      "帛": 2163,
      "帜": 2164,
      "帝": 2165,
      "带": 2166,
      "帧": 2167,
      "席": 2168,
      "帮": 2169,
      "帷": 2170,
      "常": 2171,
      "帼": 2172,
      "帽": 2173,
      "幂": 2174,
      "幄": 2175,
      "幅": 2176,
      "幌": 2177,
      "幔": 2178,
      "幕": 2179,
      "幞": 2180,
      "幡": 2181,
      "幢": 2182,
      "幪": 2183,
      "干": 2184,
      "平": 2185,
      "年": 2186,
      "并": 2187,
      "幸": 2188,
      "幺": 2189,
      "幻": 2190,
      "幼": 2191,
      "幽": 2192,
      "广": 2193,
      "庄": 2194,
      "庆": 2195,
      "庇": 2196,
      "床": 2197,
      "序": 2198,
      "庐": 2199,
      "库": 2200,
      "应": 2201,
      "底": 2202,
      "庖": 2203,
      "店": 2204,
      "庙": 2205,
      "庚": 2206,
      "府": 2207,
      "庞": 2208,
      "废": 2209,
      "庠": 2210,
      "庥": 2211,
      "度": 2212,
      "座": 2213,
      "庭": 2214,
      "庯": 2215,
      "庵": 2216,
      "庶": 2217,
      "康": 2218,
      "庸": 2219,
      "庾": 2220,
      "廉": 2221,
      "廊": 2222,
      "廓": 2223,
      "廖": 2224,
      "廛": 2225,
      "廪": 2226,
      "延": 2227,
      "廷": 2228,
      "建": 2229,
      "廿": 2230,
      "开": 2231,
      "弁": 2232,
      "异": 2233,
      "弃": 2234,
      "弄": 2235,
      "弈": 2236,
      "弊": 2237,
      "弋": 2238,
      "式": 2239,
      "弑": 2240,
      "弓": 2241,
      "引": 2242,
      "弗": 2243,
      "弘": 2244,
      "弛": 2245,
      "弟": 2246,
      "张": 2247,
      "弢": 2248,
      "弣": 2249,
      "弥": 2250,
      "弦": 2251,
      "弧": 2252,
      "弩": 2253,
      "弭": 2254,
      "弯": 2255,
      "弱": 2256,
      "強": 2257,
      "弹": 2258,
      "强": 2259,
      "弼": 2260,
      "归": 2261,
      "当": 2262,
      "录": 2263,
      "彗": 2264,
      "彘": 2265,
      "彝": 2266,
      "形": 2267,
      "彤": 2268,
      "彦": 2269,
      "彧": 2270,
      "彩": 2271,
      "彪": 2272,
      "彬": 2273,
      "彭": 2274,
      "彰": 2275,
      "影": 2276,
      "彳": 2277,
      "彷": 2278,
      "役": 2279,
      "彻": 2280,
      "彼": 2281,
      "往": 2282,
      "征": 2283,
      "径": 2284,
      "待": 2285,
      "徇": 2286,
      "很": 2287,
      "徉": 2288,
      "徊": 2289,
      "律": 2290,
      "徐": 2291,
      "徒": 2292,
      "徕": 2293,
      "得": 2294,
      "徘": 2295,
      "徙": 2296,
      "徜": 2297,
      "御": 2298,
      "徨": 2299,
      "循": 2300,
      "徭": 2301,
      "微": 2302,
      "徳": 2303,
      "德": 2304,
      "徽": 2305,
      "心": 2306,
      "必": 2307,
      "忆": 2308,
      "忌": 2309,
      "忍": 2310,
      "忏": 2311,
      "忐": 2312,
      "忑": 2313,
      "忒": 2314,
      "忖": 2315,
      "志": 2316,
      "忘": 2317,
      "忙": 2318,
      "忝": 2319,
      "忠": 2320,
      "忡": 2321,
      "忤": 2322,
      "忧": 2323,
      "忪": 2324,
      "快": 2325,
      "忱": 2326,
      "念": 2327,
      "忻": 2328,
      "忽": 2329,
      "忾": 2330,
      "忿": 2331,
      "怀": 2332,
      "态": 2333,
      "怂": 2334,
      "怅": 2335,
      "怆": 2336,
      "怎": 2337,
      "怒": 2338,
      "怔": 2339,
      "怕": 2340,
      "怖": 2341,
      "怙": 2342,
      "怜": 2343,
      "思": 2344,
      "怠": 2345,
      "怡": 2346,
      "急": 2347,
      "怦": 2348,
      "性": 2349,
      "怨": 2350,
      "怪": 2351,
      "怯": 2352,
      "总": 2353,
      "怼": 2354,
      "怿": 2355,
      "恁": 2356,
      "恃": 2357,
      "恋": 2358,
      "恍": 2359,
      "恐": 2360,
      "恒": 2361,
      "恕": 2362,
      "恙": 2363,
      "恢": 2364,
      "恣": 2365,
      "恤": 2366,
      "恨": 2367,
      "恩": 2368,
      "恪": 2369,
      "恫": 2370,
      "恬": 2371,
      "恭": 2372,
      "息": 2373,
      "恰": 2374,
      "恳": 2375,
      "恶": 2376,
      "恸": 2377,
      "恺": 2378,
      "恻": 2379,
      "恼": 2380,
      "恽": 2381,
      "恿": 2382,
      "悄": 2383,
      "悉": 2384,
      "悍": 2385,
      "悔": 2386,
      "悖": 2387,
      "悚": 2388,
      "悟": 2389,
      "悠": 2390,
      "患": 2391,
      "悤": 2392,
      "悦": 2393,
      "您": 2394,
      "悬": 2395,
      "悯": 2396,
      "悲": 2397,
      "悴": 2398,
      "悸": 2399,
      "悺": 2400,
      "悼": 2401,
      "情": 2402,
      "惆": 2403,
      "惇": 2404,
      "惊": 2405,
      "惋": 2406,
      "惑": 2407,
      "惕": 2408,
      "惘": 2409,
      "惚": 2410,
      "惜": 2411,
      "惟": 2412,
      "惠": 2413,
      "惦": 2414,
      "惧": 2415,
      "惨": 2416,
      "惩": 2417,
      "惪": 2418,
      "惫": 2419,
      "惬": 2420,
      "惭": 2421,
      "惮": 2422,
      "惯": 2423,
      "惰": 2424,
      "想": 2425,
      "惴": 2426,
      "惶": 2427,
      "惹": 2428,
      "惺": 2429,
      "愀": 2430,
      "愁": 2431,
      "愆": 2432,
      "愈": 2433,
      "愉": 2434,
      "愎": 2435,
      "意": 2436,
      "愕": 2437,
      "愚": 2438,
      "愛": 2439,
      "感": 2440,
      "愣": 2441,
      "愤": 2442,
      "愧": 2443,
      "愫": 2444,
      "愿": 2445,
      "慈": 2446,
      "慊": 2447,
      "慌": 2448,
      "慎": 2449,
      "慑": 2450,
      "慕": 2451,
      "慢": 2452,
      "慧": 2453,
      "慨": 2454,
      "慰": 2455,
      "慵": 2456,
      "慷": 2457,
      "憋": 2458,
      "憎": 2459,
      "憔": 2460,
      "憧": 2461,
      "憨": 2462,
      "憩": 2463,
      "憬": 2464,
      "憹": 2465,
      "憾": 2466,
      "懂": 2467,
      "懈": 2468,
      "懊": 2469,
      "懋": 2470,
      "懑": 2471,
      "懒": 2472,
      "懦": 2473,
      "懵": 2474,
      "懿": 2475,
      "戈": 2476,
      "戊": 2477,
      "戋": 2478,
      "戌": 2479,
      "戍": 2480,
      "戎": 2481,
      "戏": 2482,
      "成": 2483,
      "我": 2484,
      "戒": 2485,
      "或": 2486,
      "战": 2487,
      "戚": 2488,
      "戛": 2489,
      "戟": 2490,
      "截": 2491,
      "戬": 2492,
      "戮": 2493,
      "戳": 2494,
      "戴": 2495,
      "户": 2496,
      "戾": 2497,
      "房": 2498,
      "所": 2499,
      "扁": 2500,
      "扇": 2501,
      "扈": 2502,
      "扉": 2503,
      "手": 2504,
      "扌": 2505,
      "才": 2506,
      "扎": 2507,
      "扑": 2508,
      "扒": 2509,
      "打": 2510,
      "扔": 2511,
      "托": 2512,
      "扛": 2513,
      "扣": 2514,
      "扥": 2515,
      "扦": 2516,
      "执": 2517,
      "扩": 2518,
      "扪": 2519,
      "扫": 2520,
      "扬": 2521,
      "扭": 2522,
      "扮": 2523,
      "扯": 2524,
      "扰": 2525,
      "扳": 2526,
      "扶": 2527,
      "批": 2528,
      "扼": 2529,
      "找": 2530,
      "承": 2531,
      "技": 2532,
      "抄": 2533,
      "抉": 2534,
      "把": 2535,
      "抑": 2536,
      "抒": 2537,
      "抓": 2538,
      "抔": 2539,
      "投": 2540,
      "抖": 2541,
      "抗": 2542,
      "折": 2543,
      "抚": 2544,
      "抛": 2545,
      "抠": 2546,
      "抡": 2547,
      "抢": 2548,
      "护": 2549,
      "报": 2550,
      "抨": 2551,
      "披": 2552,
      "抬": 2553,
      "抱": 2554,
      "抵": 2555,
      "抹": 2556,
      "抻": 2557,
      "押": 2558,
      "抽": 2559,
      "抿": 2560,
      "拂": 2561,
      "拄": 2562,
      "担": 2563,
      "拆": 2564,
      "拇": 2565,
      "拈": 2566,
      "拉": 2567,
      "拌": 2568,
      "拍": 2569,
      "拎": 2570,
      "拐": 2571,
      "拒": 2572,
      "拓": 2573,
      "拔": 2574,
      "拖": 2575,
      "拗": 2576,
      "拘": 2577,
      "拙": 2578,
      "招": 2579,
      "拜": 2580,
      "拟": 2581,
      "拢": 2582,
      "拣": 2583,
      "拥": 2584,
      "拦": 2585,
      "拧": 2586,
      "拨": 2587,
      "择": 2588,
      "括": 2589,
      "拭": 2590,
      "拮": 2591,
      "拯": 2592,
      "拱": 2593,
      "拳": 2594,
      "拴": 2595,
      "拷": 2596,
      "拼": 2597,
      "拽": 2598,
      "拾": 2599,
      "拿": 2600,
      "挀": 2601,
      "持": 2602,
      "挂": 2603,
      "指": 2604,
      "挈": 2605,
      "按": 2606,
      "挎": 2607,
      "挑": 2608,
      "挖": 2609,
      "挙": 2610,
      "挚": 2611,
      "挛": 2612,
      "挝": 2613,
      "挞": 2614,
      "挟": 2615,
      "挠": 2616,
      "挡": 2617,
      "挣": 2618,
      "挤": 2619,
      "挥": 2620,
      "挨": 2621,
      "挪": 2622,
      "挫": 2623,
      "振": 2624,
      "挲": 2625,
      "挺": 2626,
      "挽": 2627,
      "捂": 2628,
      "捅": 2629,
      "捆": 2630,
      "捉": 2631,
      "捋": 2632,
      "捍": 2633,
      "捎": 2634,
      "捏": 2635,
      "捐": 2636,
      "捕": 2637,
      "捞": 2638,
      "损": 2639,
      "捡": 2640,
      "换": 2641,
      "捣": 2642,
      "捧": 2643,
      "据": 2644,
      "捶": 2645,
      "捷": 2646,
      "捺": 2647,
      "捻": 2648,
      "掀": 2649,
      "掂": 2650,
      "掇": 2651,
      "授": 2652,
      "掉": 2653,
      "掌": 2654,
      "掏": 2655,
      "掐": 2656,
      "排": 2657,
      "掖": 2658,
      "掘": 2659,
      "掛": 2660,
      "掠": 2661,
      "探": 2662,
      "掣": 2663,
      "接": 2664,
      "控": 2665,
      "推": 2666,
      "掩": 2667,
      "措": 2668,
      "掬": 2669,
      "掭": 2670,
      "掰": 2671,
      "掳": 2672,
      "掷": 2673,
      "掸": 2674,
      "掺": 2675,
      "揆": 2676,
      "揉": 2677,
      "揍": 2678,
      "描": 2679,
      "提": 2680,
      "插": 2681,
      "揖": 2682,
      "握": 2683,
      "揣": 2684,
      "揩": 2685,
      "揪": 2686,
      "揭": 2687,
      "援": 2688,
      "揽": 2689,
      "搀": 2690,
      "搁": 2691,
      "搂": 2692,
      "搅": 2693,
      "搌": 2694,
      "搏": 2695,
      "搐": 2696,
      "搓": 2697,
      "搔": 2698,
      "搜": 2699,
      "搞": 2700,
      "搡": 2701,
      "搦": 2702,
      "搪": 2703,
      "搬": 2704,
      "搭": 2705,
      "携": 2706,
      "搽": 2707,
      "摁": 2708,
      "摄": 2709,
      "摆": 2710,
      "摇": 2711,
      "摈": 2712,
      "摊": 2713,
      "摒": 2714,
      "摔": 2715,
      "摘": 2716,
      "摞": 2717,
      "摧": 2718,
      "摩": 2719,
      "摸": 2720,
      "摹": 2721,
      "撂": 2722,
      "撅": 2723,
      "撇": 2724,
      "撑": 2725,
      "撒": 2726,
      "撕": 2727,
      "撙": 2728,
      "撞": 2729,
      "撤": 2730,
      "撩": 2731,
      "撬": 2732,
      "播": 2733,
      "撮": 2734,
      "撰": 2735,
      "撵": 2736,
      "撷": 2737,
      "撸": 2738,
      "撺": 2739,
      "撼": 2740,
      "擀": 2741,
      "擂": 2742,
      "擅": 2743,
      "操": 2744,
      "擎": 2745,
      "擒": 2746,
      "擗": 2747,
      "擘": 2748,
      "擞": 2749,
      "擢": 2750,
      "擦": 2751,
      "攀": 2752,
      "攒": 2753,
      "攘": 2754,
      "攥": 2755,
      "攫": 2756,
      "支": 2757,
      "收": 2758,
      "攸": 2759,
      "改": 2760,
      "攻": 2761,
      "放": 2762,
      "政": 2763,
      "故": 2764,
      "效": 2765,
      "敌": 2766,
      "敏": 2767,
      "救": 2768,
      "敕": 2769,
      "敖": 2770,
      "教": 2771,
      "敛": 2772,
      "敝": 2773,
      "敞": 2774,
      "敢": 2775,
      "散": 2776,
      "敦": 2777,
      "敬": 2778,
      "数": 2779,
      "敲": 2780,
      "整": 2781,
      "敷": 2782,
      "文": 2783,
      "斋": 2784,
      "斌": 2785,
      "斐": 2786,
      "斑": 2787,
      "斓": 2788,
      "斗": 2789,
      "料": 2790,
      "斛": 2791,
      "斜": 2792,
      "斟": 2793,
      "斡": 2794,
      "斤": 2795,
      "斥": 2796,
      "斧": 2797,
      "斩": 2798,
      "断": 2799,
      "斯": 2800,
      "新": 2801,
      "方": 2802,
      "於": 2803,
      "施": 2804,
      "旁": 2805,
      "旅": 2806,
      "旋": 2807,
      "旌": 2808,
      "旎": 2809,
      "族": 2810,
      "旖": 2811,
      "旗": 2812,
      "无": 2813,
      "既": 2814,
      "日": 2815,
      "旦": 2816,
      "旧": 2817,
      "旨": 2818,
      "早": 2819,
      "旬": 2820,
      "旭": 2821,
      "旮": 2822,
      "旯": 2823,
      "旱": 2824,
      "时": 2825,
      "旷": 2826,
      "旸": 2827,
      "旺": 2828,
      "旻": 2829,
      "昀": 2830,
      "昂": 2831,
      "昆": 2832,
      "昊": 2833,
      "昌": 2834,
      "明": 2835,
      "昏": 2836,
      "易": 2837,
      "昔": 2838,
      "昕": 2839,
      "昙": 2840,
      "星": 2841,
      "映": 2842,
      "春": 2843,
      "昧": 2844,
      "昨": 2845,
      "昭": 2846,
      "是": 2847,
      "昱": 2848,
      "昴": 2849,
      "昵": 2850,
      "昶": 2851,
      "昼": 2852,
      "显": 2853,
      "晃": 2854,
      "晋": 2855,
      "晌": 2856,
      "晏": 2857,
      "晒": 2858,
      "晓": 2859,
      "晔": 2860,
      "晕": 2861,
      "晖": 2862,
      "晗": 2863,
      "晚": 2864,
      "晞": 2865,
      "晟": 2866,
      "晢": 2867,
      "晤": 2868,
      "晦": 2869,
      "晨": 2870,
      "普": 2871,
      "景": 2872,
      "晰": 2873,
      "晴": 2874,
      "晶": 2875,
      "晷": 2876,
      "智": 2877,
      "晾": 2878,
      "暁": 2879,
      "暂": 2880,
      "暄": 2881,
      "暇": 2882,
      "暐": 2883,
      "暑": 2884,
      "暖": 2885,
      "暗": 2886,
      "暧": 2887,
      "暨": 2888,
      "暮": 2889,
      "暴": 2890,
      "暹": 2891,
      "曙": 2892,
      "曛": 2893,
      "曜": 2894,
      "曝": 2895,
      "曦": 2896,
      "曩": 2897,
      "曰": 2898,
      "曲": 2899,
      "曳": 2900,
      "更": 2901,
      "曹": 2902,
      "曼": 2903,
      "曾": 2904,
      "替": 2905,
      "最": 2906,
      "月": 2907,
      "有": 2908,
      "朊": 2909,
      "朋": 2910,
      "服": 2911,
      "朓": 2912,
      "朔": 2913,
      "朕": 2914,
      "朗": 2915,
      "望": 2916,
      "朝": 2917,
      "期": 2918,
      "朦": 2919,
      "木": 2920,
      "未": 2921,
      "末": 2922,
      "本": 2923,
      "札": 2924,
      "术": 2925,
      "朱": 2926,
      "朴": 2927,
      "朵": 2928,
      "机": 2929,
      "朽": 2930,
      "杀": 2931,
      "杂": 2932,
      "权": 2933,
      "杆": 2934,
      "杈": 2935,
      "杉": 2936,
      "杌": 2937,
      "李": 2938,
      "杏": 2939,
      "材": 2940,
      "村": 2941,
      "杓": 2942,
      "杖": 2943,
      "杜": 2944,
      "杞": 2945,
      "束": 2946,
      "杠": 2947,
      "条": 2948,
      "来": 2949,
      "杨": 2950,
      "杭": 2951,
      "杯": 2952,
      "杰": 2953,
      "東": 2954,
      "杳": 2955,
      "杵": 2956,
      "杷": 2957,
      "松": 2958,
      "板": 2959,
      "极": 2960,
      "构": 2961,
      "枇": 2962,
      "枉": 2963,
      "枋": 2964,
      "析": 2965,
      "枕": 2966,
      "林": 2967,
      "枘": 2968,
      "枚": 2969,
      "果": 2970,
      "枝": 2971,
      "枢": 2972,
      "枣": 2973,
      "枧": 2974,
      "枪": 2975,
      "枫": 2976,
      "枭": 2977,
      "枯": 2978,
      "枳": 2979,
      "架": 2980,
      "枷": 2981,
      "枸": 2982,
      "柄": 2983,
      "柏": 2984,
      "某": 2985,
      "柑": 2986,
      "柒": 2987,
      "染": 2988,
      "柔": 2989,
      "柘": 2990,
      "柚": 2991,
      "柜": 2992,
      "柞": 2993,
      "柠": 2994,
      "查": 2995,
      "柩": 2996,
      "柬": 2997,
      "柯": 2998,
      "柰": 2999,
      "柱": 3000,
      "柳": 3001,
      "柴": 3002,
      "柿": 3003,
      "栀": 3004,
      "栅": 3005,
      "标": 3006,
      "栈": 3007,
      "栉": 3008,
      "栋": 3009,
      "栌": 3010,
      "栎": 3011,
      "栏": 3012,
      "树": 3013,
      "栓": 3014,
      "栖": 3015,
      "栗": 3016,
      "校": 3017,
      "栩": 3018,
      "株": 3019,
      "样": 3020,
      "核": 3021,
      "根": 3022,
      "格": 3023,
      "栽": 3024,
      "栾": 3025,
      "桀": 3026,
      "桁": 3027,
      "桂": 3028,
      "桃": 3029,
      "桅": 3030,
      "框": 3031,
      "案": 3032,
      "桉": 3033,
      "桌": 3034,
      "桎": 3035,
      "桐": 3036,
      "桑": 3037,
      "桓": 3038,
      "桔": 3039,
      "桠": 3040,
      "桢": 3041,
      "档": 3042,
      "桥": 3043,
      "桦": 3044,
      "桧": 3045,
      "桨": 3046,
      "桩": 3047,
      "桶": 3048,
      "梁": 3049,
      "梅": 3050,
      "梆": 3051,
      "梏": 3052,
      "梓": 3053,
      "梗": 3054,
      "梢": 3055,
      "梦": 3056,
      "梧": 3057,
      "梨": 3058,
      "梭": 3059,
      "梯": 3060,
      "械": 3061,
      "梳": 3062,
      "梵": 3063,
      "检": 3064,
      "棂": 3065,
      "棉": 3066,
      "棋": 3067,
      "棍": 3068,
      "棒": 3069,
      "棕": 3070,
      "棘": 3071,
      "棚": 3072,
      "棠": 3073,
      "棣": 3074,
      "森": 3075,
      "棱": 3076,
      "棵": 3077,
      "棺": 3078,
      "椁": 3079,
      "椅": 3080,
      "植": 3081,
      "椎": 3082,
      "椒": 3083,
      "検": 3084,
      "椭": 3085,
      "椰": 3086,
      "椴": 3087,
      "椹": 3088,
      "椽": 3089,
      "椿": 3090,
      "楂": 3091,
      "楔": 3092,
      "楚": 3093,
      "楝": 3094,
      "楞": 3095,
      "楠": 3096,
      "楣": 3097,
      "楦": 3098,
      "楫": 3099,
      "楮": 3100,
      "楴": 3101,
      "楷": 3102,
      "楸": 3103,
      "楹": 3104,
      "楼": 3105,
      "楽": 3106,
      "概": 3107,
      "榄": 3108,
      "榆": 3109,
      "榈": 3110,
      "榉": 3111,
      "榑": 3112,
      "榔": 3113,
      "榕": 3114,
      "榖": 3115,
      "榛": 3116,
      "榜": 3117,
      "榨": 3118,
      "榫": 3119,
      "榭": 3120,
      "榴": 3121,
      "榷": 3122,
      "榻": 3123,
      "槃": 3124,
      "構": 3125,
      "槌": 3126,
      "槎": 3127,
      "槐": 3128,
      "槛": 3129,
      "槟": 3130,
      "槲": 3131,
      "槽": 3132,
      "槿": 3133,
      "樀": 3134,
      "樊": 3135,
      "樘": 3136,
      "樟": 3137,
      "模": 3138,
      "横": 3139,
      "樱": 3140,
      "樵": 3141,
      "樽": 3142,
      "橄": 3143,
      "橇": 3144,
      "橐": 3145,
      "橘": 3146,
      "橙": 3147,
      "橡": 3148,
      "橦": 3149,
      "橱": 3150,
      "檀": 3151,
      "檐": 3152,
      "檗": 3153,
      "檬": 3154,
      "檽": 3155,
      "欠": 3156,
      "次": 3157,
      "欢": 3158,
      "欣": 3159,
      "欤": 3160,
      "欧": 3161,
      "欲": 3162,
      "欹": 3163,
      "欺": 3164,
      "款": 3165,
      "歆": 3166,
      "歇": 3167,
      "歉": 3168,
      "歌": 3169,
      "歙": 3170,
      "止": 3171,
      "正": 3172,
      "此": 3173,
      "步": 3174,
      "武": 3175,
      "歧": 3176,
      "歪": 3177,
      "歹": 3178,
      "死": 3179,
      "歼": 3180,
      "殁": 3181,
      "殃": 3182,
      "殄": 3183,
      "殆": 3184,
      "殇": 3185,
      "殉": 3186,
      "殊": 3187,
      "残": 3188,
      "殒": 3189,
      "殓": 3190,
      "殖": 3191,
      "殡": 3192,
      "殪": 3193,
      "殴": 3194,
      "段": 3195,
      "殷": 3196,
      "殿": 3197,
      "毁": 3198,
      "毂": 3199,
      "毅": 3200,
      "毋": 3201,
      "母": 3202,
      "毎": 3203,
      "每": 3204,
      "毒": 3205,
      "毓": 3206,
      "比": 3207,
      "毕": 3208,
      "毖": 3209,
      "毗": 3210,
      "毙": 3211,
      "毛": 3212,
      "毡": 3213,
      "毫": 3214,
      "毯": 3215,
      "毽": 3216,
      "氀": 3217,
      "氅": 3218,
      "氏": 3219,
      "氐": 3220,
      "民": 3221,
      "氓": 3222,
      "气": 3223,
      "気": 3224,
      "氙": 3225,
      "氛": 3226,
      "氟": 3227,
      "氢": 3228,
      "氤": 3229,
      "氦": 3230,
      "氧": 3231,
      "氨": 3232,
      "氪": 3233,
      "氮": 3234,
      "氯": 3235,
      "氰": 3236,
      "氲": 3237,
      "水": 3238,
      "氵": 3239,
      "永": 3240,
      "汀": 3241,
      "汁": 3242,
      "求": 3243,
      "汆": 3244,
      "汇": 3245,
      "汉": 3246,
      "汐": 3247,
      "汕": 3248,
      "汗": 3249,
      "汛": 3250,
      "汝": 3251,
      "汞": 3252,
      "江": 3253,
      "池": 3254,
      "污": 3255,
      "汤": 3256,
      "汩": 3257,
      "汪": 3258,
      "汰": 3259,
      "汲": 3260,
      "汴": 3261,
      "汶": 3262,
      "汹": 3263,
      "汽": 3264,
      "汾": 3265,
      "沁": 3266,
      "沂": 3267,
      "沃": 3268,
      "沄": 3269,
      "沅": 3270,
      "沈": 3271,
      "沉": 3272,
      "沌": 3273,
      "沏": 3274,
      "沐": 3275,
      "沓": 3276,
      "沙": 3277,
      "沛": 3278,
      "沟": 3279,
      "没": 3280,
      "沣": 3281,
      "沤": 3282,
      "沥": 3283,
      "沦": 3284,
      "沧": 3285,
      "沪": 3286,
      "沫": 3287,
      "沬": 3288,
      "沮": 3289,
      "沱": 3290,
      "河": 3291,
      "沸": 3292,
      "油": 3293,
      "沺": 3294,
      "治": 3295,
      "沼": 3296,
      "沽": 3297,
      "沾": 3298,
      "沿": 3299,
      "泄": 3300,
      "泅": 3301,
      "泉": 3302,
      "泊": 3303,
      "泌": 3304,
      "法": 3305,
      "泗": 3306,
      "泛": 3307,
      "泞": 3308,
      "泠": 3309,
      "泡": 3310,
      "波": 3311,
      "泣": 3312,
      "泥": 3313,
      "注": 3314,
      "泪": 3315,
      "泫": 3316,
      "泮": 3317,
      "泯": 3318,
      "泰": 3319,
      "泱": 3320,
      "泳": 3321,
      "泵": 3322,
      "泷": 3323,
      "泸": 3324,
      "泻": 3325,
      "泼": 3326,
      "泽": 3327,
      "泾": 3328,
      "洀": 3329,
      "洁": 3330,
      "洋": 3331,
      "洒": 3332,
      "洗": 3333,
      "洙": 3334,
      "洛": 3335,
      "洞": 3336,
      "津": 3337,
      "洧": 3338,
      "洪": 3339,
      "洮": 3340,
      "洱": 3341,
      "洲": 3342,
      "洵": 3343,
      "活": 3344,
      "洼": 3345,
      "洽": 3346,
      "派": 3347,
      "流": 3348,
      "浃": 3349,
      "浅": 3350,
      "浆": 3351,
      "浇": 3352,
      "浈": 3353,
      "浊": 3354,
      "测": 3355,
      "济": 3356,
      "浏": 3357,
      "浑": 3358,
      "浒": 3359,
      "浓": 3360,
      "浔": 3361,
      "浙": 3362,
      "浚": 3363,
      "浜": 3364,
      "浠": 3365,
      "浣": 3366,
      "浦": 3367,
      "浩": 3368,
      "浪": 3369,
      "浮": 3370,
      "浯": 3371,
      "浴": 3372,
      "海": 3373,
      "浸": 3374,
      "涂": 3375,
      "涅": 3376,
      "消": 3377,
      "涉": 3378,
      "涌": 3379,
      "涎": 3380,
      "涓": 3381,
      "涕": 3382,
      "涛": 3383,
      "涝": 3384,
      "涞": 3385,
      "涟": 3386,
      "涡": 3387,
      "涣": 3388,
      "涤": 3389,
      "润": 3390,
      "涧": 3391,
      "涨": 3392,
      "涩": 3393,
      "涪": 3394,
      "涮": 3395,
      "涯": 3396,
      "液": 3397,
      "涵": 3398,
      "涸": 3399,
      "淀": 3400,
      "淄": 3401,
      "淅": 3402,
      "淆": 3403,
      "淇": 3404,
      "淋": 3405,
      "淌": 3406,
      "淑": 3407,
      "淖": 3408,
      "淘": 3409,
      "淙": 3410,
      "淝": 3411,
      "淡": 3412,
      "淤": 3413,
      "淫": 3414,
      "淬": 3415,
      "淮": 3416,
      "深": 3417,
      "淳": 3418,
      "混": 3419,
      "淹": 3420,
      "添": 3421,
      "淼": 3422,
      "渀": 3423,
      "清": 3424,
      "渊": 3425,
      "渍": 3426,
      "渎": 3427,
      "渐": 3428,
      "渑": 3429,
      "渔": 3430,
      "渗": 3431,
      "渚": 3432,
      "減": 3433,
      "渝": 3434,
      "渠": 3435,
      "渡": 3436,
      "渣": 3437,
      "渤": 3438,
      "渥": 3439,
      "温": 3440,
      "渭": 3441,
      "港": 3442,
      "渲": 3443,
      "渴": 3444,
      "游": 3445,
      "渺": 3446,
      "渼": 3447,
      "湃": 3448,
      "湄": 3449,
      "湍": 3450,
      "湖": 3451,
      "湘": 3452,
      "湛": 3453,
      "湝": 3454,
      "湯": 3455,
      "湾": 3456,
      "湿": 3457,
      "溃": 3458,
      "溅": 3459,
      "溉": 3460,
      "溏": 3461,
      "源": 3462,
      "溜": 3463,
      "溟": 3464,
      "溢": 3465,
      "溥": 3466,
      "溪": 3467,
      "溯": 3468,
      "溴": 3469,
      "溶": 3470,
      "溺": 3471,
      "滁": 3472,
      "滂": 3473,
      "滇": 3474,
      "滋": 3475,
      "滑": 3476,
      "滓": 3477,
      "滔": 3478,
      "滕": 3479,
      "滗": 3480,
      "滚": 3481,
      "滞": 3482,
      "满": 3483,
      "滤": 3484,
      "滥": 3485,
      "滨": 3486,
      "滩": 3487,
      "滴": 3488,
      "滺": 3489,
      "漂": 3490,
      "漆": 3491,
      "漉": 3492,
      "漏": 3493,
      "漓": 3494,
      "演": 3495,
      "漕": 3496,
      "漠": 3497,
      "漩": 3498,
      "漪": 3499,
      "漫": 3500,
      "漯": 3501,
      "漱": 3502,
      "漳": 3503,
      "漾": 3504,
      "潇": 3505,
      "潍": 3506,
      "潘": 3507,
      "潜": 3508,
      "潞": 3509,
      "潢": 3510,
      "潦": 3511,
      "潭": 3512,
      "潮": 3513,
      "潴": 3514,
      "潸": 3515,
      "潺": 3516,
      "潼": 3517,
      "澄": 3518,
      "澈": 3519,
      "澍": 3520,
      "澎": 3521,
      "澜": 3522,
      "澡": 3523,
      "澳": 3524,
      "澹": 3525,
      "激": 3526,
      "濂": 3527,
      "濈": 3528,
      "濉": 3529,
      "濒": 3530,
      "濛": 3531,
      "濞": 3532,
      "濠": 3533,
      "濡": 3534,
      "濮": 3535,
      "濯": 3536,
      "瀑": 3537,
      "瀚": 3538,
      "瀛": 3539,
      "灌": 3540,
      "灏": 3541,
      "火": 3542,
      "灭": 3543,
      "灯": 3544,
      "灰": 3545,
      "灵": 3546,
      "灶": 3547,
      "灸": 3548,
      "灼": 3549,
      "灾": 3550,
      "灿": 3551,
      "炀": 3552,
      "炁": 3553,
      "炅": 3554,
      "炆": 3555,
      "炉": 3556,
      "炊": 3557,
      "炎": 3558,
      "炒": 3559,
      "炔": 3560,
      "炕": 3561,
      "炖": 3562,
      "炘": 3563,
      "炙": 3564,
      "炜": 3565,
      "炝": 3566,
      "炫": 3567,
      "炬": 3568,
      "炭": 3569,
      "炮": 3570,
      "炯": 3571,
      "炳": 3572,
      "炸": 3573,
      "点": 3574,
      "炻": 3575,
      "炼": 3576,
      "炽": 3577,
      "烀": 3578,
      "烁": 3579,
      "烂": 3580,
      "烃": 3581,
      "烈": 3582,
      "烊": 3583,
      "烘": 3584,
      "烙": 3585,
      "烛": 3586,
      "烜": 3587,
      "烟": 3588,
      "烤": 3589,
      "烦": 3590,
      "烧": 3591,
      "烨": 3592,
      "烩": 3593,
      "烫": 3594,
      "烬": 3595,
      "热": 3596,
      "烯": 3597,
      "烷": 3598,
      "烹": 3599,
      "烽": 3600,
      "焉": 3601,
      "焊": 3602,
      "焐": 3603,
      "焓": 3604,
      "焕": 3605,
      "焖": 3606,
      "焗": 3607,
      "焘": 3608,
      "焙": 3609,
      "焚": 3610,
      "焦": 3611,
      "焪": 3612,
      "焯": 3613,
      "焰": 3614,
      "焱": 3615,
      "然": 3616,
      "煊": 3617,
      "煌": 3618,
      "煎": 3619,
      "煜": 3620,
      "煞": 3621,
      "煤": 3622,
      "煦": 3623,
      "照": 3624,
      "煨": 3625,
      "煮": 3626,
      "煲": 3627,
      "煳": 3628,
      "煸": 3629,
      "煽": 3630,
      "熄": 3631,
      "熊": 3632,
      "熏": 3633,
      "熔": 3634,
      "熘": 3635,
      "熙": 3636,
      "熜": 3637,
      "熟": 3638,
      "熠": 3639,
      "熨": 3640,
      "熬": 3641,
      "熳": 3642,
      "熵": 3643,
      "熹": 3644,
      "燃": 3645,
      "燎": 3646,
      "燕": 3647,
      "燝": 3648,
      "燥": 3649,
      "燧": 3650,
      "爆": 3651,
      "爌": 3652,
      "爝": 3653,
      "爪": 3654,
      "爬": 3655,
      "爱": 3656,
      "爵": 3657,
      "父": 3658,
      "爷": 3659,
      "爸": 3660,
      "爹": 3661,
      "爻": 3662,
      "爽": 3663,
      "爿": 3664,
      "片": 3665,
      "版": 3666,
      "牌": 3667,
      "牒": 3668,
      "牖": 3669,
      "牙": 3670,
      "牛": 3671,
      "牝": 3672,
      "牟": 3673,
      "牡": 3674,
      "牢": 3675,
      "牤": 3676,
      "牦": 3677,
      "牧": 3678,
      "物": 3679,
      "牲": 3680,
      "牵": 3681,
      "特": 3682,
      "牺": 3683,
      "牾": 3684,
      "犀": 3685,
      "犁": 3686,
      "犄": 3687,
      "犊": 3688,
      "犒": 3689,
      "犟": 3690,
      "犬": 3691,
      "犯": 3692,
      "状": 3693,
      "犷": 3694,
      "犸": 3695,
      "犹": 3696,
      "犽": 3697,
      "狂": 3698,
      "狄": 3699,
      "狈": 3700,
      "狐": 3701,
      "狒": 3702,
      "狗": 3703,
      "狙": 3704,
      "狞": 3705,
      "狠": 3706,
      "狡": 3707,
      "狩": 3708,
      "独": 3709,
      "狭": 3710,
      "狮": 3711,
      "狰": 3712,
      "狱": 3713,
      "狸": 3714,
      "狼": 3715,
      "猀": 3716,
      "猎": 3717,
      "猕": 3718,
      "猖": 3719,
      "猛": 3720,
      "猜": 3721,
      "猝": 3722,
      "猥": 3723,
      "猩": 3724,
      "猪": 3725,
      "猫": 3726,
      "猬": 3727,
      "献": 3728,
      "猴": 3729,
      "猷": 3730,
      "猾": 3731,
      "猿": 3732,
      "獒": 3733,
      "獗": 3734,
      "獠": 3735,
      "獭": 3736,
      "玄": 3737,
      "率": 3738,
      "玉": 3739,
      "王": 3740,
      "玏": 3741,
      "玐": 3742,
      "玑": 3743,
      "玖": 3744,
      "玛": 3745,
      "玟": 3746,
      "玥": 3747,
      "玩": 3748,
      "玫": 3749,
      "玭": 3750,
      "玮": 3751,
      "环": 3752,
      "现": 3753,
      "玲": 3754,
      "玳": 3755,
      "玷": 3756,
      "玺": 3757,
      "玻": 3758,
      "珀": 3759,
      "珂": 3760,
      "珅": 3761,
      "珈": 3762,
      "珉": 3763,
      "珊": 3764,
      "珍": 3765,
      "珏": 3766,
      "珐": 3767,
      "珑": 3768,
      "珞": 3769,
      "珠": 3770,
      "珣": 3771,
      "珪": 3772,
      "班": 3773,
      "珲": 3774,
      "珺": 3775,
      "現": 3776,
      "球": 3777,
      "琅": 3778,
      "理": 3779,
      "琇": 3780,
      "琉": 3781,
      "琊": 3782,
      "琍": 3783,
      "琎": 3784,
      "琏": 3785,
      "琐": 3786,
      "琛": 3787,
      "琢": 3788,
      "琥": 3789,
      "琦": 3790,
      "琨": 3791,
      "琪": 3792,
      "琮": 3793,
      "琰": 3794,
      "琳": 3795,
      "琴": 3796,
      "琵": 3797,
      "琶": 3798,
      "琼": 3799,
      "瑁": 3800,
      "瑄": 3801,
      "瑕": 3802,
      "瑗": 3803,
      "瑙": 3804,
      "瑚": 3805,
      "瑛": 3806,
      "瑜": 3807,
      "瑞": 3808,
      "瑟": 3809,
      "瑰": 3810,
      "瑶": 3811,
      "瑾": 3812,
      "璀": 3813,
      "璃": 3814,
      "璇": 3815,
      "璋": 3816,
      "璎": 3817,
      "璐": 3818,
      "璜": 3819,
      "璞": 3820,
      "璧": 3821,
      "璨": 3822,
      "瓜": 3823,
      "瓠": 3824,
      "瓢": 3825,
      "瓣": 3826,
      "瓤": 3827,
      "瓦": 3828,
      "瓮": 3829,
      "瓯": 3830,
      "瓴": 3831,
      "瓶": 3832,
      "瓷": 3833,
      "甄": 3834,
      "甑": 3835,
      "甘": 3836,
      "甙": 3837,
      "甚": 3838,
      "甜": 3839,
      "生": 3840,
      "甥": 3841,
      "用": 3842,
      "甩": 3843,
      "甫": 3844,
      "甬": 3845,
      "甭": 3846,
      "田": 3847,
      "由": 3848,
      "甲": 3849,
      "申": 3850,
      "电": 3851,
      "男": 3852,
      "甸": 3853,
      "町": 3854,
      "画": 3855,
      "畀": 3856,
      "畅": 3857,
      "畈": 3858,
      "界": 3859,
      "畏": 3860,
      "畔": 3861,
      "留": 3862,
      "畜": 3863,
      "略": 3864,
      "畦": 3865,
      "番": 3866,
      "畲": 3867,
      "畴": 3868,
      "畸": 3869,
      "畿": 3870,
      "疃": 3871,
      "疆": 3872,
      "疎": 3873,
      "疏": 3874,
      "疑": 3875,
      "疗": 3876,
      "疙": 3877,
      "疚": 3878,
      "疝": 3879,
      "疟": 3880,
      "疡": 3881,
      "疤": 3882,
      "疫": 3883,
      "疬": 3884,
      "疮": 3885,
      "疯": 3886,
      "疱": 3887,
      "疲": 3888,
      "疴": 3889,
      "疵": 3890,
      "疸": 3891,
      "疹": 3892,
      "疼": 3893,
      "疾": 3894,
      "痂": 3895,
      "病": 3896,
      "症": 3897,
      "痈": 3898,
      "痉": 3899,
      "痊": 3900,
      "痍": 3901,
      "痒": 3902,
      "痔": 3903,
      "痕": 3904,
      "痘": 3905,
      "痛": 3906,
      "痞": 3907,
      "痢": 3908,
      "痣": 3909,
      "痤": 3910,
      "痨": 3911,
      "痪": 3912,
      "痫": 3913,
      "痰": 3914,
      "痱": 3915,
      "痴": 3916,
      "痹": 3917,
      "痼": 3918,
      "痿": 3919,
      "瘀": 3920,
      "瘁": 3921,
      "瘆": 3922,
      "瘘": 3923,
      "瘙": 3924,
      "瘟": 3925,
      "瘠": 3926,
      "瘢": 3927,
      "瘤": 3928,
      "瘦": 3929,
      "瘩": 3930,
      "瘪": 3931,
      "瘫": 3932,
      "瘰": 3933,
      "瘴": 3934,
      "瘸": 3935,
      "瘾": 3936,
      "癌": 3937,
      "癖": 3938,
      "癜": 3939,
      "癣": 3940,
      "癫": 3941,
      "癵": 3942,
      "癸": 3943,
      "登": 3944,
      "白": 3945,
      "百": 3946,
      "皂": 3947,
      "的": 3948,
      "皆": 3949,
      "皇": 3950,
      "皈": 3951,
      "皋": 3952,
      "皎": 3953,
      "皑": 3954,
      "皓": 3955,
      "皖": 3956,
      "皙": 3957,
      "皞": 3958,
      "皤": 3959,
      "皮": 3960,
      "皱": 3961,
      "皴": 3962,
      "皿": 3963,
      "盂": 3964,
      "盅": 3965,
      "盆": 3966,
      "盈": 3967,
      "益": 3968,
      "盎": 3969,
      "盏": 3970,
      "盐": 3971,
      "监": 3972,
      "盒": 3973,
      "盔": 3974,
      "盖": 3975,
      "盗": 3976,
      "盘": 3977,
      "盛": 3978,
      "盟": 3979,
      "目": 3980,
      "盯": 3981,
      "盰": 3982,
      "盲": 3983,
      "直": 3984,
      "相": 3985,
      "盹": 3986,
      "盼": 3987,
      "盾": 3988,
      "眀": 3989,
      "省": 3990,
      "眈": 3991,
      "眉": 3992,
      "看": 3993,
      "真": 3994,
      "眠": 3995,
      "眦": 3996,
      "眨": 3997,
      "眩": 3998,
      "眯": 3999,
      "眶": 4000,
      "眷": 4001,
      "眸": 4002,
      "眺": 4003,
      "眼": 4004,
      "着": 4005,
      "睁": 4006,
      "睇": 4007,
      "睐": 4008,
      "睑": 4009,
      "睛": 4010,
      "睡": 4011,
      "睢": 4012,
      "督": 4013,
      "睦": 4014,
      "睫": 4015,
      "睬": 4016,
      "睹": 4017,
      "睽": 4018,
      "睾": 4019,
      "睿": 4020,
      "瞄": 4021,
      "瞅": 4022,
      "瞋": 4023,
      "瞌": 4024,
      "瞎": 4025,
      "瞑": 4026,
      "瞒": 4027,
      "瞟": 4028,
      "瞠": 4029,
      "瞤": 4030,
      "瞥": 4031,
      "瞧": 4032,
      "瞩": 4033,
      "瞪": 4034,
      "瞬": 4035,
      "瞭": 4036,
      "瞰": 4037,
      "瞳": 4038,
      "瞻": 4039,
      "瞿": 4040,
      "矍": 4041,
      "矗": 4042,
      "矛": 4043,
      "矜": 4044,
      "矢": 4045,
      "矣": 4046,
      "知": 4047,
      "矩": 4048,
      "矫": 4049,
      "短": 4050,
      "矮": 4051,
      "石": 4052,
      "矶": 4053,
      "矾": 4054,
      "矿": 4055,
      "码": 4056,
      "砂": 4057,
      "砌": 4058,
      "砍": 4059,
      "研": 4060,
      "砖": 4061,
      "砗": 4062,
      "砚": 4063,
      "砝": 4064,
      "砥": 4065,
      "砧": 4066,
      "砭": 4067,
      "砰": 4068,
      "破": 4069,
      "砷": 4070,
      "砸": 4071,
      "砺": 4072,
      "砾": 4073,
      "础": 4074,
      "硅": 4075,
      "硌": 4076,
      "硒": 4077,
      "硕": 4078,
      "硚": 4079,
      "硝": 4080,
      "硫": 4081,
      "硬": 4082,
      "确": 4083,
      "硼": 4084,
      "碌": 4085,
      "碍": 4086,
      "碎": 4087,
      "碑": 4088,
      "碗": 4089,
      "碘": 4090,
      "碚": 4091,
      "碟": 4092,
      "碧": 4093,
      "碰": 4094,
      "碱": 4095,
      "碳": 4096,
      "碴": 4097,
      "確": 4098,
      "碾": 4099,
      "磁": 4100,
      "磅": 4101,
      "磊": 4102,
      "磋": 4103,
      "磐": 4104,
      "磕": 4105,
      "磨": 4106,
      "磬": 4107,
      "磲": 4108,
      "磴": 4109,
      "磷": 4110,
      "磺": 4111,
      "礀": 4112,
      "礁": 4113,
      "礴": 4114,
      "示": 4115,
      "礼": 4116,
      "社": 4117,
      "祀": 4118,
      "祁": 4119,
      "祂": 4120,
      "祇": 4121,
      "祈": 4122,
      "祉": 4123,
      "祎": 4124,
      "祐": 4125,
      "祖": 4126,
      "祗": 4127,
      "祚": 4128,
      "祛": 4129,
      "祜": 4130,
      "祝": 4131,
      "神": 4132,
      "祟": 4133,
      "祠": 4134,
      "祥": 4135,
      "票": 4136,
      "祭": 4137,
      "祯": 4138,
      "祷": 4139,
      "祸": 4140,
      "祺": 4141,
      "禀": 4142,
      "禁": 4143,
      "禄": 4144,
      "禅": 4145,
      "禊": 4146,
      "禋": 4147,
      "福": 4148,
      "禛": 4149,
      "禜": 4150,
      "禤": 4151,
      "禧": 4152,
      "禨": 4153,
      "禳": 4154,
      "禵": 4155,
      "禹": 4156,
      "禺": 4157,
      "离": 4158,
      "禽": 4159,
      "禾": 4160,
      "秀": 4161,
      "私": 4162,
      "秃": 4163,
      "秆": 4164,
      "秉": 4165,
      "秋": 4166,
      "种": 4167,
      "科": 4168,
      "秒": 4169,
      "秕": 4170,
      "秘": 4171,
      "租": 4172,
      "秣": 4173,
      "秤": 4174,
      "秦": 4175,
      "秧": 4176,
      "秩": 4177,
      "积": 4178,
      "称": 4179,
      "秸": 4180,
      "移": 4181,
      "秽": 4182,
      "稀": 4183,
      "稂": 4184,
      "程": 4185,
      "稍": 4186,
      "税": 4187,
      "稔": 4188,
      "稗": 4189,
      "稚": 4190,
      "稠": 4191,
      "稣": 4192,
      "稳": 4193,
      "稷": 4194,
      "稹": 4195,
      "稻": 4196,
      "稼": 4197,
      "稽": 4198,
      "稿": 4199,
      "穆": 4200,
      "穑": 4201,
      "穗": 4202,
      "穴": 4203,
      "究": 4204,
      "穷": 4205,
      "穹": 4206,
      "空": 4207,
      "穿": 4208,
      "突": 4209,
      "窃": 4210,
      "窄": 4211,
      "窈": 4212,
      "窍": 4213,
      "窑": 4214,
      "窒": 4215,
      "窕": 4216,
      "窖": 4217,
      "窗": 4218,
      "窘": 4219,
      "窜": 4220,
      "窝": 4221,
      "窟": 4222,
      "窠": 4223,
      "窥": 4224,
      "窦": 4225,
      "窨": 4226,
      "窿": 4227,
      "立": 4228,
      "竑": 4229,
      "竖": 4230,
      "站": 4231,
      "竞": 4232,
      "竟": 4233,
      "章": 4234,
      "竣": 4235,
      "童": 4236,
      "竦": 4237,
      "竭": 4238,
      "端": 4239,
      "竹": 4240,
      "竺": 4241,
      "竼": 4242,
      "竽": 4243,
      "竿": 4244,
      "笃": 4245,
      "笄": 4246,
      "笆": 4247,
      "笈": 4248,
      "笋": 4249,
      "笑": 4250,
      "笔": 4251,
      "笙": 4252,
      "笛": 4253,
      "笞": 4254,
      "笠": 4255,
      "笤": 4256,
      "笥": 4257,
      "符": 4258,
      "笨": 4259,
      "第": 4260,
      "笮": 4261,
      "笸": 4262,
      "笺": 4263,
      "笼": 4264,
      "笾": 4265,
      "等": 4266,
      "筋": 4267,
      "筐": 4268,
      "筑": 4269,
      "筒": 4270,
      "答": 4271,
      "策": 4272,
      "筚": 4273,
      "筛": 4274,
      "筝": 4275,
      "筠": 4276,
      "筮": 4277,
      "筱": 4278,
      "筵": 4279,
      "筷": 4280,
      "筹": 4281,
      "签": 4282,
      "简": 4283,
      "箍": 4284,
      "箐": 4285,
      "箓": 4286,
      "箔": 4287,
      "箕": 4288,
      "算": 4289,
      "箜": 4290,
      "管": 4291,
      "箧": 4292,
      "箩": 4293,
      "箫": 4294,
      "箭": 4295,
      "箱": 4296,
      "箴": 4297,
      "篁": 4298,
      "篆": 4299,
      "篇": 4300,
      "篌": 4301,
      "篑": 4302,
      "篓": 4303,
      "篝": 4304,
      "篡": 4305,
      "篮": 4306,
      "篱": 4307,
      "篷": 4308,
      "篾": 4309,
      "簇": 4310,
      "簌": 4311,
      "簏": 4312,
      "簧": 4313,
      "簪": 4314,
      "簰": 4315,
      "簸": 4316,
      "簿": 4317,
      "籁": 4318,
      "籍": 4319,
      "米": 4320,
      "类": 4321,
      "籼": 4322,
      "籽": 4323,
      "粉": 4324,
      "粑": 4325,
      "粒": 4326,
      "粕": 4327,
      "粗": 4328,
      "粘": 4329,
      "粜": 4330,
      "粟": 4331,
      "粢": 4332,
      "粤": 4333,
      "粥": 4334,
      "粪": 4335,
      "粮": 4336,
      "粱": 4337,
      "粳": 4338,
      "粹": 4339,
      "粼": 4340,
      "粽": 4341,
      "精": 4342,
      "粿": 4343,
      "糁": 4344,
      "糅": 4345,
      "糊": 4346,
      "糌": 4347,
      "糍": 4348,
      "糕": 4349,
      "糖": 4350,
      "糗": 4351,
      "糙": 4352,
      "糜": 4353,
      "糟": 4354,
      "糠": 4355,
      "糯": 4356,
      "系": 4357,
      "紊": 4358,
      "紙": 4359,
      "素": 4360,
      "索": 4361,
      "紧": 4362,
      "紫": 4363,
      "累": 4364,
      "紹": 4365,
      "終": 4366,
      "絮": 4367,
      "絵": 4368,
      "綦": 4369,
      "緒": 4370,
      "縣": 4371,
      "繁": 4372,
      "繇": 4373,
      "纂": 4374,
      "纠": 4375,
      "红": 4376,
      "纣": 4377,
      "纤": 4378,
      "纥": 4379,
      "约": 4380,
      "级": 4381,
      "纨": 4382,
      "纪": 4383,
      "纫": 4384,
      "纬": 4385,
      "纭": 4386,
      "纯": 4387,
      "纰": 4388,
      "纱": 4389,
      "纲": 4390,
      "纳": 4391,
      "纵": 4392,
      "纶": 4393,
      "纷": 4394,
      "纸": 4395,
      "纹": 4396,
      "纺": 4397,
      "纻": 4398,
      "纽": 4399,
      "纾": 4400,
      "线": 4401,
      "绀": 4402,
      "练": 4403,
      "组": 4404,
      "绅": 4405,
      "细": 4406,
      "织": 4407,
      "终": 4408,
      "绉": 4409,
      "绊": 4410,
      "绌": 4411,
      "绍": 4412,
      "绎": 4413,
      "经": 4414,
      "绑": 4415,
      "绒": 4416,
      "结": 4417,
      "绔": 4418,
      "绕": 4419,
      "绗": 4420,
      "绘": 4421,
      "给": 4422,
      "绚": 4423,
      "绛": 4424,
      "络": 4425,
      "绝": 4426,
      "绞": 4427,
      "统": 4428,
      "绡": 4429,
      "绢": 4430,
      "绣": 4431,
      "绥": 4432,
      "绦": 4433,
      "继": 4434,
      "绩": 4435,
      "绪": 4436,
      "绫": 4437,
      "续": 4438,
      "绮": 4439,
      "绯": 4440,
      "绰": 4441,
      "绱": 4442,
      "绳": 4443,
      "维": 4444,
      "绵": 4445,
      "绷": 4446,
      "绸": 4447,
      "绻": 4448,
      "综": 4449,
      "绽": 4450,
      "绾": 4451,
      "绿": 4452,
      "缀": 4453,
      "缁": 4454,
      "缂": 4455,
      "缄": 4456,
      "缅": 4457,
      "缆": 4458,
      "缇": 4459,
      "缈": 4460,
      "缉": 4461,
      "缎": 4462,
      "缓": 4463,
      "缔": 4464,
      "缕": 4465,
      "编": 4466,
      "缘": 4467,
      "缚": 4468,
      "缜": 4469,
      "缝": 4470,
      "缠": 4471,
      "缢": 4472,
      "缤": 4473,
      "缥": 4474,
      "缨": 4475,
      "缩": 4476,
      "缪": 4477,
      "缬": 4478,
      "缭": 4479,
      "缮": 4480,
      "缯": 4481,
      "缰": 4482,
      "缱": 4483,
      "缴": 4484,
      "缸": 4485,
      "缺": 4486,
      "罂": 4487,
      "罄": 4488,
      "罅": 4489,
      "罐": 4490,
      "网": 4491,
      "罔": 4492,
      "罕": 4493,
      "罗": 4494,
      "罚": 4495,
      "罡": 4496,
      "罢": 4497,
      "罣": 4498,
      "罥": 4499,
      "罩": 4500,
      "罪": 4501,
      "置": 4502,
      "署": 4503,
      "罹": 4504,
      "羁": 4505,
      "羊": 4506,
      "羌": 4507,
      "美": 4508,
      "羔": 4509,
      "羚": 4510,
      "羞": 4511,
      "羟": 4512,
      "羡": 4513,
      "群": 4514,
      "羭": 4515,
      "羯": 4516,
      "羲": 4517,
      "羸": 4518,
      "羹": 4519,
      "羽": 4520,
      "羿": 4521,
      "翀": 4522,
      "翁": 4523,
      "翅": 4524,
      "翊": 4525,
      "翌": 4526,
      "翎": 4527,
      "翔": 4528,
      "翕": 4529,
      "翘": 4530,
      "翟": 4531,
      "翠": 4532,
      "翡": 4533,
      "翦": 4534,
      "翩": 4535,
      "翰": 4536,
      "翱": 4537,
      "翳": 4538,
      "翻": 4539,
      "翼": 4540,
      "耀": 4541,
      "老": 4542,
      "考": 4543,
      "耄": 4544,
      "者": 4545,
      "耋": 4546,
      "而": 4547,
      "耍": 4548,
      "耐": 4549,
      "耒": 4550,
      "耕": 4551,
      "耗": 4552,
      "耘": 4553,
      "耙": 4554,
      "耜": 4555,
      "耦": 4556,
      "耳": 4557,
      "耶": 4558,
      "耷": 4559,
      "耸": 4560,
      "耻": 4561,
      "耽": 4562,
      "耿": 4563,
      "聂": 4564,
      "聆": 4565,
      "聊": 4566,
      "聋": 4567,
      "职": 4568,
      "联": 4569,
      "聘": 4570,
      "聚": 4571,
      "聞": 4572,
      "聩": 4573,
      "聪": 4574,
      "肃": 4575,
      "肄": 4576,
      "肆": 4577,
      "肇": 4578,
      "肉": 4579,
      "肋": 4580,
      "肌": 4581,
      "肓": 4582,
      "肖": 4583,
      "肘": 4584,
      "肚": 4585,
      "肛": 4586,
      "肝": 4587,
      "肠": 4588,
      "股": 4589,
      "肢": 4590,
      "肤": 4591,
      "肥": 4592,
      "肩": 4593,
      "肪": 4594,
      "肮": 4595,
      "肯": 4596,
      "肱": 4597,
      "育": 4598,
      "肴": 4599,
      "肺": 4600,
      "肽": 4601,
      "肾": 4602,
      "肿": 4603,
      "胀": 4604,
      "胁": 4605,
      "胃": 4606,
      "胄": 4607,
      "胆": 4608,
      "背": 4609,
      "胎": 4610,
      "胖": 4611,
      "胗": 4612,
      "胚": 4613,
      "胛": 4614,
      "胜": 4615,
      "胞": 4616,
      "胡": 4617,
      "胤": 4618,
      "胥": 4619,
      "胧": 4620,
      "胪": 4621,
      "胫": 4622,
      "胭": 4623,
      "胯": 4624,
      "胰": 4625,
      "胱": 4626,
      "胳": 4627,
      "胴": 4628,
      "胶": 4629,
      "胸": 4630,
      "胺": 4631,
      "能": 4632,
      "脂": 4633,
      "脆": 4634,
      "脉": 4635,
      "脊": 4636,
      "脍": 4637,
      "脏": 4638,
      "脐": 4639,
      "脑": 4640,
      "脓": 4641,
      "脔": 4642,
      "脖": 4643,
      "脘": 4644,
      "脚": 4645,
      "脯": 4646,
      "脱": 4647,
      "脲": 4648,
      "脸": 4649,
      "脾": 4650,
      "腆": 4651,
      "腊": 4652,
      "腋": 4653,
      "腌": 4654,
      "腐": 4655,
      "腑": 4656,
      "腓": 4657,
      "腔": 4658,
      "腕": 4659,
      "腘": 4660,
      "腠": 4661,
      "腥": 4662,
      "腩": 4663,
      "腭": 4664,
      "腮": 4665,
      "腰": 4666,
      "腱": 4667,
      "腴": 4668,
      "腹": 4669,
      "腺": 4670,
      "腻": 4671,
      "腼": 4672,
      "腾": 4673,
      "腿": 4674,
      "膀": 4675,
      "膈": 4676,
      "膊": 4677,
      "膏": 4678,
      "膑": 4679,
      "膘": 4680,
      "膛": 4681,
      "膜": 4682,
      "膝": 4683,
      "膨": 4684,
      "膳": 4685,
      "膺": 4686,
      "膻": 4687,
      "臀": 4688,
      "臂": 4689,
      "臃": 4690,
      "臆": 4691,
      "臊": 4692,
      "臣": 4693,
      "臧": 4694,
      "自": 4695,
      "臭": 4696,
      "至": 4697,
      "致": 4698,
      "臻": 4699,
      "臼": 4700,
      "臽": 4701,
      "臾": 4702,
      "舀": 4703,
      "舅": 4704,
      "舆": 4705,
      "舌": 4706,
      "舍": 4707,
      "舐": 4708,
      "舒": 4709,
      "舔": 4710,
      "舛": 4711,
      "舜": 4712,
      "舞": 4713,
      "舟": 4714,
      "航": 4715,
      "舫": 4716,
      "般": 4717,
      "舰": 4718,
      "舱": 4719,
      "舵": 4720,
      "舶": 4721,
      "舷": 4722,
      "船": 4723,
      "舾": 4724,
      "艇": 4725,
      "艉": 4726,
      "艏": 4727,
      "艘": 4728,
      "艮": 4729,
      "良": 4730,
      "艰": 4731,
      "色": 4732,
      "艳": 4733,
      "艹": 4734,
      "艺": 4735,
      "艾": 4736,
      "艿": 4737,
      "节": 4738,
      "芃": 4739,
      "芈": 4740,
      "芊": 4741,
      "芋": 4742,
      "芍": 4743,
      "芎": 4744,
      "芒": 4745,
      "芙": 4746,
      "芜": 4747,
      "芝": 4748,
      "芡": 4749,
      "芥": 4750,
      "芦": 4751,
      "芨": 4752,
      "芩": 4753,
      "芪": 4754,
      "芫": 4755,
      "芬": 4756,
      "芭": 4757,
      "芮": 4758,
      "芯": 4759,
      "花": 4760,
      "芳": 4761,
      "芷": 4762,
      "芸": 4763,
      "芹": 4764,
      "芽": 4765,
      "芾": 4766,
      "苄": 4767,
      "苇": 4768,
      "苈": 4769,
      "苋": 4770,
      "苍": 4771,
      "苎": 4772,
      "苏": 4773,
      "苑": 4774,
      "苒": 4775,
      "苓": 4776,
      "苔": 4777,
      "苕": 4778,
      "苗": 4779,
      "苛": 4780,
      "苞": 4781,
      "苟": 4782,
      "苡": 4783,
      "苣": 4784,
      "若": 4785,
      "苦": 4786,
      "苯": 4787,
      "英": 4788,
      "苷": 4789,
      "苹": 4790,
      "苾": 4791,
      "茁": 4792,
      "茂": 4793,
      "范": 4794,
      "茄": 4795,
      "茅": 4796,
      "茉": 4797,
      "茎": 4798,
      "茏": 4799,
      "茑": 4800,
      "茔": 4801,
      "茗": 4802,
      "茜": 4803,
      "茧": 4804,
      "茨": 4805,
      "茫": 4806,
      "茬": 4807,
      "茭": 4808,
      "茯": 4809,
      "茱": 4810,
      "茴": 4811,
      "茵": 4812,
      "茶": 4813,
      "茸": 4814,
      "茹": 4815,
      "茼": 4816,
      "荀": 4817,
      "荃": 4818,
      "荅": 4819,
      "荆": 4820,
      "荇": 4821,
      "草": 4822,
      "荏": 4823,
      "荐": 4824,
      "荒": 4825,
      "荔": 4826,
      "荚": 4827,
      "荛": 4828,
      "荜": 4829,
      "荞": 4830,
      "荟": 4831,
      "荠": 4832,
      "荡": 4833,
      "荣": 4834,
      "荤": 4835,
      "荧": 4836,
      "荨": 4837,
      "荫": 4838,
      "药": 4839,
      "荷": 4840,
      "荸": 4841,
      "荻": 4842,
      "荼": 4843,
      "荽": 4844,
      "莅": 4845,
      "莆": 4846,
      "莉": 4847,
      "莎": 4848,
      "莒": 4849,
      "莓": 4850,
      "莘": 4851,
      "莞": 4852,
      "莠": 4853,
      "莪": 4854,
      "莫": 4855,
      "莱": 4856,
      "莲": 4857,
      "莳": 4858,
      "莴": 4859,
      "获": 4860,
      "莹": 4861,
      "莺": 4862,
      "莼": 4863,
      "莽": 4864,
      "菀": 4865,
      "菁": 4866,
      "菅": 4867,
      "菇": 4868,
      "菊": 4869,
      "菌": 4870,
      "菏": 4871,
      "菓": 4872,
      "菖": 4873,
      "菘": 4874,
      "菜": 4875,
      "菠": 4876,
      "菩": 4877,
      "菱": 4878,
      "菲": 4879,
      "菽": 4880,
      "萁": 4881,
      "萃": 4882,
      "萄": 4883,
      "萆": 4884,
      "萌": 4885,
      "萍": 4886,
      "萎": 4887,
      "萜": 4888,
      "萝": 4889,
      "萤": 4890,
      "营": 4891,
      "萦": 4892,
      "萧": 4893,
      "萨": 4894,
      "萱": 4895,
      "萸": 4896,
      "落": 4897,
      "葆": 4898,
      "葑": 4899,
      "葓": 4900,
      "著": 4901,
      "葚": 4902,
      "葛": 4903,
      "葡": 4904,
      "董": 4905,
      "葩": 4906,
      "葫": 4907,
      "葬": 4908,
      "葭": 4909,
      "葱": 4910,
      "葳": 4911,
      "葵": 4912,
      "葶": 4913,
      "葸": 4914,
      "葺": 4915,
      "蒂": 4916,
      "蒋": 4917,
      "蒌": 4918,
      "蒙": 4919,
      "蒜": 4920,
      "蒲": 4921,
      "蒸": 4922,
      "蒹": 4923,
      "蒽": 4924,
      "蒿": 4925,
      "蓁": 4926,
      "蓄": 4927,
      "蓉": 4928,
      "蓍": 4929,
      "蓓": 4930,
      "蓖": 4931,
      "蓝": 4932,
      "蓟": 4933,
      "蓦": 4934,
      "蓬": 4935,
      "蓼": 4936,
      "蔑": 4937,
      "蔓": 4938,
      "蔗": 4939,
      "蔚": 4940,
      "蔡": 4941,
      "蔩": 4942,
      "蔫": 4943,
      "蔬": 4944,
      "蔷": 4945,
      "蔺": 4946,
      "蔻": 4947,
      "蔼": 4948,
      "蔽": 4949,
      "蕃": 4950,
      "蕉": 4951,
      "蕊": 4952,
      "蕌": 4953,
      "蕤": 4954,
      "蕨": 4955,
      "蕲": 4956,
      "蕴": 4957,
      "蕾": 4958,
      "薄": 4959,
      "薅": 4960,
      "薇": 4961,
      "薏": 4962,
      "薛": 4963,
      "薨": 4964,
      "薪": 4965,
      "薬": 4966,
      "薯": 4967,
      "薰": 4968,
      "薷": 4969,
      "薹": 4970,
      "藉": 4971,
      "藏": 4972,
      "藐": 4973,
      "藓": 4974,
      "藕": 4975,
      "藤": 4976,
      "藩": 4977,
      "藻": 4978,
      "藿": 4979,
      "蘅": 4980,
      "蘑": 4981,
      "蘖": 4982,
      "蘸": 4983,
      "蘼": 4984,
      "虎": 4985,
      "虏": 4986,
      "虐": 4987,
      "虑": 4988,
      "虔": 4989,
      "虚": 4990,
      "虞": 4991,
      "虫": 4992,
      "虬": 4993,
      "虱": 4994,
      "虹": 4995,
      "虽": 4996,
      "虾": 4997,
      "虿": 4998,
      "蚀": 4999,
      "蚁": 5000,
      "蚂": 5001,
      "蚊": 5002,
      "蚌": 5003,
      "蚓": 5004,
      "蚕": 5005,
      "蚜": 5006,
      "蚝": 5007,
      "蚣": 5008,
      "蚤": 5009,
      "蚩": 5010,
      "蚪": 5011,
      "蚯": 5012,
      "蚱": 5013,
      "蚴": 5014,
      "蛀": 5015,
      "蛆": 5016,
      "蛇": 5017,
      "蛊": 5018,
      "蛋": 5019,
      "蛎": 5020,
      "蛐": 5021,
      "蛔": 5022,
      "蛙": 5023,
      "蛛": 5024,
      "蛤": 5025,
      "蛭": 5026,
      "蛮": 5027,
      "蛰": 5028,
      "蛲": 5029,
      "蛳": 5030,
      "蛹": 5031,
      "蛾": 5032,
      "蜀": 5033,
      "蜂": 5034,
      "蜃": 5035,
      "蜇": 5036,
      "蜈": 5037,
      "蜊": 5038,
      "蜒": 5039,
      "蜓": 5040,
      "蜕": 5041,
      "蜗": 5042,
      "蜘": 5043,
      "蜚": 5044,
      "蜜": 5045,
      "蜡": 5046,
      "蜥": 5047,
      "蜴": 5048,
      "蜷": 5049,
      "蜻": 5050,
      "蜿": 5051,
      "蝇": 5052,
      "蝈": 5053,
      "蝉": 5054,
      "蝌": 5055,
      "蝎": 5056,
      "蝗": 5057,
      "蝙": 5058,
      "蝠": 5059,
      "蝴": 5060,
      "蝶": 5061,
      "蝽": 5062,
      "蝾": 5063,
      "螂": 5064,
      "螃": 5065,
      "融": 5066,
      "螣": 5067,
      "螨": 5068,
      "螫": 5069,
      "螳": 5070,
      "螺": 5071,
      "蟆": 5072,
      "蟑": 5073,
      "蟒": 5074,
      "蟠": 5075,
      "蟥": 5076,
      "蟮": 5077,
      "蟹": 5078,
      "蠕": 5079,
      "蠢": 5080,
      "蠲": 5081,
      "血": 5082,
      "衄": 5083,
      "衅": 5084,
      "行": 5085,
      "衍": 5086,
      "衔": 5087,
      "街": 5088,
      "衙": 5089,
      "衡": 5090,
      "衢": 5091,
      "衣": 5092,
      "补": 5093,
      "表": 5094,
      "衩": 5095,
      "衫": 5096,
      "衬": 5097,
      "衮": 5098,
      "衰": 5099,
      "衲": 5100,
      "衷": 5101,
      "袁": 5102,
      "袂": 5103,
      "袄": 5104,
      "袅": 5105,
      "袈": 5106,
      "袋": 5107,
      "袍": 5108,
      "袒": 5109,
      "袖": 5110,
      "袛": 5111,
      "袜": 5112,
      "袤": 5113,
      "被": 5114,
      "袭": 5115,
      "袱": 5116,
      "袷": 5117,
      "裁": 5118,
      "裂": 5119,
      "装": 5120,
      "裆": 5121,
      "裉": 5122,
      "裔": 5123,
      "裕": 5124,
      "裘": 5125,
      "裙": 5126,
      "補": 5127,
      "裟": 5128,
      "裤": 5129,
      "裨": 5130,
      "裱": 5131,
      "裳": 5132,
      "裴": 5133,
      "裵": 5134,
      "裸": 5135,
      "裹": 5136,
      "裾": 5137,
      "褂": 5138,
      "褐": 5139,
      "褒": 5140,
      "褓": 5141,
      "褔": 5142,
      "褚": 5143,
      "褛": 5144,
      "褥": 5145,
      "褪": 5146,
      "褴": 5147,
      "褶": 5148,
      "襁": 5149,
      "襄": 5150,
      "襟": 5151,
      "西": 5152,
      "要": 5153,
      "覆": 5154,
      "観": 5155,
      "见": 5156,
      "观": 5157,
      "规": 5158,
      "觅": 5159,
      "视": 5160,
      "览": 5161,
      "觉": 5162,
      "觊": 5163,
      "觌": 5164,
      "觍": 5165,
      "觎": 5166,
      "觐": 5167,
      "觑": 5168,
      "角": 5169,
      "觞": 5170,
      "解": 5171,
      "觥": 5172,
      "触": 5173,
      "言": 5174,
      "話": 5175,
      "詹": 5176,
      "誉": 5177,
      "誓": 5178,
      "諵": 5179,
      "警": 5180,
      "譬": 5181,
      "计": 5182,
      "订": 5183,
      "认": 5184,
      "讥": 5185,
      "讨": 5186,
      "让": 5187,
      "讪": 5188,
      "讫": 5189,
      "讬": 5190,
      "训": 5191,
      "议": 5192,
      "讯": 5193,
      "记": 5194,
      "讲": 5195,
      "讳": 5196,
      "讴": 5197,
      "讶": 5198,
      "讷": 5199,
      "许": 5200,
      "讹": 5201,
      "论": 5202,
      "讼": 5203,
      "讽": 5204,
      "设": 5205,
      "访": 5206,
      "诀": 5207,
      "证": 5208,
      "诂": 5209,
      "诃": 5210,
      "评": 5211,
      "诅": 5212,
      "识": 5213,
      "诈": 5214,
      "诉": 5215,
      "诊": 5216,
      "诋": 5217,
      "诌": 5218,
      "词": 5219,
      "诏": 5220,
      "译": 5221,
      "试": 5222,
      "诗": 5223,
      "诘": 5224,
      "诙": 5225,
      "诚": 5226,
      "诛": 5227,
      "话": 5228,
      "诞": 5229,
      "诟": 5230,
      "诠": 5231,
      "诡": 5232,
      "询": 5233,
      "诣": 5234,
      "诤": 5235,
      "该": 5236,
      "详": 5237,
      "诧": 5238,
      "诨": 5239,
      "诩": 5240,
      "诫": 5241,
      "诬": 5242,
      "语": 5243,
      "误": 5244,
      "诰": 5245,
      "诱": 5246,
      "诲": 5247,
      "说": 5248,
      "诵": 5249,
      "诶": 5250,
      "请": 5251,
      "诸": 5252,
      "诺": 5253,
      "读": 5254,
      "诽": 5255,
      "课": 5256,
      "诿": 5257,
      "谀": 5258,
      "谁": 5259,
      "调": 5260,
      "谄": 5261,
      "谅": 5262,
      "谆": 5263,
      "谈": 5264,
      "谊": 5265,
      "谋": 5266,
      "谌": 5267,
      "谍": 5268,
      "谎": 5269,
      "谏": 5270,
      "谐": 5271,
      "谑": 5272,
      "谒": 5273,
      "谓": 5274,
      "谕": 5275,
      "谗": 5276,
      "谘": 5277,
      "谙": 5278,
      "谚": 5279,
      "谛": 5280,
      "谜": 5281,
      "谠": 5282,
      "谢": 5283,
      "谣": 5284,
      "谤": 5285,
      "谥": 5286,
      "谦": 5287,
      "谧": 5288,
      "谨": 5289,
      "谩": 5290,
      "谪": 5291,
      "谬": 5292,
      "谭": 5293,
      "谱": 5294,
      "谲": 5295,
      "谴": 5296,
      "谵": 5297,
      "谷": 5298,
      "豁": 5299,
      "豆": 5300,
      "豇": 5301,
      "豉": 5302,
      "豌": 5303,
      "豕": 5304,
      "豚": 5305,
      "象": 5306,
      "豢": 5307,
      "豪": 5308,
      "豫": 5309,
      "豹": 5310,
      "豺": 5311,
      "貂": 5312,
      "貌": 5313,
      "贝": 5314,
      "贞": 5315,
      "负": 5316,
      "贠": 5317,
      "贡": 5318,
      "财": 5319,
      "责": 5320,
      "贤": 5321,
      "败": 5322,
      "账": 5323,
      "货": 5324,
      "质": 5325,
      "贩": 5326,
      "贪": 5327,
      "贫": 5328,
      "贬": 5329,
      "购": 5330,
      "贮": 5331,
      "贯": 5332,
      "贰": 5333,
      "贱": 5334,
      "贲": 5335,
      "贴": 5336,
      "贵": 5337,
      "贷": 5338,
      "贸": 5339,
      "费": 5340,
      "贺": 5341,
      "贻": 5342,
      "贼": 5343,
      "贾": 5344,
      "贿": 5345,
      "赁": 5346,
      "赂": 5347,
      "赃": 5348,
      "资": 5349,
      "赅": 5350,
      "赈": 5351,
      "赉": 5352,
      "赊": 5353,
      "赋": 5354,
      "赌": 5355,
      "赍": 5356,
      "赎": 5357,
      "赏": 5358,
      "赐": 5359,
      "赓": 5360,
      "赔": 5361,
      "赖": 5362,
      "赘": 5363,
      "赚": 5364,
      "赛": 5365,
      "赝": 5366,
      "赞": 5367,
      "赟": 5368,
      "赠": 5369,
      "赡": 5370,
      "赢": 5371,
      "赣": 5372,
      "赤": 5373,
      "赦": 5374,
      "赫": 5375,
      "赭": 5376,
      "走": 5377,
      "赳": 5378,
      "赴": 5379,
      "赵": 5380,
      "赶": 5381,
      "起": 5382,
      "趁": 5383,
      "趄": 5384,
      "超": 5385,
      "越": 5386,
      "趋": 5387,
      "趔": 5388,
      "趟": 5389,
      "趣": 5390,
      "趱": 5391,
      "足": 5392,
      "趴": 5393,
      "趸": 5394,
      "趺": 5395,
      "趾": 5396,
      "跃": 5397,
      "跆": 5398,
      "跋": 5399,
      "跌": 5400,
      "跎": 5401,
      "跑": 5402,
      "跖": 5403,
      "跚": 5404,
      "跛": 5405,
      "距": 5406,
      "跟": 5407,
      "跤": 5408,
      "跨": 5409,
      "跩": 5410,
      "跪": 5411,
      "跬": 5412,
      "路": 5413,
      "跳": 5414,
      "践": 5415,
      "跶": 5416,
      "跷": 5417,
      "跸": 5418,
      "跺": 5419,
      "跻": 5420,
      "踊": 5421,
      "踌": 5422,
      "踏": 5423,
      "踔": 5424,
      "踝": 5425,
      "踞": 5426,
      "踢": 5427,
      "踩": 5428,
      "踪": 5429,
      "踮": 5430,
      "踱": 5431,
      "踵": 5432,
      "踹": 5433,
      "蹄": 5434,
      "蹇": 5435,
      "蹈": 5436,
      "蹉": 5437,
      "蹊": 5438,
      "蹋": 5439,
      "蹒": 5440,
      "蹚": 5441,
      "蹦": 5442,
      "蹩": 5443,
      "蹬": 5444,
      "蹭": 5445,
      "蹰": 5446,
      "蹲": 5447,
      "蹴": 5448,
      "蹶": 5449,
      "蹿": 5450,
      "躁": 5451,
      "身": 5452,
      "躬": 5453,
      "躯": 5454,
      "躲": 5455,
      "躺": 5456,
      "车": 5457,
      "轧": 5458,
      "轨": 5459,
      "轩": 5460,
      "轫": 5461,
      "转": 5462,
      "轮": 5463,
      "软": 5464,
      "轰": 5465,
      "轱": 5466,
      "轲": 5467,
      "轴": 5468,
      "轶": 5469,
      "轺": 5470,
      "轻": 5471,
      "轼": 5472,
      "载": 5473,
      "轿": 5474,
      "辂": 5475,
      "较": 5476,
      "辄": 5477,
      "辅": 5478,
      "辆": 5479,
      "辈": 5480,
      "辉": 5481,
      "辊": 5482,
      "辋": 5483,
      "辍": 5484,
      "辎": 5485,
      "辐": 5486,
      "辑": 5487,
      "输": 5488,
      "辕": 5489,
      "辖": 5490,
      "辗": 5491,
      "辘": 5492,
      "辙": 5493,
      "辛": 5494,
      "辜": 5495,
      "辞": 5496,
      "辟": 5497,
      "辣": 5498,
      "辨": 5499,
      "辩": 5500,
      "辫": 5501,
      "辰": 5502,
      "辱": 5503,
      "边": 5504,
      "辻": 5505,
      "込": 5506,
      "辽": 5507,
      "达": 5508,
      "迁": 5509,
      "迂": 5510,
      "迄": 5511,
      "迅": 5512,
      "过": 5513,
      "迈": 5514,
      "迎": 5515,
      "运": 5516,
      "近": 5517,
      "返": 5518,
      "还": 5519,
      "这": 5520,
      "进": 5521,
      "远": 5522,
      "违": 5523,
      "连": 5524,
      "迟": 5525,
      "迢": 5526,
      "迤": 5527,
      "迥": 5528,
      "迦": 5529,
      "迨": 5530,
      "迩": 5531,
      "迪": 5532,
      "迫": 5533,
      "迭": 5534,
      "述": 5535,
      "迳": 5536,
      "迷": 5537,
      "迸": 5538,
      "迹": 5539,
      "追": 5540,
      "退": 5541,
      "送": 5542,
      "适": 5543,
      "逃": 5544,
      "逅": 5545,
      "逆": 5546,
      "选": 5547,
      "逊": 5548,
      "逋": 5549,
      "逍": 5550,
      "透": 5551,
      "逐": 5552,
      "递": 5553,
      "途": 5554,
      "逗": 5555,
      "通": 5556,
      "逛": 5557,
      "逝": 5558,
      "逞": 5559,
      "速": 5560,
      "造": 5561,
      "逢": 5562,
      "逦": 5563,
      "逮": 5564,
      "逵": 5565,
      "逸": 5566,
      "逺": 5567,
      "逻": 5568,
      "逼": 5569,
      "逾": 5570,
      "遁": 5571,
      "遂": 5572,
      "遇": 5573,
      "遍": 5574,
      "遏": 5575,
      "遐": 5576,
      "遑": 5577,
      "道": 5578,
      "達": 5579,
      "違": 5580,
      "遗": 5581,
      "遛": 5582,
      "遢": 5583,
      "遣": 5584,
      "遥": 5585,
      "遨": 5586,
      "遭": 5587,
      "遮": 5588,
      "遴": 5589,
      "遵": 5590,
      "遽": 5591,
      "避": 5592,
      "邀": 5593,
      "邂": 5594,
      "邃": 5595,
      "邈": 5596,
      "邋": 5597,
      "邑": 5598,
      "邓": 5599,
      "邕": 5600,
      "邛": 5601,
      "邝": 5602,
      "邢": 5603,
      "那": 5604,
      "邦": 5605,
      "邪": 5606,
      "邬": 5607,
      "邮": 5608,
      "邯": 5609,
      "邱": 5610,
      "邳": 5611,
      "邵": 5612,
      "邸": 5613,
      "邹": 5614,
      "邺": 5615,
      "邻": 5616,
      "邾": 5617,
      "郁": 5618,
      "郂": 5619,
      "郊": 5620,
      "郎": 5621,
      "郏": 5622,
      "郑": 5623,
      "郜": 5624,
      "郝": 5625,
      "郡": 5626,
      "郢": 5627,
      "郦": 5628,
      "部": 5629,
      "郫": 5630,
      "郭": 5631,
      "郴": 5632,
      "郸": 5633,
      "都": 5634,
      "鄂": 5635,
      "鄉": 5636,
      "鄙": 5637,
      "鄠": 5638,
      "鄢": 5639,
      "鄱": 5640,
      "酃": 5641,
      "酉": 5642,
      "酊": 5643,
      "酋": 5644,
      "酌": 5645,
      "配": 5646,
      "酐": 5647,
      "酒": 5648,
      "酗": 5649,
      "酚": 5650,
      "酝": 5651,
      "酣": 5652,
      "酥": 5653,
      "酩": 5654,
      "酪": 5655,
      "酬": 5656,
      "酮": 5657,
      "酯": 5658,
      "酰": 5659,
      "酱": 5660,
      "酵": 5661,
      "酶": 5662,
      "酷": 5663,
      "酸": 5664,
      "酿": 5665,
      "醇": 5666,
      "醉": 5667,
      "醋": 5668,
      "醌": 5669,
      "醒": 5670,
      "醚": 5671,
      "醛": 5672,
      "醢": 5673,
      "醤": 5674,
      "醪": 5675,
      "醴": 5676,
      "醺": 5677,
      "釆": 5678,
      "采": 5679,
      "釉": 5680,
      "释": 5681,
      "里": 5682,
      "重": 5683,
      "野": 5684,
      "量": 5685,
      "金": 5686,
      "釜": 5687,
      "鈇": 5688,
      "鉴": 5689,
      "銮": 5690,
      "鋡": 5691,
      "錞": 5692,
      "錾": 5693,
      "鎏": 5694,
      "鏖": 5695,
      "鏻": 5696,
      "鑫": 5697,
      "钅": 5698,
      "针": 5699,
      "钉": 5700,
      "钊": 5701,
      "钏": 5702,
      "钓": 5703,
      "钗": 5704,
      "钙": 5705,
      "钛": 5706,
      "钜": 5707,
      "钝": 5708,
      "钞": 5709,
      "钟": 5710,
      "钠": 5711,
      "钡": 5712,
      "钢": 5713,
      "钣": 5714,
      "钥": 5715,
      "钦": 5716,
      "钧": 5717,
      "钨": 5718,
      "钩": 5719,
      "钪": 5720,
      "钫": 5721,
      "钮": 5722,
      "钰": 5723,
      "钱": 5724,
      "钳": 5725,
      "钴": 5726,
      "钵": 5727,
      "钻": 5728,
      "钼": 5729,
      "钾": 5730,
      "钿": 5731,
      "铀": 5732,
      "铁": 5733,
      "铂": 5734,
      "铃": 5735,
      "铄": 5736,
      "铅": 5737,
      "铆": 5738,
      "铍": 5739,
      "铎": 5740,
      "铐": 5741,
      "铖": 5742,
      "铛": 5743,
      "铜": 5744,
      "铝": 5745,
      "铠": 5746,
      "铡": 5747,
      "铢": 5748,
      "铣": 5749,
      "铤": 5750,
      "铨": 5751,
      "铩": 5752,
      "铬": 5753,
      "铭": 5754,
      "铮": 5755,
      "铰": 5756,
      "铲": 5757,
      "铵": 5758,
      "银": 5759,
      "铸": 5760,
      "铺": 5761,
      "链": 5762,
      "铿": 5763,
      "销": 5764,
      "锁": 5765,
      "锂": 5766,
      "锃": 5767,
      "锄": 5768,
      "锅": 5769,
      "锆": 5770,
      "锈": 5771,
      "锉": 5772,
      "锋": 5773,
      "锌": 5774,
      "锏": 5775,
      "锐": 5776,
      "锑": 5777,
      "锗": 5778,
      "错": 5779,
      "锚": 5780,
      "锡": 5781,
      "锢": 5782,
      "锣": 5783,
      "锤": 5784,
      "锥": 5785,
      "锦": 5786,
      "锨": 5787,
      "锭": 5788,
      "键": 5789,
      "锯": 5790,
      "锰": 5791,
      "锱": 5792,
      "锲": 5793,
      "锵": 5794,
      "锶": 5795,
      "锷": 5796,
      "锸": 5797,
      "锹": 5798,
      "锺": 5799,
      "锻": 5800,
      "镀": 5801,
      "镁": 5802,
      "镂": 5803,
      "镇": 5804,
      "镊": 5805,
      "镌": 5806,
      "镍": 5807,
      "镐": 5808,
      "镑": 5809,
      "镔": 5810,
      "镕": 5811,
      "镖": 5812,
      "镛": 5813,
      "镜": 5814,
      "镝": 5815,
      "镣": 5816,
      "镬": 5817,
      "镭": 5818,
      "镯": 5819,
      "镰": 5820,
      "镳": 5821,
      "镶": 5822,
      "长": 5823,
      "関": 5824,
      "闘": 5825,
      "门": 5826,
      "闪": 5827,
      "闫": 5828,
      "闭": 5829,
      "问": 5830,
      "闯": 5831,
      "闰": 5832,
      "闱": 5833,
      "闲": 5834,
      "闳": 5835,
      "间": 5836,
      "闵": 5837,
      "闷": 5838,
      "闸": 5839,
      "闹": 5840,
      "闺": 5841,
      "闻": 5842,
      "闼": 5843,
      "闽": 5844,
      "闾": 5845,
      "阀": 5846,
      "阁": 5847,
      "阂": 5848,
      "阄": 5849,
      "阅": 5850,
      "阇": 5851,
      "阈": 5852,
      "阉": 5853,
      "阋": 5854,
      "阎": 5855,
      "阐": 5856,
      "阑": 5857,
      "阔": 5858,
      "阕": 5859,
      "阖": 5860,
      "阗": 5861,
      "阙": 5862,
      "阚": 5863,
      "阜": 5864,
      "阝": 5865,
      "队": 5866,
      "阡": 5867,
      "阪": 5868,
      "阬": 5869,
      "阮": 5870,
      "阱": 5871,
      "防": 5872,
      "阳": 5873,
      "阴": 5874,
      "阵": 5875,
      "阶": 5876,
      "阻": 5877,
      "阿": 5878,
      "陀": 5879,
      "陂": 5880,
      "附": 5881,
      "际": 5882,
      "陆": 5883,
      "陇": 5884,
      "陈": 5885,
      "陉": 5886,
      "陋": 5887,
      "陌": 5888,
      "降": 5889,
      "限": 5890,
      "陕": 5891,
      "陛": 5892,
      "陟": 5893,
      "陡": 5894,
      "院": 5895,
      "除": 5896,
      "陨": 5897,
      "险": 5898,
      "陪": 5899,
      "陲": 5900,
      "陵": 5901,
      "陶": 5902,
      "陷": 5903,
      "隅": 5904,
      "隆": 5905,
      "隋": 5906,
      "隍": 5907,
      "随": 5908,
      "隐": 5909,
      "隔": 5910,
      "隘": 5911,
      "隙": 5912,
      "際": 5913,
      "障": 5914,
      "隧": 5915,
      "隰": 5916,
      "隶": 5917,
      "隼": 5918,
      "隽": 5919,
      "难": 5920,
      "雀": 5921,
      "雁": 5922,
      "雄": 5923,
      "雅": 5924,
      "集": 5925,
      "雇": 5926,
      "雉": 5927,
      "雌": 5928,
      "雍": 5929,
      "雎": 5930,
      "雏": 5931,
      "雒": 5932,
      "雕": 5933,
      "雨": 5934,
      "雩": 5935,
      "雪": 5936,
      "雯": 5937,
      "雲": 5938,
      "雳": 5939,
      "零": 5940,
      "雷": 5941,
      "雹": 5942,
      "電": 5943,
      "雾": 5944,
      "需": 5945,
      "霁": 5946,
      "霄": 5947,
      "霆": 5948,
      "震": 5949,
      "霉": 5950,
      "霍": 5951,
      "霎": 5952,
      "霏": 5953,
      "霓": 5954,
      "霖": 5955,
      "霜": 5956,
      "霞": 5957,
      "霭": 5958,
      "霰": 5959,
      "露": 5960,
      "霸": 5961,
      "霹": 5962,
      "霾": 5963,
      "青": 5964,
      "靓": 5965,
      "靖": 5966,
      "静": 5967,
      "靛": 5968,
      "非": 5969,
      "靠": 5970,
      "靡": 5971,
      "面": 5972,
      "革": 5973,
      "靳": 5974,
      "靴": 5975,
      "靶": 5976,
      "鞅": 5977,
      "鞋": 5978,
      "鞍": 5979,
      "鞘": 5980,
      "鞠": 5981,
      "鞣": 5982,
      "鞭": 5983,
      "韦": 5984,
      "韧": 5985,
      "韩": 5986,
      "韫": 5987,
      "韬": 5988,
      "韭": 5989,
      "音": 5990,
      "韵": 5991,
      "韶": 5992,
      "頂": 5993,
      "頔": 5994,
      "頫": 5995,
      "顒": 5996,
      "顔": 5997,
      "願": 5998,
      "页": 5999,
      "顶": 6000,
      "顷": 6001,
      "顸": 6002,
      "项": 6003,
      "顺": 6004,
      "须": 6005,
      "顼": 6006,
      "顽": 6007,
      "顾": 6008,
      "顿": 6009,
      "颀": 6010,
      "颁": 6011,
      "颂": 6012,
      "预": 6013,
      "颅": 6014,
      "领": 6015,
      "颇": 6016,
      "颈": 6017,
      "颉": 6018,
      "颊": 6019,
      "颌": 6020,
      "颍": 6021,
      "颎": 6022,
      "颐": 6023,
      "频": 6024,
      "颓": 6025,
      "颔": 6026,
      "颖": 6027,
      "颗": 6028,
      "题": 6029,
      "颙": 6030,
      "颚": 6031,
      "颛": 6032,
      "颜": 6033,
      "额": 6034,
      "颞": 6035,
      "颟": 6036,
      "颠": 6037,
      "颢": 6038,
      "颤": 6039,
      "颦": 6040,
      "颧": 6041,
      "风": 6042,
      "飒": 6043,
      "飓": 6044,
      "飕": 6045,
      "飘": 6046,
      "飙": 6047,
      "飚": 6048,
      "飞": 6049,
      "食": 6050,
      "飧": 6051,
      "飨": 6052,
      "餍": 6053,
      "餐": 6054,
      "餮": 6055,
      "饕": 6056,
      "饥": 6057,
      "饧": 6058,
      "饨": 6059,
      "饩": 6060,
      "饪": 6061,
      "饬": 6062,
      "饭": 6063,
      "饮": 6064,
      "饯": 6065,
      "饰": 6066,
      "饱": 6067,
      "饲": 6068,
      "饴": 6069,
      "饵": 6070,
      "饶": 6071,
      "饷": 6072,
      "饺": 6073,
      "饼": 6074,
      "饽": 6075,
      "饿": 6076,
      "馀": 6077,
      "馁": 6078,
      "馄": 6079,
      "馅": 6080,
      "馆": 6081,
      "馈": 6082,
      "馊": 6083,
      "馋": 6084,
      "馍": 6085,
      "馏": 6086,
      "馑": 6087,
      "馒": 6088,
      "馔": 6089,
      "馕": 6090,
      "首": 6091,
      "馗": 6092,
      "香": 6093,
      "馥": 6094,
      "馨": 6095,
      "駅": 6096,
      "騋": 6097,
      "马": 6098,
      "驭": 6099,
      "驮": 6100,
      "驯": 6101,
      "驰": 6102,
      "驱": 6103,
      "驳": 6104,
      "驴": 6105,
      "驶": 6106,
      "驷": 6107,
      "驸": 6108,
      "驹": 6109,
      "驻": 6110,
      "驼": 6111,
      "驾": 6112,
      "驿": 6113,
      "骁": 6114,
      "骂": 6115,
      "骄": 6116,
      "骅": 6117,
      "骆": 6118,
      "骇": 6119,
      "骈": 6120,
      "骉": 6121,
      "骊": 6122,
      "骋": 6123,
      "验": 6124,
      "骏": 6125,
      "骑": 6126,
      "骗": 6127,
      "骚": 6128,
      "骛": 6129,
      "骜": 6130,
      "骞": 6131,
      "骠": 6132,
      "骡": 6133,
      "骢": 6134,
      "骤": 6135,
      "骥": 6136,
      "骨": 6137,
      "骫": 6138,
      "骰": 6139,
      "骳": 6140,
      "骶": 6141,
      "骷": 6142,
      "骸": 6143,
      "骺": 6144,
      "骼": 6145,
      "髀": 6146,
      "髂": 6147,
      "髅": 6148,
      "髋": 6149,
      "髌": 6150,
      "髎": 6151,
      "髑": 6152,
      "髓": 6153,
      "高": 6154,
      "髦": 6155,
      "髫": 6156,
      "髻": 6157,
      "鬃": 6158,
      "鬈": 6159,
      "鬓": 6160,
      "鬟": 6161,
      "鬣": 6162,
      "鬲": 6163,
      "鬻": 6164,
      "鬼": 6165,
      "魁": 6166,
      "魂": 6167,
      "魄": 6168,
      "魅": 6169,
      "魇": 6170,
      "魏": 6171,
      "魑": 6172,
      "魔": 6173,
      "鮀": 6174,
      "鱓": 6175,
      "鱼": 6176,
      "鱿": 6177,
      "鲁": 6178,
      "鲅": 6179,
      "鲍": 6180,
      "鲎": 6181,
      "鲐": 6182,
      "鲛": 6183,
      "鲜": 6184,
      "鲢": 6185,
      "鲤": 6186,
      "鲧": 6187,
      "鲨": 6188,
      "鲫": 6189,
      "鲳": 6190,
      "鲸": 6191,
      "鳃": 6192,
      "鳄": 6193,
      "鳅": 6194,
      "鳌": 6195,
      "鳍": 6196,
      "鳖": 6197,
      "鳗": 6198,
      "鳙": 6199,
      "鳜": 6200,
      "鳝": 6201,
      "鳞": 6202,
      "鷁": 6203,
      "鸟": 6204,
      "鸠": 6205,
      "鸡": 6206,
      "鸢": 6207,
      "鸣": 6208,
      "鸥": 6209,
      "鸦": 6210,
      "鸨": 6211,
      "鸩": 6212,
      "鸪": 6213,
      "鸬": 6214,
      "鸭": 6215,
      "鸮": 6216,
      "鸯": 6217,
      "鸱": 6218,
      "鸳": 6219,
      "鸵": 6220,
      "鸶": 6221,
      "鸷": 6222,
      "鸽": 6223,
      "鸿": 6224,
      "鹃": 6225,
      "鹄": 6226,
      "鹅": 6227,
      "鹆": 6228,
      "鹈": 6229,
      "鹉": 6230,
      "鹊": 6231,
      "鹌": 6232,
      "鹏": 6233,
      "鹑": 6234,
      "鹕": 6235,
      "鹗": 6236,
      "鹚": 6237,
      "鹜": 6238,
      "鹤": 6239,
      "鹦": 6240,
      "鹧": 6241,
      "鹩": 6242,
      "鹪": 6243,
      "鹫": 6244,
      "鹭": 6245,
      "鹰": 6246,
      "鹳": 6247,
      "鹿": 6248,
      "麋": 6249,
      "麒": 6250,
      "麓": 6251,
      "麝": 6252,
      "麟": 6253,
      "麦": 6254,
      "麸": 6255,
      "麻": 6256,
      "麽": 6257,
      "麾": 6258,
      "黄": 6259,
      "黉": 6260,
      "黍": 6261,
      "黎": 6262,
      "黏": 6263,
      "黑": 6264,
      "黔": 6265,
      "默": 6266,
      "黛": 6267,
      "黜": 6268,
      "黝": 6269,
      "黠": 6270,
      "黢": 6271,
      "黧": 6272,
      "黯": 6273,
      "鼎": 6274,
      "鼐": 6275,
      "鼓": 6276,
      "鼠": 6277,
      "鼬": 6278,
      "鼻": 6279,
      "鼾": 6280,
      "齁": 6281,
      "齐": 6282,
      "齿": 6283,
      "龃": 6284,
      "龄": 6285,
      "龈": 6286,
      "龉": 6287,
      "龋": 6288,
      "龙": 6289,
      "龚": 6290,
      "龛": 6291,
      "龟": 6292,
      "龢": 6293,
      "ꍇ": 6294,
      "ꜣ": 6295,
      "ꜥ": 6296,
      "가": 6297,
      "간": 6298,
      "강": 6299,
      "같": 6300,
      "개": 6301,
      "거": 6302,
      "건": 6303,
      "걸": 6304,
      "것": 6305,
      "게": 6306,
      "겠": 6307,
      "결": 6308,
      "계": 6309,
      "고": 6310,
      "곡": 6311,
      "공": 6312,
      "관": 6313,
      "광": 6314,
      "굉": 6315,
      "구": 6316,
      "국": 6317,
      "그": 6318,
      "금": 6319,
      "기": 6320,
      "긴": 6321,
      "김": 6322,
      "까": 6323,
      "꾸": 6324,
      "나": 6325,
      "난": 6326,
      "내": 6327,
      "냈": 6328,
      "냐": 6329,
      "녀": 6330,
      "년": 6331,
      "노": 6332,
      "녹": 6333,
      "누": 6334,
      "느": 6335,
      "는": 6336,
      "니": 6337,
      "님": 6338,
      "다": 6339,
      "단": 6340,
      "달": 6341,
      "당": 6342,
      "대": 6343,
      "더": 6344,
      "던": 6345,
      "데": 6346,
      "덴": 6347,
      "도": 6348,
      "독": 6349,
      "돈": 6350,
      "동": 6351,
      "된": 6352,
      "드": 6353,
      "들": 6354,
      "때": 6355,
      "떻": 6356,
      "또": 6357,
      "라": 6358,
      "락": 6359,
      "람": 6360,
      "래": 6361,
      "런": 6362,
      "려": 6363,
      "련": 6364,
      "로": 6365,
      "르": 6366,
      "를": 6367,
      "마": 6368,
      "막": 6369,
      "만": 6370,
      "매": 6371,
      "먼": 6372,
      "면": 6373,
      "몇": 6374,
      "모": 6375,
      "못": 6376,
      "무": 6377,
      "문": 6378,
      "물": 6379,
      "미": 6380,
      "반": 6381,
      "배": 6382,
      "버": 6383,
      "보": 6384,
      "복": 6385,
      "본": 6386,
      "봐": 6387,
      "봤": 6388,
      "불": 6389,
      "붙": 6390,
      "뷰": 6391,
      "비": 6392,
      "사": 6393,
      "삼": 6394,
      "상": 6395,
      "서": 6396,
      "석": 6397,
      "성": 6398,
      "속": 6399,
      "시": 6400,
      "신": 6401,
      "실": 6402,
      "싶": 6403,
      "쓰": 6404,
      "씨": 6405,
      "아": 6406,
      "안": 6407,
      "알": 6408,
      "야": 6409,
      "약": 6410,
      "어": 6411,
      "억": 6412,
      "언": 6413,
      "엄": 6414,
      "업": 6415,
      "없": 6416,
      "었": 6417,
      "에": 6418,
      "엔": 6419,
      "연": 6420,
      "열": 6421,
      "였": 6422,
      "영": 6423,
      "예": 6424,
      "온": 6425,
      "옷": 6426,
      "왔": 6427,
      "용": 6428,
      "우": 6429,
      "운": 6430,
      "원": 6431,
      "위": 6432,
      "으": 6433,
      "은": 6434,
      "을": 6435,
      "음": 6436,
      "의": 6437,
      "이": 6438,
      "인": 6439,
      "일": 6440,
      "있": 6441,
      "자": 6442,
      "작": 6443,
      "잘": 6444,
      "장": 6445,
      "재": 6446,
      "저": 6447,
      "적": 6448,
      "전": 6449,
      "정": 6450,
      "제": 6451,
      "조": 6452,
      "좋": 6453,
      "주": 6454,
      "줌": 6455,
      "줬": 6456,
      "즈": 6457,
      "지": 6458,
      "질": 6459,
      "집": 6460,
      "추": 6461,
      "친": 6462,
      "카": 6463,
      "크": 6464,
      "탕": 6465,
      "터": 6466,
      "테": 6467,
      "트": 6468,
      "티": 6469,
      "판": 6470,
      "패": 6471,
      "푊": 6472,
      "표": 6473,
      "퓬": 6474,
      "하": 6475,
      "학": 6476,
      "한": 6477,
      "할": 6478,
      "해": 6479,
      "했": 6480,
      "허": 6481,
      "혜": 6482,
      "호": 6483,
      "혼": 6484,
      "화": 6485,
      "황": 6486,
      "회": 6487,
      "후": 6488,
      "히": 6489,
      "": 6490,
      "": 6491,
      "": 6492,
      "": 6493,
      "": 6494,
      "": 6495,
      "": 6496,
      "ﬀ": 6497,
      "ﬁ": 6498,
      "ﬂ": 6499,
      "️": 6500,
      "︰": 6501,
      "﹀": 6502,
      "﹏": 6503,
      "﹐": 6504,
      "﹑": 6505,
      "﹒": 6506,
      "﹔": 6507,
      "﹖": 6508,
      "﹗": 6509,
      "﹙": 6510,
      "﹚": 6511,
      "﹣": 6512,
      "﹪": 6513,
      "﻿": 6514,
      "！": 6515,
      "（": 6516,
      "）": 6517,
      "０": 6518,
      "１": 6519,
      "２": 6520,
      "４": 6521,
      "５": 6522,
      "９": 6523,
      "：": 6524,
      "；": 6525,
      "？": 6526,
      "｀": 6527,
      "～": 6528,
      "｡": 6529,
      "￣": 6530,
      "￥": 6531,
      "￼": 6532,
      "�": 6533,
      "𝟎": 6534,
      "𝟏": 6535,
      "🌐": 6536,
      "🌱": 6537,
      "🍩": 6538,
      "🍳": 6539,
      "🍼": 6540,
      "🏆": 6541,
      "🏾": 6542,
      "🐎": 6543,
      "🐴": 6544,
      "👍": 6545,
      "👏": 6546,
      "😀": 6547,
      "😂": 6548,
      "😊": 6549,
      "😐": 6550,
      "😝": 6551,
      "🙂": 6552,
      "🙌": 6553,
      "🙏": 6554,
      "🦐": 6555,
      "e ": 6556,
      " t": 6557,
      "s ": 6558,
      "in": 6559,
      " th": 6560,
      "er": 6561,
      "t ": 6562,
      "an": 6563,
      "d ": 6564,
      "on": 6565,
      "en": 6566,
      " the ": 6567,
      "or": 6568,
      ", ": 6569,
      "y ": 6570,
      "ar": 6571,
      "at": 6572,
      "al": 6573,
      "o ": 6574,
      "ou": 6575,
      "re": 6576,
      "ing": 6577,
      "it": 6578,
      ". ": 6579,
      "of": 6580,
      "st": 6581,
      "a ": 6582,
      "ic": 6583,
      "ed ": 6584,
      "and ": 6585,
      "ing ": 6586,
      "th": 6587,
      "om": 6588,
      "ion": 6589,
      "es": 6590,
      "er ": 6591,
      " to ": 6592,
      "il": 6593,
      "of ": 6594,
      "is ": 6595,
      "el": 6596,
      "ac": 6597,
      "ha": 6598,
      "is": 6599,
      "ed": 6600,
      "h ": 6601,
      "in ": 6602,
      "as": 6603,
      "for": 6604,
      ".\n": 6605,
      "es ": 6606,
      "ec": 6607,
      "ow": 6608,
      "at ": 6609,
      "ol": 6610,
      "an ": 6611,
      "he ": 6612,
      "am": 6613,
      "ent": 6614,
      "as ": 6615,
      "al ": 6616,
      "im": 6617,
      "id": 6618,
      "ro": 6619,
      "em": 6620,
      "ig": 6621,
      "pl": 6622,
      "us": 6623,
      "ve ": 6624,
      "wh": 6625,
      "。 ": 6626,
      "ur": 6627,
      "all": 6628,
      "en ": 6629,
      "et": 6630,
      "ad": 6631,
      "un": 6632,
      "ir": 6633,
      "ion ": 6634,
      "on ": 6635,
      "ver": 6636,
      "ab": 6637,
      "ch": 6638,
      "wit": 6639,
      "ag": 6640,
      "os": 6641,
      " that ": 6642,
      "le": 6643,
      "k ": 6644,
      "e th": 6645,
      "ay": 6646,
      "l ": 6647,
      "and": 6648,
      "The ": 6649,
      "ent ": 6650,
      "it ": 6651,
      "con": 6652,
      "for ": 6653,
      "ex": 6654,
      "com": 6655,
      "you": 6656,
      "20": 6657,
      "su": 6658,
      "ly ": 6659,
      "of the ": 6660,
      "ot": 6661,
      "ri": 6662,
      "pro": 6663,
      "or ": 6664,
      "op": 6665,
      "n ": 6666,
      "be": 6667,
      "li": 6668,
      "e t": 6669,
      "ear": 6670,
      "res": 6671,
      "ap": 6672,
      "ut": 6673,
      "was ": 6674,
      "int": 6675,
      "ul": 6676,
      "’s ": 6677,
      "fr": 6678,
      "s, ": 6679,
      "sh": 6680,
      "I ": 6681,
      " the": 6682,
      "se": 6683,
      ": ": 6684,
      "ak": 6685,
      "di": 6686,
      "are ": 6687,
      "with ": 6688,
      "ot ": 6689,
      "be ": 6690,
      "oun": 6691,
      " to": 6692,
      "ev": 6693,
      "ere ": 6694,
      "igh": 6695,
      "e, ": 6696,
      "in the ": 6697,
      "ew": 6698,
      "ation": 6699,
      "oc": 6700,
      "our": 6701,
      "oul": 6702,
      "um": 6703,
      "his ": 6704,
      "have ": 6705,
      "oo": 6706,
      "ect": 6707,
      "p ": 6708,
      "bl": 6709,
      "ers ": 6710,
      "from": 6711,
      "est": 6712,
      "00": 6713,
      "sa": 6714,
      "ut ": 6715,
      "per": 6716,
      "'s ": 6717,
      "ill ": 6718,
      "uc": 6719,
      "ould ": 6720,
      "qu": 6721,
      "if": 6722,
      "sp": 6723,
      "ay ": 6724,
      "cl": 6725,
      "oth": 6726,
      "wor": 6727,
      "act": 6728,
      "de": 6729,
      "ce ": 6730,
      "ation ": 6731,
      "out ": 6732,
      "art": 6733,
      "s. ": 6734,
      "ra": 6735,
      "ow ": 6736,
      "ic ": 6737,
      "not ": 6738,
      "ist": 6739,
      "一个": 6740,
      "by ": 6741,
      "iv": 6742,
      "ate ": 6743,
      "you ": 6744,
      "ant": 6745,
      "e. ": 6746,
      "one ": 6747,
      "Th": 6748,
      "por": 6749,
      "le ": 6750,
      "201": 6751,
      "ir ": 6752,
      "e the ": 6753,
      "gr": 6754,
      "has ": 6755,
      "we": 6756,
      " this ": 6757,
      "ff": 6758,
      ", the ": 6759,
      "ive ": 6760,
      "end": 6761,
      "ed to ": 6762,
      "我们": 6763,
      "e to ": 6764,
      "pr": 6765,
      ") ": 6766,
      "mor": 6767,
      "from ": 6768,
      "自己": 6769,
      "oug": 6770,
      "ill": 6771,
      "so ": 6772,
      "\" ": 6773,
      "ity ": 6774,
      "可以": 6775,
      "ally ": 6776,
      "rec": 6777,
      "” ": 6778,
      "will ": 6779,
      "ain": 6780,
      "over": 6781,
      "ong": 6782,
      "et ": 6783,
      "y, ": 6784,
      "ud": 6785,
      "ov": 6786,
      "ep": 6787,
      "ess": 6788,
      "all ": 6789,
      "ter": 6790,
      "ew ": 6791,
      "out": 6792,
      "pe": 6793,
      "od": 6794,
      "som": 6795,
      " that": 6796,
      "with": 6797,
      "str": 6798,
      "19": 6799,
      "ing the ": 6800,
      "e of ": 6801,
      "but ": 6802,
      ",这": 6803,
      "s and ": 6804,
      "m ": 6805,
      "0 ": 6806,
      "s of ": 6807,
      ", and ": 6808,
      ". I": 6809,
      "f ": 6810,
      "ar ": 6811,
      "we ": 6812,
      "St": 6813,
      "year": 6814,
      "man": 6815,
      " they ": 6816,
      "ang": 6817,
      "whic": 6818,
      "的,": 6819,
      "lik": 6820,
      "who ": 6821,
      "enc": 6822,
      " their ": 6823,
      " to the ": 6824,
      "ter ": 6825,
      "ack": 6826,
      "没有": 6827,
      "id ": 6828,
      "ob": 6829,
      "cont": 6830,
      "..": 6831,
      "s to ": 6832,
      "th ": 6833,
      "can ": 6834,
      "了,": 6835,
      "up": 6836,
      "ne": 6837,
      "ell": 6838,
      "hat ": 6839,
      "pos": 6840,
      "av": 6841,
      " tr": 6842,
      "he": 6843,
      "port": 6844,
      "do": 6845,
      "ies ": 6846,
      "on the ": 6847,
      "iz": 6848,
      "und": 6849,
      "which ": 6850,
      "就是": 6851,
      "would ": 6852,
      "sc": 6853,
      "ch ": 6854,
      "were ": 6855,
      "est ": 6856,
      ". The ": 6857,
      "ust ": 6858,
      "vi": 6859,
      "ing to ": 6860,
      "An": 6861,
      "ight": 6862,
      "our ": 6863,
      "ard": 6864,
      ",但": 6865,
      "ight ": 6866,
      "her ": 6867,
      "had ": 6868,
      "es, ": 6869,
      "r ": 6870,
      "been ": 6871,
      "other ": 6872,
      "its ": 6873,
      ",不": 6874,
      "off": 6875,
      "ind": 6876,
      "anc": 6877,
      "dis": 6878,
      "ast ": 6879,
      "pres": 6880,
      "opl": 6881,
      "bec": 6882,
      "ass": 6883,
      "ost ": 6884,
      "aw": 6885,
      "oll": 6886,
      "og": 6887,
      "par": 6888,
      "ment": 6889,
      "st ": 6890,
      "att": 6891,
      "fir": 6892,
      "el ": 6893,
      "ial ": 6894,
      "ord": 6895,
      "mak": 6896,
      "ed the ": 6897,
      "’t ": 6898,
      "me": 6899,
      "ough": 6900,
      "kn": 6901,
      "ast": 6902,
      "po": 6903,
      "In": 6904,
      "more ": 6905,
      "ug": 6906,
      "A ": 6907,
      "pre": 6908,
      "ice ": 6909,
      "s.\n": 6910,
      "Ch": 6911,
      "ail": 6912,
      "ey ": 6913,
      "peopl": 6914,
      ",在": 6915,
      "中国": 6916,
      "ser": 6917,
      "said": 6918,
      "own ": 6919,
      "ame ": 6920,
      " and ": 6921,
      "cre": 6922,
      "af": 6923,
      "her": 6924,
      "aus": 6925,
      "10": 6926,
      "ever": 6927,
      "about ": 6928,
      "ment ": 6929,
      "ated ": 6930,
      "arg": 6931,
      "ens": 6932,
      "also ": 6933,
      "什么": 6934,
      "for the ": 6935,
      ",而": 6936,
      "e.\n": 6937,
      "ad ": 6938,
      "inter": 6939,
      "br": 6940,
      "at the ": 6941,
      "时候": 6942,
      "pol": 6943,
      "fin": 6944,
      "and the ": 6945,
      "i ": 6946,
      "工作": 6947,
      "mon": 6948,
      "公司": 6949,
      "ely ": 6950,
      "fl": 6951,
      "acc": 6952,
      "form": 6953,
      "ical ": 6954,
      "age ": 6955,
      "si": 6956,
      "ary ": 6957,
      "因为": 6958,
      "my ": 6959,
      "sel": 6960,
      "your ": 6961,
      "ack ": 6962,
      "go": 6963,
      "他们": 6964,
      "up ": 6965,
      "Wh": 6966,
      "y the ": 6967,
      "cr": 6968,
      "comm": 6969,
      "ip": 6970,
      "em ": 6971,
      "a l": 6972,
      "如果": 6973,
      "ign": 6974,
      " tim": 6975,
      "min": 6976,
      "5 ": 6977,
      "comp": 6978,
      "ure": 6979,
      "ence ": 6980,
      "ess ": 6981,
      "duc": 6982,
      "co": 6983,
      "sid": 6984,
      "part": 6985,
      "work": 6986,
      "后,": 6987,
      "ous": 6988,
      "ure ": 6989,
      "ound": 6990,
      "any ": 6991,
      "的人": 6992,
      ",也": 6993,
      "时间": 6994,
      "own": 6995,
      "200": 6996,
      "play": 6997,
      "ount": 6998,
      "eth": 6999,
      "itt": 7000,
      " 1": 7001,
      "fe": 7002,
      "ust": 7003,
      "很多": 7004,
      ",我": 7005,
      "just ": 7006,
      "when ": 7007,
      "这个": 7008,
      "a s": 7009,
      "ous ": 7010,
      "most ": 7011,
      "him": 7012,
      ". H": 7013,
      "way": 7014,
      "ose ": 7015,
      "some ": 7016,
      "ant ": 7017,
      "what ": 7018,
      "day": 7019,
      "ity": 7020,
      "ese ": 7021,
      "emb": 7022,
      "ph": 7023,
      "am ": 7024,
      "s the ": 7025,
      "able ": 7026,
      "2 ": 7027,
      "no ": 7028,
      "not": 7029,
      "ubl": 7030,
      "vid": 7031,
      "say": 7032,
      "mer": 7033,
      ",一": 7034,
      "us ": 7035,
      "lin": 7036,
      "ions ": 7037,
      "This ": 7038,
      "dec": 7039,
      "ly": 7040,
      "said ": 7041,
      "with the ": 7042,
      "rem": 7043,
      "ite ": 7044,
      "ach": 7045,
      "孩子": 7046,
      "eg": 7047,
      "所以": 7048,
      "like ": 7049,
      "people ": 7050,
      "a f": 7051,
      "ans": 7052,
      "- ": 7053,
      "ile ": 7054,
      "ed by ": 7055,
      "bet": 7056,
      "old ": 7057,
      "ef": 7058,
      "ook": 7059,
      "1 ": 7060,
      "don": 7061,
      "ard ": 7062,
      "大家": 7063,
      "不是": 7064,
      "ain ": 7065,
      "Un": 7066,
      ",” ": 7067,
      "ed in ": 7068,
      "er, ": 7069,
      "des": 7070,
      "ict": 7071,
      "new ": 7072,
      "ound ": 7073,
      "dr": 7074,
      "? ": 7075,
      "。\n": 7076,
      "生活": 7077,
      "vers": 7078,
      " tak": 7079,
      "ann": 7080,
      "ong ": 7081,
      "还是": 7082,
      "if ": 7083,
      "x ": 7084,
      ". Th": 7085,
      "问题": 7086,
      "becaus": 7087,
      "非常": 7088,
      "wo ": 7089,
      "'t ": 7090,
      "e and ": 7091,
      "she ": 7092,
      "Al": 7093,
      "do ": 7094,
      "mar": 7095,
      "but": 7096,
      "进行": 7097,
      "reg": 7098,
      "e that ": 7099,
      "only ": 7100,
      "s in ": 7101,
      "inv": 7102,
      "时,": 7103,
      ". S": 7104,
      "ough ": 7105,
      "”\n": 7106,
      "could ": 7107,
      "ire": 7108,
      "from the ": 7109,
      "rat": 7110,
      "t of ": 7111,
      "ish": 7112,
      "s that ": 7113,
      ". B": 7114,
      "ey": 7115,
      "re ": 7116,
      "ult": 7117,
      "ood ": 7118,
      "需要": 7119,
      "was": 7120,
      "的时候": 7121,
      "可能": 7122,
      "发展": 7123,
      "e-": 7124,
      "bu": 7125,
      " there ": 7126,
      "sy": 7127,
      "a c": 7128,
      "已经": 7129,
      "inc": 7130,
      "a m": 7131,
      "了。": 7132,
      "hel": 7133,
      "abl": 7134,
      "sec": 7135,
      "Tr": 7136,
      "stat": 7137,
      ",有": 7138,
      "clud": 7139,
      "sup": 7140,
      "a b": 7141,
      "ick": 7142,
      "lat": 7143,
      "ies": 7144,
      "自己的": 7145,
      ", but ": 7146,
      " that the ": 7147,
      ",是": 7148,
      "ell ": 7149,
      "ement": 7150,
      ",并": 7151,
      "] ": 7152,
      "o the ": 7153,
      "gre": 7154,
      "都是": 7155,
      "first ": 7156,
      "ett": 7157,
      "4 ": 7158,
      "市场": 7159,
      "add": 7160,
      "into ": 7161,
      "ret": 7162,
      "这样": 7163,
      "We ": 7164,
      "get ": 7165,
      "3 ": 7166,
      "pt": 7167,
      "ener": 7168,
      "12": 7169,
      "企业": 7170,
      "ade ": 7171,
      "30": 7172,
      "人的": 7173,
      "中,": 7174,
      "read": 7175,
      "old": 7176,
      "overn": 7177,
      "bo": 7178,
      "eng": 7179,
      "hap": 7180,
      ".”\n": 7181,
      "ed, ": 7182,
      "S ": 7183,
      "现在": 7184,
      "il ": 7185,
      "very ": 7186,
      "ans ": 7187,
      "ree ": 7188,
      "app": 7189,
      "ition": 7190,
      " thin": 7191,
      "by the ": 7192,
      "– ": 7193,
      "car": 7194,
      "serv": 7195,
      "sur": 7196,
      "也是": 7197,
      "au": 7198,
      "11": 7199,
      ".\"": 7200,
      "diff": 7201,
      "want": 7202,
      "一些": 7203,
      "dev": 7204,
      "a, ": 7205,
      "ever ": 7206,
      "includ": 7207,
      ",\" ": 7208,
      "ory ": 7209,
      "bel": 7210,
      "ext": 7211,
      "ok": 7212,
      "6 ": 7213,
      "bas": 7214,
      "的是": 7215,
      " thr": 7216,
      "ance ": 7217,
      "ace ": 7218,
      "ond": 7219,
      "; ": 7220,
      "ek": 7221,
      "eas": 7222,
      "ers": 7223,
      "end ": 7224,
      "ert": 7225,
      "any": 7226,
      "gl": 7227,
      "的。": 7228,
      "ing, ": 7229,
      "again": 7230,
      "知道": 7231,
      ". A": 7232,
      "ident": 7233,
      "n’t ": 7234,
      "after ": 7235,
      "med": 7236,
      "leg": 7237,
      "chang": 7238,
      "ia ": 7239,
      "wr": 7240,
      "ist ": 7241,
      "cho": 7242,
      ",那": 7243,
      "mat": 7244,
      "ect ": 7245,
      "many ": 7246,
      ",就": 7247,
      "15": 7248,
      "In ": 7249,
      "— ": 7250,
      "publ": 7251,
      "ach ": 7252,
      "under": 7253,
      "sl": 7254,
      "so": 7255,
      "iss": 7256,
      "ere": 7257,
      "ing a ": 7258,
      "urn": 7259,
      "meric": 7260,
      "Fr": 7261,
      "ings ": 7262,
      " te": 7263,
      "cas": 7264,
      "count": 7265,
      "even ": 7266,
      "Americ": 7267,
      "govern": 7268,
      "ort": 7269,
      "对于": 7270,
      "back": 7271,
      "lo": 7272,
      "服务": 7273,
      "ook ": 7274,
      "ome ": 7275,
      "！ ": 7276,
      "18": 7277,
      "开始": 7278,
      "ue ": 7279,
      "ock": 7280,
      "how ": 7281,
      "ood": 7282,
      "riv": 7283,
      "好的": 7284,
      "over ": 7285,
      "来,": 7286,
      "\",": 7287,
      "You": 7288,
      "ub": 7289,
      "第一": 7290,
      " them": 7291,
      "ol ": 7292,
      "befor": 7293,
      "到了": 7294,
      "about": 7295,
      " than ": 7296,
      "worl": 7297,
      ":\n": 7298,
      "ial": 7299,
      "产品": 7300,
      "？ ": 7301,
      "call": 7302,
      "vis": 7303,
      "es and ": 7304,
      "大的": 7305,
      "umb": 7306,
      "Br": 7307,
      "Mar": 7308,
      "sub": 7309,
      "cur": 7310,
      ",你": 7311,
      "son": 7312,
      "的一": 7313,
      "last ": 7314,
      "7 ": 7315,
      "通过": 7316,
      "uch ": 7317,
      "ian ": 7318,
      "s are ": 7319,
      "gu": 7320,
      "ry ": 7321,
      "en the ": 7322,
      "ath": 7323,
      "选择": 7324,
      "y to ": 7325,
      "。在": 7326,
      "。这": 7327,
      ",但是": 7328,
      "ational ": 7329,
      "being ": 7330,
      "the ": 7331,
      "。\"": 7332,
      "ine ": 7333,
      ".\"\n": 7334,
      "make ": 7335,
      " these ": 7336,
      ",以": 7337,
      " two ": 7338,
      "ement ": 7339,
      "世界": 7340,
      "compl": 7341,
      "管理": 7342,
      "ank": 7343,
      ",其": 7344,
      "It ": 7345,
      "rel": 7346,
      "exp": 7347,
      "om ": 7348,
      "ual ": 7349,
      "技术": 7350,
      "ept": 7351,
      "cent": 7352,
      "pa": 7353,
      "重要": 7354,
      ".[": 7355,
      "Con": 7356,
      "day ": 7357,
      "such ": 7358,
      "ma": 7359,
      "比较": 7360,
      "oy": 7361,
      "经济": 7362,
      "op ": 7363,
      ",他": 7364,
      "org": 7365,
      "to ": 7366,
      "olog": 7367,
      "--": 7368,
      "man ": 7369,
      "is a ": 7370,
      "may ": 7371,
      "ations ": 7372,
      "produc": 7373,
      "On": 7374,
      "is the ": 7375,
      "gam": 7376,
      "为了": 7377,
      "should ": 7378,
      "\"的": 7379,
      "where ": 7380,
      "dat": 7381,
      "because ": 7382,
      "resp": 7383,
      "1.": 7384,
      "； ": 7385,
      ". I ": 7386,
      "ject": 7387,
      "buil": 7388,
      "a t": 7389,
      "一定": 7390,
      "喜欢": 7391,
      "ents ": 7392,
      "ib": 7393,
      "eb": 7394,
      "使用": 7395,
      "情况": 7396,
      "美国": 7397,
      "ish ": 7398,
      "ech": 7399,
      "offic": 7400,
      "50": 7401,
      "now ": 7402,
      "Ar": 7403,
      "上,": 7404,
      "differ": 7405,
      "方面": 7406,
      "说,": 7407,
      "ble ": 7408,
      "C ": 7409,
      "can": 7410,
      "ik": 7411,
      "cor": 7412,
      "run": 7413,
      "And ": 7414,
      "还有": 7415,
      "教育": 7416,
      "8 ": 7417,
      "in a ": 7418,
      "es to ": 7419,
      "ct": 7420,
      "spec": 7421,
      ")\n": 7422,
      "will be ": 7423,
      "report": 7424,
      "中的": 7425,
      "国家": 7426,
      "Com": 7427,
      "sol": 7428,
      "inst": 7429,
      "]\n": 7430,
      "ros": 7431,
      "much ": 7432,
      "cam": 7433,
      "9 ": 7434,
      "inn": 7435,
      "betwe": 7436,
      ", th": 7437,
      "as a ": 7438,
      "ion of ": 7439,
      "es of ": 7440,
      ". It ": 7441,
      "不能": 7442,
      "work ": 7443,
      "了一": 7444,
      "出现": 7445,
      "rect": 7446,
      "ors ": 7447,
      "cc": 7448,
      "pow": 7449,
      "投资": 7450,
      "安全": 7451,
      "ime ": 7452,
      "requ": 7453,
      "contr": 7454,
      "wat": 7455,
      "er of ": 7456,
      "ful": 7457,
      "设计": 7458,
      "stor": 7459,
      ":\"": 7460,
      "’ ": 7461,
      " them ": 7462,
      "eff": 7463,
      "law": 7464,
      ",00": 7465,
      "cap": 7466,
      "um ": 7467,
      ",我们": 7468,
      "ign ": 7469,
      "grou": 7470,
      "Cl": 7471,
      "ited ": 7472,
      "影响": 7473,
      "show": 7474,
      "dur": 7475,
      "wom": 7476,
      "朋友": 7477,
      "主要": 7478,
      "fact": 7479,
      ",让": 7480,
      "fi": 7481,
      "fer": 7482,
      "ost": 7483,
      "es.\n": 7484,
      "lead": 7485,
      "2.": 7486,
      "ating ": 7487,
      "how": 7488,
      ". “": 7489,
      "made ": 7490,
      " those ": 7491,
      "still ": 7492,
      "100": 7493,
      "sm": 7494,
      "人,": 7495,
      "polit": 7496,
      "不会": 7497,
      "Trum": 7498,
      "ash": 7499,
      "impl": 7500,
      "ually ": 7501,
      "happ": 7502,
      "sul": 7503,
      "port ": 7504,
      "cour": 7505,
      "alk": 7506,
      "lif": 7507,
      ",所以": 7508,
      "issu": 7509,
      "ed a ": 7510,
      "lear": 7511,
      "high": 7512,
      "tr": 7513,
      "能够": 7514,
      "?\n": 7515,
      "fac": 7516,
      "怎么": 7517,
      "elop": 7518,
      "ul ": 7519,
      "ie": 7520,
      "peri": 7521,
      "start": 7522,
      "是一": 7523,
      "stand": 7524,
      "不同": 7525,
      "ry": 7526,
      "16": 7527,
      "look": 7528,
      "下,": 7529,
      "ari": 7530,
      "as the ": 7531,
      "has been ": 7532,
      "point": 7533,
      "sum": 7534,
      "him ": 7535,
      "ily ": 7536,
      "syst": 7537,
      "13": 7538,
      "back ": 7539,
      "的\"": 7540,
      "yp": 7541,
      "lev": 7542,
      "作为": 7543,
      "It": 7544,
      "), ": 7545,
      "成为": 7546,
      "ific": 7547,
      "soc": 7548,
      "ask": 7549,
      "uct": 7550,
      "right": 7551,
      "son ": 7552,
      "ason": 7553,
      "g ": 7554,
      "治疗": 7555,
      "ould": 7556,
      "while ": 7557,
      "You ": 7558,
      "mov": 7559,
      "活动": 7560,
      " to be ": 7561,
      "方法": 7562,
      "new": 7563,
      "ed that ": 7564,
      "fam": 7565,
      "unt": 7566,
      "det": 7567,
      "发现": 7568,
      "学生": 7569,
      "17": 7570,
      "ative ": 7571,
      "numb": 7572,
      "应该": 7573,
      "cha": 7574,
      "或者": 7575,
      "plac": 7576,
      "社会": 7577,
      "week": 7578,
      "both": 7579,
      "能力": 7580,
      "see ": 7581,
      "学习": 7582,
      "ident ": 7583,
      "se ": 7584,
      "stud": 7585,
      "Re": 7586,
      "know": 7587,
      "o, ": 7588,
      "air": 7589,
      "mod": 7590,
      "really ": 7591,
      "这些": 7592,
      "arm": 7593,
      "n't ": 7594,
      "did": 7595,
      "loc": 7596,
      ". He ": 7597,
      "上的": 7598,
      "elect": 7599,
      "' ": 7600,
      "要求": 7601,
      "s, and ": 7602,
      "did ": 7603,
      "sk": 7604,
      "一样": 7605,
      "tt": 7606,
      "ed on ": 7607,
      " time ": 7608,
      ".S": 7609,
      "dem": 7610,
      "get": 7611,
      "14": 7612,
      "En": 7613,
      "ember ": 7614,
      "fil": 7615,
      "sign": 7616,
      "虽然": 7617,
      "expl": 7618,
      "foll": 7619,
      "down": 7620,
      "ilit": 7621,
      "other": 7622,
      "New ": 7623,
      ". M": 7624,
      "prot": 7625,
      "provid": 7626,
      "ep ": 7627,
      "leas": 7628,
      "mark": 7629,
      "I’": 7630,
      "have been ": 7631,
      ", which ": 7632,
      "hear": 7633,
      " tra": 7634,
      ",只": 7635,
      "起来": 7636,
      "hand": 7637,
      "ke": 7638,
      "def": 7639,
      "aim": 7640,
      "gener": 7641,
      "develop": 7642,
      ",从": 7643,
      "me ": 7644,
      "nam": 7645,
      "医院": 7646,
      "199": 7647,
      "同时": 7648,
      "ince ": 7649,
      "aff": 7650,
      "oft": 7651,
      "az": 7652,
      "mill": 7653,
      "invest": 7654,
      "...": 7655,
      "good ": 7656,
      "way ": 7657,
      "incre": 7658,
      "认为": 7659,
      "had": 7660,
      "beg": 7661,
      "ed with ": 7662,
      "now": 7663,
      "ide": 7664,
      "目前": 7665,
      " (": 7666,
      "are": 7667,
      "ip ": 7668,
      "提供": 7669,
      "years ": 7670,
      "it’s ": 7671,
      "ently ": 7672,
      "He ": 7673,
      "’re ": 7674,
      "觉得": 7675,
      "其实": 7676,
      "个人": 7677,
      "不要": 7678,
      "w ": 7679,
      "contin": 7680,
      "ern ": 7681,
      "vot": 7682,
      "chil": 7683,
      "ing and ": 7684,
      "someth": 7685,
      "well ": 7686,
      "every": 7687,
      "econ": 7688,
      ". T": 7689,
      "人员": 7690,
      "部分": 7691,
      "proc": 7692,
      "possi": 7693,
      "系统": 7694,
      ". W": 7695,
      "你的": 7696,
      "ition ": 7697,
      "liv": 7698,
      ",可": 7699,
      "commun": 7700,
      "% ": 7701,
      "But ": 7702,
      "giv": 7703,
      "。而": 7704,
      ". This ": 7705,
      "e than ": 7706,
      "专业": 7707,
      "ern": 7708,
      "年,": 7709,
      ". F": 7710,
      "es the ": 7711,
      "disc": 7712,
      "项目": 7713,
      "view": 7714,
      " think ": 7715,
      "hum": 7716,
      "it was ": 7717,
      "ustr": 7718,
      "know ": 7719,
      "Jo": 7720,
      "Ph": 7721,
      "呢？": 7722,
      "ris": 7723,
      "curr": 7724,
      "发生": 7725,
      "ing that ": 7726,
      "ed.\n": 7727,
      "And": 7728,
      "hom": 7729,
      "这种": 7730,
      "tern": 7731,
      "来的": 7732,
      "方式": 7733,
      "那么": 7734,
      "D ": 7735,
      "容易": 7736,
      "conc": 7737,
      ",最": 7738,
      "研究": 7739,
      "一起": 7740,
      "表示": 7741,
      "文化": 7742,
      " take ": 7743,
      "25": 7744,
      "col": 7745,
      "miss": 7746,
      "before ": 7747,
      "ind ": 7748,
      "特别": 7749,
      "prov": 7750,
      "ia": 7751,
      "quest": 7752,
      "40": 7753,
      "ates ": 7754,
      "spe": 7755,
      "press": 7756,
      "resul": 7757,
      "。但": 7758,
      ",为": 7759,
      "ric": 7760,
      "价格": 7761,
      "forc": 7762,
      "er to ": 7763,
      "城市": 7764,
      "it is ": 7765,
      "follow": 7766,
      "ress": 7767,
      "Le": 7768,
      "ampl": 7769,
      "Ad": 7770,
      "U.S": 7771,
      "same ": 7772,
      "ext ": 7773,
      "ivers": 7774,
      "如何": 7775,
      "er and ": 7776,
      "3.": 7777,
      "each ": 7778,
      "ve": 7779,
      ",000 ": 7780,
      "against ": 7781,
      "今天": 7782,
      "e in ": 7783,
      "self": 7784,
      "看到": 7785,
      "als ": 7786,
      "bre": 7787,
      "他的": 7788,
      "dep": 7789,
      "大学": 7790,
      "ave ": 7791,
      "y and ": 7792,
      ",对": 7793,
      "E ": 7794,
      " ter": 7795,
      "year ": 7796,
      "因此": 7797,
      "ounc": 7798,
      "act ": 7799,
      "ion, ": 7800,
      "ll ": 7801,
      "game ": 7802,
      "right ": 7803,
      "both ": 7804,
      "ers, ": 7805,
      "releas": 7806,
      "Sh": 7807,
      "ed for ": 7808,
      ",因为": 7809,
      "pat": 7810,
      "war": 7811,
      "lef": 7812,
      "larg": 7813,
      "less ": 7814,
      "所有": 7815,
      "消费": 7816,
      " then ": 7817,
      "direct": 7818,
      "between ": 7819,
      "down ": 7820,
      "with a ": 7821,
      "del": 7822,
      "s for ": 7823,
      "ed by the ": 7824,
      "month": 7825,
      "行业": 7826,
      "第二": 7827,
      "Bl": 7828,
      "need": 7829,
      "appear": 7830,
      "going to ": 7831,
      "Pres": 7832,
      "able to ": 7833,
      "government ": 7834,
      "人民": 7835,
      ",还": 7836,
      "P ": 7837,
      "过程": 7838,
      "es in ": 7839,
      "oper": 7840,
      "clos": 7841,
      "ove ": 7842,
      "increas": 7843,
      "bro": 7844,
      "come ": 7845,
      "e’s ": 7846,
      "might ": 7847,
      "never ": 7848,
      "ick ": 7849,
      "bus": 7850,
      "pop": 7851,
      "partic": 7852,
      "环境": 7853,
      "hav": 7854,
      "inform": 7855,
      "self ": 7856,
      "cit": 7857,
      "y.\n": 7858,
      ",而且": 7859,
      "char": 7860,
      "ation of ": 7861,
      "world": 7862,
      "oot": 7863,
      "per ": 7864,
      "reat": 7865,
      "la": 7866,
      "pass": 7867,
      "don’t ": 7868,
      "! ": 7869,
      "ys": 7870,
      ",如果": 7871,
      ". \"": 7872,
      "off ": 7873,
      "品牌": 7874,
      "use ": 7875,
      "wer": 7876,
      "into the ": 7877,
      "post": 7878,
      "T ": 7879,
      "hist": 7880,
      ", a ": 7881,
      "real": 7882,
      "about the ": 7883,
      "原因": 7884,
      "注意": 7885,
      "early ": 7886,
      "sit": 7887,
      "这一": 7888,
      "然后": 7889,
      "ing in ": 7890,
      "lim": 7891,
      "作用": 7892,
      "ional ": 7893,
      "econom": 7894,
      "希望": 7895,
      "甚至": 7896,
      "ular ": 7897,
      "person": 7898,
      "big": 7899,
      "after": 7900,
      "的事": 7901,
      "every ": 7902,
      "prof": 7903,
      "ity of ": 7904,
      "echn": 7905,
      "struct": 7906,
      "can be ": 7907,
      "日,": 7908,
      "ie ": 7909,
      "let": 7910,
      "成功": 7911,
      "e, and ": 7912,
      ". In ": 7913,
      "fun": 7914,
      "ide ": 7915,
      ". But ": 7916,
      "prom": 7917,
      "adv": 7918,
      "ious ": 7919,
      "long": 7920,
      "ed and ": 7921,
      "国际": 7922,
      "state ": 7923,
      "Ob": 7924,
      "ially ": 7925,
      "val": 7926,
      "一直": 7927,
      "建设": 7928,
      "ed in the ": 7929,
      "o-": 7930,
      "land": 7931,
      "以及": 7932,
      "信息": 7933,
      " this": 7934,
      "fort": 7935,
      "public ": 7936,
      "了解": 7937,
      "由于": 7938,
      " think": 7939,
      "pur": 7940,
      "自然": 7941,
      "import": 7942,
      "probl": 7943,
      "polic": 7944,
      "continu": 7945,
      "atur": 7946,
      "ittle ": 7947,
      "的话": 7948,
      "根据": 7949,
      "学校": 7950,
      "ship ": 7951,
      "s\n": 7952,
      "ber": 7953,
      "关系": 7954,
      "ott": 7955,
      "go ": 7956,
      "老师": 7957,
      "int ": 7958,
      "one of the ": 7959,
      "60": 7960,
      "another ": 7961,
      "基本": 7962,
      "build": 7963,
      "empl": 7964,
      "would be ": 7965,
      "abil": 7966,
      "more than ": 7967,
      ",要": 7968,
      "e: ": 7969,
      "Rep": 7970,
      "claim": 7971,
      ",大": 7972,
      ",当": 7973,
      ".” ": 7974,
      "Pro": 7975,
      "健康": 7976,
      "art ": 7977,
      "does ": 7978,
      "well": 7979,
      "生产": 7980,
      "ian": 7981,
      "各种": 7982,
      " three ": 7983,
      "年的": 7984,
      "pris": 7985,
      "If ": 7986,
      "分析": 7987,
      "必须": 7988,
      "ered ": 7989,
      "heal": 7990,
      "does": 7991,
      "Pr": 7992,
      "ically ": 7993,
      "cent ": 7994,
      "put": 7995,
      "he was ": 7996,
      "seem": 7997,
      "cri": 7998,
      "多的": 7999,
      "en, ": 8000,
      ". N": 8001,
      "其他": 8002,
      "地方": 8003,
      "ass ": 8004,
      "igh ": 8005,
      "0.": 8006,
      "直接": 8007,
      "一次": 8008,
      "ing for ": 8009,
      "es that ": 8010,
      "dist": 8011,
      "吗？": 8012,
      "获得": 8013,
      "ready ": 8014,
      "fri": 8015,
      "相关": 8016,
      "organ": 8017,
      "just": 8018,
      "hal": 8019,
      "since ": 8020,
      "have to ": 8021,
      " through ": 8022,
      "ism ": 8023,
      "When ": 8024,
      "-t": 8025,
      "关注": 8026,
      "s of the ": 8027,
      "Gr": 8028,
      "rist": 8029,
      "I'": 8030,
      ". D": 8031,
      "ire ": 8032,
      "opt": 8033,
      "scho": 8034,
      "中心": 8035,
      "提高": 8036,
      "head": 8037,
      "said.\n": 8038,
      "也不": 8039,
      "感觉": 8040,
      "For": 8041,
      "aut": 8042,
      "ient": 8043,
      "arr": 8044,
      "ways ": 8045,
      ",\"": 8046,
      "ation, ": 8047,
      "运动": 8048,
      "ism": 8049,
      "what": 8050,
      "allow": 8051,
      "progr": 8052,
      "00 ": 8053,
      "olv": 8054,
      "red": 8055,
      "able": 8056,
      "consid": 8057,
      "equ": 8058,
      "具有": 8059,
      "80": 8060,
      "play ": 8061,
      "y of ": 8062,
      "ax": 8063,
      "ship": 8064,
      "ought ": 8065,
      "4.": 8066,
      "效果": 8067,
      "ason ": 8068,
      " through": 8069,
      "ning ": 8070,
      "first": 8071,
      "e\n": 8072,
      "ah": 8073,
      "ful ": 8074,
      "实现": 8075,
      "writ": 8076,
      "\"。": 8077,
      "分钟": 8078,
      ",可以": 8079,
      "Sp": 8080,
      "experi": 8081,
      " they": 8082,
      "eir ": 8083,
      "一种": 8084,
      "之后": 8085,
      "itut": 8086,
      "side ": 8087,
      "jo": 8088,
      "之前": 8089,
      "出了": 8090,
      "我的": 8091,
      ", they ": 8092,
      "身体": 8093,
      "一点": 8094,
      "sever": 8095,
      "present": 8096,
      "want to ": 8097,
      "进入": 8098,
      "support": 8099,
      "功能": 8100,
      "by": 8101,
      "一般": 8102,
      "over the ": 8103,
      "不过": 8104,
      "inal ": 8105,
      "appl": 8106,
      "activ": 8107,
      "组织": 8108,
      "ont": 8109,
      "ith": 8110,
      "Nor": 8111,
      "内容": 8112,
      "ally": 8113,
      "s. The ": 8114,
      "different ": 8115,
      "Trump ": 8116,
      "人们": 8117,
      "American ": 8118,
      "完成": 8119,
      "患者": 8120,
      "without ": 8121,
      "help": 8122,
      "这样的": 8123,
      "子,": 8124,
      ".com": 8125,
      "Par": 8126,
      ", 201": 8127,
      "ribut": 8128,
      "happen": 8129,
      "best ": 8130,
      "vir": 8131,
      "minist": 8132,
      "great ": 8133,
      ",更": 8134,
      "dra": 8135,
      "hard": 8136,
      "bor": 8137,
      "两个": 8138,
      "ics ": 8139,
      " trans": 8140,
      "job": 8141,
      "system": 8142,
      "hop": 8143,
      "United ": 8144,
      "数据": 8145,
      "是在": 8146,
      "a lot ": 8147,
      "rac": 8148,
      "ond ": 8149,
      "s t": 8150,
      "enn": 8151,
      "product": 8152,
      "标准": 8153,
      "busin": 8154,
      "effect": 8155,
      "存在": 8156,
      "rece": 8157,
      "Ex": 8158,
      "ink": 8159,
      "it's ": 8160,
      ",每": 8161,
      "8年": 8162,
      ". P": 8163,
      "form ": 8164,
      "succ": 8165,
      "something ": 8166,
      "nor": 8167,
      "put ": 8168,
      "ities ": 8169,
      ". O": 8170,
      "is not ": 8171,
      "e to the ": 8172,
      "mp": 8173,
      "了。 ": 8174,
      "才能": 8175,
      "ton ": 8176,
      "ale ": 8177,
      "导致": 8178,
      "ugh": 8179,
      "ge ": 8180,
      "appro": 8181,
      "Joh": 8182,
      ", I ": 8183,
      "group": 8184,
      "next ": 8185,
      "look ": 8186,
      "手机": 8187,
      "ing.\n": 8188,
      "esp": 8189,
      "s on ": 8190,
      "auth": 8191,
      "charact": 8192,
      "N ": 8193,
      "这么": 8194,
      "vide": 8195,
      "10 ": 8196,
      "24": 8197,
      "完全": 8198,
      "结果": 8199,
      "around ": 8200,
      "exampl": 8201,
      "东西": 8202,
      "already ": 8203,
      "plan": 8204,
      "world ": 8205,
      "真的": 8206,
      "2、": 8207,
      "simpl": 8208,
      "历史": 8209,
      "eld": 8210,
      "line ": 8211,
      "),": 8212,
      "ak ": 8213,
      "e's ": 8214,
      "rop": 8215,
      "including ": 8216,
      "coll": 8217,
      "my": 8218,
      "比如": 8219,
      "北京": 8220,
      "called ": 8221,
      "ing of ": 8222,
      ". It": 8223,
      "L ": 8224,
      "的大": 8225,
      "all the ": 8226,
      "charg": 8227,
      "出来": 8228,
      "under ": 8229,
      "help ": 8230,
      "fre": 8231,
      ",这样": 8232,
      "idd": 8233,
      "ably ": 8234,
      "是一个": 8235,
      "on, ": 8236,
      "bod": 8237,
      "political ": 8238,
      "cert": 8239,
      "ise ": 8240,
      "police ": 8241,
      "只有": 8242,
      "增加": 8243,
      "ifi": 8244,
      "ther ": 8245,
      "set ": 8246,
      "ists ": 8247,
      "part ": 8248,
      "As ": 8249,
      "doc": 8250,
      "政府": 8251,
      "exc": 8252,
      "任何": 8253,
      "eral ": 8254,
      "Obam": 8255,
      "vent": 8256,
      "got ": 8257,
      "平台": 8258,
      "ired ": 8259,
      "ee ": 8260,
      "rul": 8261,
      "好,": 8262,
      ". We ": 8263,
      "操作": 8264,
      "ed to the ": 8265,
      "合作": 8266,
      "时代": 8267,
      "respon": 8268,
      "保持": 8269,
      "帮助": 8270,
      "rest": 8271,
      "ole ": 8272,
      "ular": 8273,
      "We": 8274,
      "空间": 8275,
      "ake ": 8276,
      "bill": 8277,
      "i-": 8278,
      "national ": 8279,
      "ith ": 8280,
      "used ": 8281,
      "wher": 8282,
      "一下": 8283,
      "e they ": 8284,
      "uck": 8285,
      "complet": 8286,
      "caus": 8287,
      "ether ": 8288,
      "Sc": 8289,
      "er.\n": 8290,
      "red ": 8291,
      ". L": 8292,
      "There ": 8293,
      ",将": 8294,
      "iev": 8295,
      " too": 8296,
      "基础": 8297,
      "erg": 8298,
      "ers and ": 8299,
      "外,": 8300,
      "ush": 8301,
      "aph": 8302,
      "ourc": 8303,
      "5.": 8304,
      "found": 8305,
      "u ": 8306,
      "！\n": 8307,
      "的时候,": 8308,
      "的小": 8309,
      "divid": 8310,
      "accord": 8311,
      "之后,": 8312,
      "地区": 8313,
      "这里": 8314,
      "interest": 8315,
      "27": 8316,
      "Yor": 8317,
      "家庭": 8318,
      "always ": 8319,
      "for a ": 8320,
      "Af": 8321,
      "vari": 8322,
      "无法": 8323,
      "银行": 8324,
      ". They ": 8325,
      "result": 8326,
      "s (": 8327,
      "manag": 8328,
      "Pl": 8329,
      "vert": 8330,
      "e this ": 8331,
      "list": 8332,
      "'re ": 8333,
      "Chin": 8334,
      "21": 8335,
      "ear ": 8336,
      "价值": 8337,
      "小编": 8338,
      "继续": 8339,
      "网络": 8340,
      "ing on ": 8341,
      "says ": 8342,
      "Sy": 8343,
      "high ": 8344,
      "iet": 8345,
      "ies, ": 8346,
      "一步": 8347,
      "employ": 8348,
      "23": 8349,
      "Dem": 8350,
      "mag": 8351,
      "stu": 8352,
      "U.S. ": 8353,
      "之间": 8354,
      "形成": 8355,
      "non": 8356,
      "ven": 8357,
      "知识": 8358,
      "some": 8359,
      "精神": 8360,
      "fund": 8361,
      "long ": 8362,
      "memb": 8363,
      "stre": 8364,
      "need to ": 8365,
      "ek ": 8366,
      "give ": 8367,
      "美元": 8368,
      "ever, ": 8369,
      "US": 8370,
      "ly, ": 8371,
      "must ": 8372,
      "。我": 8373,
      "es are ": 8374,
      ",那么": 8375,
      "简单": 8376,
      "ouse ": 8377,
      "26": 8378,
      "e.": 8379,
      "Is": 8380,
      "investig": 8381,
      ",他们": 8382,
      "Wor": 8383,
      "os ": 8384,
      "pay": 8385,
      "解决": 8386,
      "ali": 8387,
      "crit": 8388,
      "expect": 8389,
      ",如": 8390,
      "Rus": 8391,
      "控制": 8392,
      "提升": 8393,
      "支持": 8394,
      "e to": 8395,
      "was the ": 8396,
      "ore ": 8397,
      "e. The ": 8398,
      "... ": 8399,
      "find ": 8400,
      "pit": 8401,
      "创新": 8402,
      "处理": 8403,
      "empt": 8404,
      "childr": 8405,
      "质量": 8406,
      " tri": 8407,
      "机会": 8408,
      "模式": 8409,
      "thing ": 8410,
      "maj": 8411,
      ", who ": 8412,
      "ail ": 8413,
      "Republ": 8414,
      "29": 8415,
      "R ": 8416,
      "found ": 8417,
      "拥有": 8418,
      "日本": 8419,
      "season": 8420,
      "grow": 8421,
      ". In": 8422,
      "Mc": 8423,
      "表现": 8424,
      ". And ": 8425,
      "包括": 8426,
      "ich": 8427,
      "avail": 8428,
      "ieve ": 8429,
      "不断": 8430,
      "就会": 8431,
      "除了": 8432,
      "open": 8433,
      "view ": 8434,
      "vict": 8435,
      "s in the ": 8436,
      "ativ": 8437,
      "Gre": 8438,
      "为什么": 8439,
      "pert": 8440,
      "rain": 8441,
      "New Yor": 8442,
      "ste": 8443,
      "resear": 8444,
      "> ": 8445,
      "产生": 8446,
      "erv": 8447,
      "al, ": 8448,
      "depend": 8449,
      " team": 8450,
      "e, the ": 8451,
      "net": 8452,
      "place ": 8453,
      "percent ": 8454,
      "What ": 8455,
      "sex": 8456,
      "交易": 8457,
      "最后": 8458,
      "我们的": 8459,
      "attack": 8460,
      "得到": 8461,
      "design": 8462,
      ",她": 8463,
      "努力": 8464,
      "更加": 8465,
      ". E": 8466,
      "you can ": 8467,
      "find": 8468,
      "sug": 8469,
      ",再": 8470,
      ",都": 8471,
      "O ": 8472,
      "pri": 8473,
      "第三": 8474,
      "million ": 8475,
      "克,": 8476,
      "达到": 8477,
      "造成": 8478,
      "ank ": 8479,
      "urn ": 8480,
      "friend": 8481,
      "准备": 8482,
      "ously ": 8483,
      "今年": 8484,
      "旅游": 8485,
      " told ": 8486,
      "feat": 8487,
      "He": 8488,
      "t the ": 8489,
      "ed as ": 8490,
      "former ": 8491,
      "Pol": 8492,
      "全国": 8493,
      "using ": 8494,
      "28": 8495,
      "kill": 8496,
      "只是": 8497,
      "actually ": 8498,
      "。如果": 8499,
      "of a ": 8500,
      "adi": 8501,
      "mean": 8502,
      "工程": 8503,
      "ple ": 8504,
      "ward": 8505,
      "rot": 8506,
      "group ": 8507,
      "tim": 8508,
      "campa": 8509,
      "fig": 8510,
      "hold": 8511,
      "金融": 8512,
      "viol": 8513,
      "500": 8514,
      "cle": 8515,
      "mus": 8516,
      "od ": 8517,
      "light": 8518,
      "产业": 8519,
      "ately ": 8520,
      "以上": 8521,
      "采用": 8522,
      "ix": 8523,
      "pot": 8524,
      "决定": 8525,
      "单位": 8526,
      "One ": 8527,
      "。当": 8528,
      "比赛": 8529,
      "orig": 8530,
      "30 ": 8531,
      "国内": 8532,
      "ed to": 8533,
      "etting ": 8534,
      "Eu": 8535,
      "Qu": 8536,
      "four ": 8537,
      "代表": 8538,
      "父母": 8539,
      "a and ": 8540,
      "不到": 8541,
      "20 ": 8542,
      "Univers": 8543,
      "support ": 8544,
      "Can": 8545,
      "参加": 8546,
      "ity, ": 8547,
      "s were ": 8548,
      "youn": 8549,
      "ary": 8550,
      "acros": 8551,
      "Republic": 8552,
      "gest": 8553,
      "需求": 8554,
      "面的": 8555,
      "9年": 8556,
      "实际": 8557,
      "汽车": 8558,
      "相信": 8559,
      "in this ": 8560,
      "They ": 8561,
      "别人": 8562,
      "say ": 8563,
      "decis": 8564,
      "许多": 8565,
      "ering ": 8566,
      "ection ": 8567,
      "US ": 8568,
      "dom": 8569,
      "大,": 8570,
      "record": 8571,
      "crim": 8572,
      "sist": 8573,
      "Christ": 8574,
      "For ": 8575,
      "met": 8576,
      "机构": 8577,
      "President ": 8578,
      ", to ": 8579,
      "6.": 8580,
      "作者": 8581,
      "材料": 8582,
      "prob": 8583,
      "Ap": 8584,
      "land ": 8585,
      "压力": 8586,
      "新的": 8587,
      "真正": 8588,
      "government": 8589,
      "often ": 8590,
      ", that ": 8591,
      "坚持": 8592,
      "是否": 8593,
      "it, ": 8594,
      "opp": 8595,
      "medi": 8596,
      "70": 8597,
      "游戏": 8598,
      "现场": 8599,
      "ocrat": 8600,
      "随着": 8601,
      "ing to the ": 8602,
      ". (": 8603,
      "agre": 8604,
      "ru": 8605,
      "会有": 8606,
      "利用": 8607,
      "imag": 8608,
      "compan": 8609,
      "nes": 8610,
      "目标": 8611,
      "行为": 8612,
      "better ": 8613,
      "number of ": 8614,
      "3、": 8615,
      "M ": 8616,
      "Sou": 8617,
      "low": 8618,
      "feel": 8619,
      "secur": 8620,
      "-- ": 8621,
      "ax ": 8622,
      "sen": 8623,
      "real ": 8624,
      "ized ": 8625,
      "__": 8626,
      "program": 8627,
      "less": 8628,
      ". C": 8629,
      "head ": 8630,
      "22": 8631,
      "was a ": 8632,
      "deb": 8633,
      "become ": 8634,
      "很多人": 8635,
      ",它": 8636,
      "秦珍": 8637,
      "word": 8638,
      "du": 8639,
      "增长": 8640,
      "生命": 8641,
      ". R": 8642,
      "Indi": 8643,
      "priv": 8644,
      "te": 8645,
      "保护": 8646,
      "政策": 8647,
      "电话": 8648,
      "ing t": 8649,
      "great": 8650,
      "Russi": 8651,
      "!\n": 8652,
      "销售": 8653,
      "of this ": 8654,
      "ency ": 8655,
      "I’m ": 8656,
      ",即": 8657,
      "传统": 8658,
      "有效": 8659,
      "around": 8660,
      "ock ": 8661,
      "ity to ": 8662,
      "Sen": 8663,
      "建议": 8664,
      "ely": 8665,
      "problem": 8666,
      "augh": 8667,
      "有些": 8668,
      "条件": 8669,
      "来说": 8670,
      " there": 8671,
      "have a ": 8672,
      "a few ": 8673,
      ",用": 8674,
      "Don": 8675,
      "imp": 8676,
      "known ": 8677,
      "ense ": 8678,
      "don't ": 8679,
      "descri": 8680,
      "left ": 8681,
      ",然后": 8682,
      "[ ": 8683,
      "资源": 8684,
      "ark": 8685,
      "least ": 8686,
      "s, the ": 8687,
      "小时": 8688,
      "建筑": 8689,
      ", he ": 8690,
      "ref": 8691,
      "conn": 8692,
      "making ": 8693,
      "eit": 8694,
      "vol": 8695,
      "想要": 8696,
      "网友": 8697,
      "ers. ": 8698,
      ").\n": 8699,
      "客户": 8700,
      "imil": 8701,
      "fail": 8702,
      "左右": 8703,
      "ion to ": 8704,
      "event": 8705,
      "out of ": 8706,
      " team ": 8707,
      "will": 8708,
      "经常": 8709,
      "stitut": 8710,
      "and t": 8711,
      "z ": 8712,
      "’ve ": 8713,
      "点,": 8714,
      "web": 8715,
      "several ": 8716,
      "介绍": 8717,
      "都有": 8718,
      "ally, ": 8719,
      "involv": 8720,
      "消费者": 8721,
      "United St": 8722,
      "1、": 8723,
      "Car": 8724,
      "level": 8725,
      ", there ": 8726,
      "show ": 8727,
      "& ": 8728,
      "不少": 8729,
      "ated": 8730,
      "echnolog": 8731,
      "加入": 8732,
      "皮肤": 8733,
      "New": 8734,
      "s: ": 8735,
      "科技": 8736,
      ",又": 8737,
      "ben": 8738,
      "ebr": 8739,
      "如此": 8740,
      "水平": 8741,
      "计划": 8742,
      "亿元": 8743,
      "ator": 8744,
      "reason": 8745,
      "s with ": 8746,
      "IS": 8747,
      "全球": 8748,
      "来看": 8749,
      "科学": 8750,
      "of their ": 8751,
      "servic": 8752,
      ",无": 8753,
      "来越": 8754,
      "的心": 8755,
      "anal": 8756,
      "why ": 8757,
      "领导": 8758,
      "saf": 8759,
      "announc": 8760,
      "after the ": 8761,
      "有限": 8762,
      "graph": 8763,
      "previ": 8764,
      "milit": 8765,
      "越来越": 8766,
      "ion.\n": 8767,
      "project": 8768,
      "return": 8769,
      "famil": 8770,
      "Cent": 8771,
      "Or": 8772,
      "记者": 8773,
      "un ": 8774,
      "life ": 8775,
      "bit": 8776,
      "不仅": 8777,
      "交通": 8778,
      " too ": 8779,
      ",就是": 8780,
      "As": 8781,
      "ble": 8782,
      ", t": 8783,
      "here ": 8784,
      "经过": 8785,
      "ine": 8786,
      "defin": 8787,
      ",这个": 8788,
      ". If ": 8789,
      "believe ": 8790,
      "故事": 8791,
      "err": 8792,
      "itor": 8793,
      "a h": 8794,
      "ici": 8795,
      "as well ": 8796,
      ",使": 8797,
      "les ": 8798,
      "之一": 8799,
      "对方": 8800,
      "显示": 8801,
      "refer": 8802,
      "eck": 8803,
      "Col": 8804,
      "sal": 8805,
      "后的": 8806,
      "individ": 8807,
      "ederal ": 8808,
      "clear": 8809,
      "five ": 8810,
      "kind ": 8811,
      "超过": 8812,
      "imm": 8813,
      "such as ": 8814,
      "Gu": 8815,
      ". A ": 8816,
      "has": 8817,
      "ur ": 8818,
      "ap ": 8819,
      "198": 8820,
      "company ": 8821,
      "fut": 8822,
      "但是": 8823,
      "多,": 8824,
      "妈妈": 8825,
      "away ": 8826,
      "during the ": 8827,
      "Mus": 8828,
      "明显": 8829,
      "remain": 8830,
      "men ": 8831,
      "set": 8832,
      "成了": 8833,
      "并不": 8834,
      "电影": 8835,
      "未来": 8836,
      "里,": 8837,
      "2017": 8838,
      "which": 8839,
      "duct": 8840,
      "aj": 8841,
      "iqu": 8842,
      "sch": 8843,
      "带来": 8844,
      "edit ": 8845,
      "women ": 8846,
      "**": 8847,
      "ures ": 8848,
      "cat": 8849,
      "edg": 8850,
      "im ": 8851,
      "had been ": 8852,
      "if you ": 8853,
      "AT": 8854,
      "los": 8855,
      "ality ": 8856,
      "ought": 8857,
      ".\" ": 8858,
      "方向": 8859,
      "集团": 8860,
      "pract": 8861,
      "35": 8862,
      "ven ": 8863,
      "发布": 8864,
      "ull": 8865,
      "shar": 8866,
      "social ": 8867,
      "bar": 8868,
      "hour": 8869,
      "属于": 8870,
      "积极": 8871,
      "alleng": 8872,
      "Be": 8873,
      "的。 ": 8874,
      "资金": 8875,
      "都会": 8876,
      "期间": 8877,
      "疾病": 8878,
      "beh": 8879,
      "during ": 8880,
      "bi": 8881,
      "foc": 8882,
      "上海": 8883,
      "状态": 8884,
      "ed at ": 8885,
      "point ": 8886,
      "day, ": 8887,
      "Clint": 8888,
      "suggest": 8889,
      "pi": 8890,
      "sor": 8891,
      ",并且": 8892,
      "energ": 8893,
      "Ir": 8894,
      "ject ": 8895,
      "不得": 8896,
      "十分": 8897,
      "改变": 8898,
      "系列": 8899,
      "human ": 8900,
      "histor": 8901,
      "不可": 8902,
      "出的": 8903,
      "seen ": 8904,
      "scre": 8905,
      "变化": 8906,
      "部门": 8907,
      ",看": 8908,
      "IN": 8909,
      "bur": 8910,
      "far ": 8911,
      "关于": 8912,
      "phot": 8913,
      "受到": 8914,
      "exist": 8915,
      "potent": 8916,
      "aver": 8917,
      "iver": 8918,
      "多少": 8919,
      "性的": 8920,
      "spok": 8921,
      "90": 8922,
      "cover": 8923,
      "保险": 8924,
      "关键": 8925,
      "当时": 8926,
      "经营": 8927,
      "data ": 8928,
      "market": 8929,
      "有一": 8930,
      "结构": 8931,
      "食物": 8932,
      "compet": 8933,
      "Co": 8934,
      "责任": 8935,
      "ather": 8936,
      "e, but ": 8937,
      "[ edit ": 8938,
      "Wil": 8939,
      "dam": 8940,
      "nation": 8941,
      "来说,": 8942,
      "用户": 8943,
      "an, ": 8944,
      "。 在": 8945,
      "on a ": 8946,
      "De": 8947,
      "Mon": 8948,
      "mis": 8949,
      "你们": 8950,
      "年轻": 8951,
      ". Wh": 8952,
      "....": 8953,
      "ured ": 8954,
      "Trump": 8955,
      "That ": 8956,
      "came ": 8957,
      "gen": 8958,
      "erc": 8959,
      "Isra": 8960,
      "El": 8961,
      "RE": 8962,
      "fav": 8963,
      "went ": 8964,
      "有的": 8965,
      "I was ": 8966,
      " that they ": 8967,
      "/ ": 8968,
      "2018年": 8969,
      "organiz": 8970,
      "den": 8971,
      "正常": 8972,
      "里的": 8973,
      "system ": 8974,
      "didn’t ": 8975,
      "receiv": 8976,
      "Ge": 8977,
      "肯定": 8978,
      "首先": 8979,
      " turn": 8980,
      "eld ": 8981,
      "ying ": 8982,
      "imes ": 8983,
      "ument": 8984,
      "It’s ": 8985,
      "Ger": 8986,
      "。所以": 8987,
      "保证": 8988,
      "综合": 8989,
      "in 201": 8990,
      "local ": 8991,
      "Democrat": 8992,
      "s a ": 8993,
      "relat": 8994,
      "but the ": 8995,
      "change ": 8996,
      "Fl": 8997,
      "那些": 8998,
      "almost ": 8999,
      "e their ": 9000,
      "discus": 9001,
      "= ": 9002,
      "fur": 9003,
      "good": 9004,
      "ecut": 9005,
      "conf": 9006,
      "rais": 9007,
      "selv": 9008,
      "Man": 9009,
      "的问题": 9010,
      "过去": 9011,
      "live ": 9012,
      "out the ": 9013,
      "power ": 9014,
      "driv": 9015,
      "ner": 9016,
      "rol": 9017,
      "’ll ": 9018,
      "同样": 9019,
      "持续": 9020,
      "information ": 9021,
      "风险": 9022,
      ", and": 9023,
      "ham": 9024,
      "agu": 9025,
      " trad": 9026,
      "\"。 ": 9027,
      "更多": 9028,
      "ore": 9029,
      "usp": 9030,
      "agg": 9031,
      "e that": 9032,
      "based ": 9033,
      "did not ": 9034,
      "mitt": 9035,
      "would": 9036,
      "也有": 9037,
      "ourn": 9038,
      "minut": 9039,
      "power": 9040,
      ",同时": 9041,
      "Nov": 9042,
      "be the ": 9043,
      "告诉": 9044,
      "init": 9045,
      "oppos": 9046,
      ",这是": 9047,
      "meet": 9048,
      "der": 9049,
      "的情况": 9050,
      " than": 9051,
      "ount ": 9052,
      "Brit": 9053,
      "author": 9054,
      "[ edit ]\n": 9055,
      "ron": 9056,
      "sent": 9057,
      "of t": 9058,
      "接受": 9059,
      "ld ": 9060,
      "mad": 9061,
      "引起": 9062,
      "alk ": 9063,
      "up to ": 9064,
      "second ": 9065,
      "Jun": 9066,
      "rang": 9067,
      "人生": 9068,
      "infl": 9069,
      "feel ": 9070,
      "专家": 9071,
      "具体": 9072,
      "is that ": 9073,
      "when": 9074,
      "一定要": 9075,
      "cult": 9076,
      "noth": 9077,
      "。他": 9078,
      "业务": 9079,
      "设备": 9080,
      "whil": 9081,
      "197": 9082,
      ", this ": 9083,
      "B ": 9084,
      "On ": 9085,
      "dou": 9086,
      "只能": 9087,
      "艺术": 9088,
      "se, ": 9089,
      "artic": 9090,
      "meas": 9091,
      "said, ": 9092,
      "itional ": 9093,
      "习惯": 9094,
      "面积": 9095,
      "a lot of ": 9096,
      "丰富": 9097,
      "癜风": 9098,
      "白癜风": 9099,
      "规定": 9100,
      "ing with ": 9101,
      ": \"": 9102,
      " try": 9103,
      "整个": 9104,
      "智能": 9105,
      "s from ": 9106,
      "ator ": 9107,
      "coming ": 9108,
      "watch": 9109,
      "45": 9110,
      "Ju": 9111,
      "思想": 9112,
      " to t": 9113,
      "recent ": 9114,
      "ize ": 9115,
      "7.": 9116,
      ":0": 9117,
      "wid": 9118,
      "ig ": 9119,
      "keep ": 9120,
      "book": 9121,
      "ft": 9122,
      "都不": 9123,
      "is, ": 9124,
      ",也是": 9125,
      "valu": 9126,
      "no": 9127,
      "减少": 9128,
      "开展": 9129,
      "cond": 9130,
      "season ": 9131,
      "money ": 9132,
      "run ": 9133,
      "until ": 9134,
      "的事情": 9135,
      "也会": 9136,
      "调整": 9137,
      "阶段": 9138,
      "John ": 9139,
      "技能": 9140,
      "文章": 9141,
      "稳定": 9142,
      "when the ": 9143,
      "evid": 9144,
      "ept ": 9145,
      "video ": 9146,
      ",加": 9147,
      "Se": 9148,
      "。\" ": 9149,
      "说:\"": 9150,
      "against": 9151,
      "But": 9152,
      "So ": 9153,
      "itive ": 9154,
      "even": 9155,
      "president": 9156,
      "should be ": 9157,
      "current ": 9158,
      "及时": 9159,
      "宝宝": 9160,
      "检查": 9161,
      "每天": 9162,
      "让人": 9163,
      "ed from ": 9164,
      "imate ": 9165,
      "8.": 9166,
      "wa": 9167,
      "| ": 9168,
      "尤其": 9169,
      "职业": 9170,
      "alth": 9171,
      "is to ": 9172,
      "unch": 9173,
      "ashing": 9174,
      "家长": 9175,
      "欢迎": 9176,
      "person ": 9177,
      "legal ": 9178,
      "family ": 9179,
      "Med": 9180,
      "wrot": 9181,
      "优势": 9182,
      "成本": 9183,
      "的高": 9184,
      "challeng": 9185,
      "comb": 9186,
      "scen": 9187,
      "experienc": 9188,
      "Dav": 9189,
      "air ": 9190,
      "mom": 9191,
      "ward ": 9192,
      "负责": 9193,
      "里面": 9194,
      "Tu": 9195,
      "有人": 9196,
      "面对": 9197,
      "educ": 9198,
      "Min": 9199,
      "作品": 9200,
      "适合": 9201,
      " ther": 9202,
      "stri": 9203,
      "ult ": 9204,
      "ation and ": 9205,
      "year-": 9206,
      "cost": 9207,
      "9.": 9208,
      "home ": 9209,
      "于是": 9210,
      "创业": 9211,
      "有关": 9212,
      "Washing": 9213,
      "cust": 9214,
      "培训": 9215,
      "电视": 9216,
      ". You ": 9217,
      "Jan": 9218,
      "past ": 9219,
      "就可以": 9220,
      "领域": 9221,
      "story ": 9222,
      ") and ": 9223,
      "inste": 9224,
      "全部": 9225,
      "makes ": 9226,
      "viron": 9227,
      "Mic": 9228,
      "lab": 9229,
      "sens": 9230,
      "中央": 9231,
      "正在": 9232,
      "考虑": 9233,
      "高的": 9234,
      "ion and ": 9235,
      "doesn’t ": 9236,
      "New York ": 9237,
      "Canad": 9238,
      "用于": 9239,
      "购买": 9240,
      "重点": 9241,
      "ed his ": 9242,
      "ney ": 9243,
      "prett": 9244,
      "drug": 9245,
      "开发": 9246,
      "ord ": 9247,
      "becom": 9248,
      "attempt": 9249,
      "financ": 9250,
      "school": 9251,
      "Dec": 9252,
      "Ed": 9253,
      "ath ": 9254,
      "ific ": 9255,
      "Isl": 9256,
      "got": 9257,
      "sing": 9258,
      "once ": 9259,
      "propos": 9260,
      "love ": 9261,
      "according to ": 9262,
      "kind of ": 9263,
      "National ": 9264,
      "ual": 9265,
      "进一步": 9266,
      "anim": 9267,
      "decid": 9268,
      "----": 9269,
      "health ": 9270,
      "ures": 9271,
      "’t": 9272,
      "几个": 9273,
      "来自": 9274,
      "ird ": 9275,
      "suff": 9276,
      "strat": 9277,
      "solut": 9278,
      "espec": 9279,
      "300": 9280,
      "dri": 9281,
      "推荐": 9282,
      "整体": 9283,
      "理解": 9284,
      "ike ": 9285,
      "funct": 9286,
      "a.\n": 9287,
      "key": 9288,
      "ww": 9289,
      "经验": 9290,
      " things ": 9291,
      "forman": 9292,
      "not be ": 9293,
      "countri": 9294,
      "level ": 9295,
      "了一个": 9296,
      "体验": 9297,
      "同学": 9298,
      "度,": 9299,
      "色的": 9300,
      "营养": 9301,
      ", it ": 9302,
      "class": 9303,
      "ending ": 9304,
      "believ": 9305,
      " took ": 9306,
      "susp": 9307,
      "igr": 9308,
      "relation": 9309,
      "keep": 9310,
      "spect": 9311,
      "said the ": 9312,
      "5-": 9313,
      "AN": 9314,
      "How": 9315,
      "sam": 9316,
      "同时,": 9317,
      "后来": 9318,
      "execut": 9319,
      "ress ": 9320,
      "access": 9321,
      "country ": 9322,
      "a’s ": 9323,
      "下来": 9324,
      "下的": 9325,
      "open ": 9326,
      "In the ": 9327,
      "ER": 9328,
      "V ": 9329,
      "night": 9330,
      "按照": 9331,
      "狐臭": 9332,
      "ald ": 9333,
      "used to ": 9334,
      "comment": 9335,
      "create ": 9336,
      "official": 9337,
      "face ": 9338,
      "mot": 9339,
      "利益": 9340,
      ", or ": 9341,
      "pric": 9342,
      "会议": 9343,
      "ion of the ": 9344,
      "apt": 9345,
      "4、": 9346,
      "cop": 9347,
      "hon": 9348,
      "move ": 9349,
      "report ": 9350,
      "es in the ": 9351,
      "benef": 9352,
      ",甚至": 9353,
      "nec": 9354,
      "vo": 9355,
      "手术": 9356,
      "曾经": 9357,
      "start ": 9358,
      "spir": 9359,
      "public": 9360,
      "36": 9361,
      "de ": 9362,
      "、\"": 9363,
      "根本": 9364,
      "酒店": 9365,
      "enough": 9366,
      "represent": 9367,
      "alleg": 9368,
      " tog": 9369,
      "2016": 9370,
      "ode ": 9371,
      "North ": 9372,
      "Bar": 9373,
      "Cr": 9374,
      "K ": 9375,
      "gir": 9376,
      "key ": 9377,
      "出,": 9378,
      "然而": 9379,
      ". Al": 9380,
      "%,": 9381,
      "节目": 9382,
      "说明": 9383,
      "one of ": 9384,
      "ether": 9385,
      "Har": 9386,
      "getting ": 9387,
      "at least ": 9388,
      "//": 9389,
      ":5": 9390,
      "uary ": 9391,
      "read ": 9392,
      "club": 9393,
      "ensive ": 9394,
      "could be ": 9395,
      "。但是": 9396,
      "dest": 9397,
      "mult": 9398,
      "位置": 9399,
      "普通": 9400,
      "竞争": 9401,
      "ively ": 9402,
      ",其实": 9403,
      "law ": 9404,
      "body ": 9405,
      ",与": 9406,
      ",没有": 9407,
      "b ": 9408,
      "cir": 9409,
      "his": 9410,
      "收入": 9411,
      "联系": 9412,
      "196": 9413,
      "Aug": 9414,
      "事情": 9415,
      "先生": 9416,
      "结合": 9417,
      "e tr": 9418,
      "profess": 9419,
      " through the ": 9420,
      "fight": 9421,
      "音乐": 9422,
      "ions": 9423,
      "is an ": 9424,
      "ogn": 9425,
      "Intern": 9426,
      "diffic": 9427,
      "pretty ": 9428,
      "rid": 9429,
      "等等": 9430,
      "ins ": 9431,
      "industr": 9432,
      "Dr": 9433,
      "Fac": 9434,
      "不知道": 9435,
      "劳动": 9436,
      "毕业": 9437,
      " tw": 9438,
      "administ": 9439,
      "s to be ": 9440,
      "consider": 9441,
      "free ": 9442,
      "foot": 9443,
      "做好": 9444,
      "建立": 9445,
      ", M": 9446,
      "amp": 9447,
      "having ": 9448,
      "does not ": 9449,
      "probably ": 9450,
      "严重": 9451,
      "制作": 9452,
      "成绩": 9453,
      ", as ": 9454,
      "ity and ": 9455,
      "doing ": 9456,
      "ards ": 9457,
      "popul": 9458,
      "members ": 9459,
      "To ": 9460,
      "cal": 9461,
      "hor": 9462,
      "little ": 9463,
      "yl": 9464,
      "事业": 9465,
      "力量": 9466,
      "心,": 9467,
      "风格": 9468,
      "describ": 9469,
      "cra": 9470,
      "ox": 9471,
      "prim": 9472,
      "sci": 9473,
      "way to ": 9474,
      "优秀": 9475,
      "学院": 9476,
      "es for ": 9477,
      "let ": 9478,
      ",” he ": 9479,
      "relig": 9480,
      "Sec": 9481,
      "sw": 9482,
      "实施": 9483,
      "范围": 9484,
      "ions of ": 9485,
      "urs": 9486,
      "age of ": 9487,
      "require": 9488,
      "success": 9489,
      ",下": 9490,
      "Twit": 9491,
      "一个人": 9492,
      " that’s ": 9493,
      "vertis": 9494,
      "Dep": 9495,
      "三个": 9496,
      "因素": 9497,
      "s, but ": 9498,
      ",其中": 9499,
      "studi": 9500,
      "could": 9501,
      "performan": 9502,
      "ished ": 9503,
      "half ": 9504,
      "15 ": 9505,
      "a's ": 9506,
      "won": 9507,
      "多数": 9508,
      "避免": 9509,
      "ort ": 9510,
      "sport": 9511,
      "committ": 9512,
      "working ": 9513,
      "有限公司": 9514,
      "civ": 9515,
      "执行": 9516,
      "装修": 9517,
      "ital ": 9518,
      ",而是": 9519,
      "players ": 9520,
      "audi": 9521,
      "non-": 9522,
      "2-": 9523,
      "她的": 9524,
      "的最": 9525,
      " the t": 9526,
      ", in ": 9527,
      "aking ": 9528,
      "ants ": 9529,
      "detail": 9530,
      "25 ": 9531,
      "ft ": 9532,
      "sect": 9533,
      "参与": 9534,
      "的新": 9535,
      " typ": 9536,
      "reduc": 9537,
      "compar": 9538,
      "action ": 9539,
      "firm": 9540,
      "Syri": 9541,
      "young ": 9542,
      ",却": 9543,
      "][": 9544,
      "done ": 9545,
      "认识": 9546,
      ", we ": 9547,
      "ing their ": 9548,
      "scri": 9549,
      "effort": 9550,
      "I'm ": 9551,
      "幸福": 9552,
      "快速": 9553,
      "che": 9554,
      "economic ": 9555,
      "big ": 9556,
      "discuss": 9557,
      "may": 9558,
      "天,": 9559,
      "消息": 9560,
      "in their ": 9561,
      "room": 9562,
      "protect": 9563,
      "Cor": 9564,
      "I think ": 9565,
      "团队": 9566,
      "的地方": 9567,
      "针对": 9568,
      "whether ": 9569,
      "your": 9570,
      "signific": 9571,
      "children ": 9572,
      "12 ": 9573,
      "far": 9574,
      "ior ": 9575,
      "jur": 9576,
      "报名": 9577,
      "支付": 9578,
      "长期": 9579,
      "reach": 9580,
      "earli": 9581,
      "sequ": 9582,
      "learn": 9583,
      "Sept": 9584,
      "mo": 9585,
      "simil": 9586,
      "英国": 9587,
      "environ": 9588,
      "ural ": 9589,
      "surv": 9590,
      "AR": 9591,
      "name ": 9592,
      "“The ": 9593,
      "的时间": 9594,
      "资本": 9595,
      "那个": 9596,
      "who": 9597,
      "a little ": 9598,
      "connect": 9599,
      " trying to ": 9600,
      "Di": 9601,
      "Ear": 9602,
      "F ": 9603,
      "Oct": 9604,
      "Pal": 9605,
      "是不": 9606,
      "现代": 9607,
      "of these ": 9608,
      "stand ": 9609,
      "black ": 9610,
      "State ": 9611,
      "series ": 9612,
      "即可": 9613,
      "实力": 9614,
      "战略": 9615,
      "物质": 9616,
      "ague ": 9617,
      "contribut": 9618,
      ". There ": 9619,
      "full ": 9620,
      ",因此": 9621,
      "Rob": 9622,
      "care ": 9623,
      "uch": 9624,
      "… ": 9625,
      "。一": 9626,
      "商业": 9627,
      "子的": 9628,
      "liam": 9629,
      "case ": 9630,
      "ccord": 9631,
      "Mo": 9632,
      "ball": 9633,
      "结束": 9634,
      "grad": 9635,
      ",这些": 9636,
      ",把": 9637,
      "Cha": 9638,
      "ball ": 9639,
      "mess": 9640,
      "sinc": 9641,
      "培养": 9642,
      "成长": 9643,
      "有了": 9644,
      "。 \"": 9645,
      "and that ": 9646,
      "oog": 9647,
      "portun": 9648,
      "part of ": 9649,
      "ttp": 9650,
      "piec": 9651,
      "bank": 9652,
      "les": 9653,
      "want ": 9654,
      "就能": 9655,
      "心理": 9656,
      "week ": 9657,
      "someone ": 9658,
      "inf": 9659,
      "er-": 9660,
      "short": 9661,
      "deal ": 9662,
      "2014": 9663,
      "provide ": 9664,
      "://": 9665,
      "Mr": 9666,
      "http": 9667,
      "led ": 9668,
      "mil": 9669,
      "sett": 9670,
      "任务": 9671,
      "考试": 9672,
      "or, ": 9673,
      "roc": 9674,
      "norm": 9675,
      "Euro": 9676,
      "Ab": 9677,
      "main ": 9678,
      "natur": 9679,
      "只要": 9680,
      "总是": 9681,
      "每个": 9682,
      "自身": 9683,
      "ather ": 9684,
      "country": 9685,
      "available ": 9686,
      "U ": 9687,
      "不错": 9688,
      "为\"": 9689,
      "主义": 9690,
      "制造": 9691,
      "方便": 9692,
      "aren": 9693,
      "ask ": 9694,
      "capt": 9695,
      "Engl": 9696,
      "process": 9697,
      "important ": 9698,
      "necess": 9699,
      "Apr": 9700,
      "Off": 9701,
      "Per": 9702,
      "ke ": 9703,
      "ral ": 9704,
      "母亲": 9705,
      "股票": 9706,
      "行动": 9707,
      "fore": 9708,
      "andid": 9709,
      "later ": 9710,
      "media ": 9711,
      "ere’s ": 9712,
      "respond": 9713,
      "control ": 9714,
      "ij": 9715,
      "形式": 9716,
      "毕竟": 9717,
      "法律": 9718,
      "满足": 9719,
      "确定": 9720,
      "英雄": 9721,
      "a new ": 9722,
      "ical": 9723,
      "。 (": 9724,
      "-year-": 9725,
      "., ": 9726,
      "federal ": 9727,
      "ge": 9728,
      "io ": 9729,
      "rap": 9730,
      "以后": 9731,
      "分别": 9732,
      "ation.\n": 9733,
      "quick": 9734,
      "may be ": 9735,
      "concern": 9736,
      "Faceb": 9737,
      "50 ": 9738,
      "pay ": 9739,
      "winn": 9740,
      "粉丝": 9741,
      "这是": 9742,
      ", then ": 9743,
      "situ": 9744,
      "保障": 9745,
      "女性": 9746,
      "遇到": 9747,
      "it.\n": 9748,
      "2015": 9749,
      "six ": 9750,
      "媒体": 9751,
      "的 ": 9752,
      "降低": 9753,
      "a p": 9754,
      "ash ": 9755,
      "establ": 9756,
      "school ": 9757,
      ":4": 9758,
      "Am": 9759,
      "ton": 9760,
      "全面": 9761,
      " thing": 9762,
      "en to ": 9763,
      "star": 9764,
      "ed up ": 9765,
      "white ": 9766,
      "either ": 9767,
      "Part": 9768,
      "ier ": 9769,
      "jud": 9770,
      "ness ": 9771,
      "做到": 9772,
      "大量": 9773,
      "fully ": 9774,
      "Austr": 9775,
      "kid": 9776,
      "变得": 9777,
      "的生活": 9778,
      "ump": 9779,
      "World ": 9780,
      "cut": 9781,
      "most": 9782,
      "到底": 9783,
      "规划": 9784,
      "趋势": 9785,
      "opportun": 9786,
      "phys": 9787,
      "glob": 9788,
      " terr": 9789,
      "’s": 9790,
      "“I ": 9791,
      "万元": 9792,
      "往往": 9793,
      "程度": 9794,
      "mater": 9795,
      "Frid": 9796,
      "Jam": 9797,
      "late ": 9798,
      "ner ": 9799,
      "rup": 9800,
      "人体": 9801,
      "ate the ": 9802,
      "ities": 9803,
      "vel": 9804,
      "以下": 9805,
      "找到": 9806,
      "改革": 9807,
      "核心": 9808,
      "血管": 9809,
      ". G": 9810,
      "es, and ": 9811,
      "fron": 9812,
      "ground": 9813,
      "ellig": 9814,
      "meth": 9815,
      "ief ": 9816,
      "question": 9817,
      ",小": 9818,
      ":3": 9819,
      "dict": 9820,
      "war ": 9821,
      "父亲": 9822,
      "ony ": 9823,
      "along ": 9824,
      "ingly ": 9825,
      "woman ": 9826,
      ". That ": 9827,
      "8月": 9828,
      "99": 9829,
      "Sch": 9830,
      "mind": 9831,
      "女儿": 9832,
      "时期": 9833,
      "最大的": 9834,
      "ermin": 9835,
      "leav": 9836,
      "quite ": 9837,
      "cred": 9838,
      "water ": 9839,
      "iddle ": 9840,
      "security ": 9841,
      "Georg": 9842,
      "G ": 9843,
      "few ": 9844,
      "lov": 9845,
      "共同": 9846,
      "放入": 9847,
      "速度": 9848,
      "es of the ": 9849,
      "at a ": 9850,
      "oci": 9851,
      "heav": 9852,
      "Sup": 9853,
      "pp": 9854,
      "值得": 9855,
      "road": 9856,
      "quart": 9857,
      "2019年": 9858,
      "angu": 9859,
      "do not ": 9860,
      "rather": 9861,
      "possible ": 9862,
      "9月": 9863,
      "==": 9864,
      "No": 9865,
      "当然": 9866,
      "urb": 9867,
      "scor": 9868,
      "是一种": 9869,
      "especially ": 9870,
      "取得": 9871,
      "基金": 9872,
      "所谓": 9873,
      "玩家": 9874,
      " talk": 9875,
      "only": 9876,
      "at’s ": 9877,
      "others ": 9878,
      "hy": 9879,
      "two ": 9880,
      "人。": 9881,
      "员工": 9882,
      "打造": 9883,
      "规模": 9884,
      "it to ": 9885,
      "indic": 9886,
      "arget": 9887,
      " train": 9888,
      "simply ": 9889,
      "Europe": 9890,
      "Sm": 9891,
      "ible ": 9892,
      "地址": 9893,
      "s have ": 9894,
      "improv": 9895,
      "explain": 9896,
      "particular": 9897,
      "applic": 9898,
      "research": 9899,
      "log": 9900,
      "不好": 9901,
      "分享": 9902,
      "疫情": 9903,
      "相当": 9904,
      "ers to ": 9905,
      "ech ": 9906,
      "block": 9907,
      "president ": 9908,
      "going ": 9909,
      "他们的": 9910,
      "important": 9911,
      ",上": 9912,
      ",能": 9913,
      "Jap": 9914,
      "TH": 9915,
      "ness": 9916,
      "皇帝": 9917,
      "都在": 9918,
      "阅读": 9919,
      "ation of the ": 9920,
      " tru": 9921,
      "scient": 9922,
      "ment of ": 9923,
      "better": 9924,
      "Ro": 9925,
      "y’s ": 9926,
      "。我们": 9927,
      "农村": 9928,
      "alt": 9929,
      "olut": 9930,
      "clus": 9931,
      "Stre": 9932,
      "discover": 9933,
      "draw": 9934,
      ",很": 9935,
      "coun": 9936,
      "s to the ": 9937,
      "在一起": 9938,
      "快乐": 9939,
      "的一个": 9940,
      "群众": 9941,
      " they are ": 9942,
      "against the ": 9943,
      "custom": 9944,
      "mem": 9945,
      "site ": 9946,
      "其中": 9947,
      "工业": 9948,
      " test": 9949,
      "like the ": 9950,
      "military ": 9951,
      "How ": 9952,
      "s’ ": 9953,
      "er in ": 9954,
      "ed to be ": 9955,
      ",从而": 9956,
      "around the ": 9957,
      "time ": 9958,
      "充分": 9959,
      "方案": 9960,
      "确实": 9961,
      "step": 9962,
      "and then ": 9963,
      "uck ": 9964,
      "action": 9965,
      "comput": 9966,
      ",000": 9967,
      "health": 9968,
      "cy": 9969,
      "交流": 9970,
      "创造": 9971,
      "联网": 9972,
      "arch": 9973,
      "thern ": 9974,
      ")、": 9975,
      "Wat": 9976,
      "pag": 9977,
      "s.": 9978,
      "办法": 9979,
      "教学": 9980,
      "最近": 9981,
      "ouse": 9982,
      "otal ": 9983,
      "or of ": 9984,
      "collect": 9985,
      ",会": 9986,
      "Res": 9987,
      "一切": 9988,
      "ens ": 9989,
      "forn": 9990,
      "consum": 9991,
      ",不要": 9992,
      "as well as ": 9993,
      "ai": 9994,
      "rate ": 9995,
      "困难": 9996,
      "微信": 9997,
      "正式": 9998,
      " thre": 9999,
      "es\n": 10000,
      "es (": 10001,
      "you’re ": 10002,
      "spac": 10003,
      "became ": 10004,
      "associ": 10005,
      "understand": 10006,
      "Phot": 10007,
      "major ": 10008,
      ",给": 10009,
      ",还是": 10010,
      ",还有": 10011,
      "AS": 10012,
      "batt": 10013,
      "fel": 10014,
      "区域": 10015,
      "电子": 10016,
      "ers.\n": 10017,
      "among ": 10018,
      "ay, ": 10019,
      "extrem": 10020,
      "field": 10021,
      "Obama ": 10022,
      "har": 10023,
      "squ": 10024,
      "wind": 10025,
      "书记": 10026,
      "ery ": 10027,
      "ing his ": 10028,
      " term": 10029,
      ". It’s ": 10030,
      "11 ": 10031,
      "Cong": 10032,
      "walk": 10033,
      "y that ": 10034,
      "最终": 10035,
      "有着": 10036,
      "男人": 10037,
      "英语": 10038,
      "promis": 10039,
      "3-": 10040,
      "near": 10041,
      "night ": 10042,
      "pan": 10043,
      " tow": 10044,
      "ate": 10045,
      "emp": 10046,
      "if the ": 10047,
      "final ": 10048,
      ",\" he ": 10049,
      "aliforn": 10050,
      "South ": 10051,
      "几乎": 10052,
      "政治": 10053,
      "无论": 10054,
      "自动": 10055,
      "elling ": 10056,
      "he’s ": 10057,
      ". But": 10058,
      "under the ": 10059,
      "light ": 10060,
      "ograph": 10061,
      "past": 10062,
      "一位": 10063,
      "ing this ": 10064,
      "propert": 10065,
      "ull ": 10066,
      "deal": 10067,
      "recogn": 10068,
      "ang ": 10069,
      "business ": 10070,
      " \"": 10071,
      "Mor": 10072,
      "可是": 10073,
      "合同": 10074,
      "娱乐": 10075,
      "才是": 10076,
      "经历": 10077,
      "or the ": 10078,
      "reve": 10079,
      "staff": 10080,
      "decad": 10081,
      "Cour": 10082,
      "Im": 10083,
      "der ": 10084,
      "hol": 10085,
      "pap": 10086,
      "in his ": 10087,
      "comes ": 10088,
      "strong": 10089,
      "account": 10090,
      "link": 10091,
      "11月": 10092,
      "politic": 10093,
      "given ": 10094,
      "strateg": 10095,
      "\"\"": 10096,
      "Californ": 10097,
      "House ": 10098,
      "hic": 10099,
      "pack": 10100,
      "sess": 10101,
      "y-": 10102,
      "搭配": 10103,
      "教师": 10104,
      "时尚": 10105,
      "来源": 10106,
      "er’s ": 10107,
      "ed that the ": 10108,
      "whole ": 10109,
      "rain ": 10110,
      "ender ": 10111,
      "care": 10112,
      "anything ": 10113,
      "asked ": 10114,
      "film": 10115,
      "experience ": 10116,
      "She ": 10117,
      "hous": 10118,
      "为主": 10119,
      "力,": 10120,
      "宣传": 10121,
      "永远": 10122,
      "immedi": 10123,
      "again ": 10124,
      "anti-": 10125,
      "weap": 10126,
      "small ": 10127,
      "history ": 10128,
      "5、": 10129,
      ">>": 10130,
      "Goog": 10131,
      "city ": 10132,
      "candid": 10133,
      "意思": 10134,
      "ednes": 10135,
      "ex ": 10136,
      "have the ": 10137,
      "had to ": 10138,
      "job ": 10139,
      "1-": 10140,
      "Bu": 10141,
      "fall": 10142,
      "如今": 10143,
      "行情": 10144,
      ", you ": 10145,
      "are t": 10146,
      ". J": 10147,
      "ed out ": 10148,
      "order ": 10149,
      "bigg": 10150,
      "mid": 10151,
      "s like ": 10152,
      "between the ": 10153,
      "It's ": 10154,
      "self-": 10155,
      "energy ": 10156,
      "AC": 10157,
      "aur": 10158,
      "指导": 10159,
      "样的": 10160,
      "自由": 10161,
      "ers are ": 10162,
      "percent": 10163,
      ",比如": 10164,
      "cel": 10165,
      "另外": 10166,
      "当地": 10167,
      "走势": 10168,
      "ink ": 10169,
      "are the ": 10170,
      "atic ": 10171,
      "ility ": 10172,
      "ion in ": 10173,
      "ground ": 10174,
      " themselv": 10175,
      "circ": 10176,
      "8-": 10177,
      "At": 10178,
      "Fir": 10179,
      "再次": 10180,
      "的工作": 10181,
      "者,": 10182,
      "qual": 10183,
      "object": 10184,
      ",不过": 10185,
      "part of the ": 10186,
      "Israel": 10187,
      "War": 10188,
      "位于": 10189,
      "清楚": 10190,
      "and, ": 10191,
      "intro": 10192,
      "ift": 10193,
      "special ": 10194,
      "certain": 10195,
      "* ": 10196,
      "gh": 10197,
      "pick": 10198,
      "慢慢": 10199,
      "本身": 10200,
      "的不": 10201,
      "真实": 10202,
      "突破": 10203,
      "e for ": 10204,
      "reli": 10205,
      " that he ": 10206,
      "shot ": 10207,
      "y, and ": 10208,
      "following ": 10209,
      "critic": 10210,
      "'ve ": 10211,
      "ON": 10212,
      "下降": 10213,
      "双方": 10214,
      "意识": 10215,
      "视频": 10216,
      "道路": 10217,
      "ers of ": 10218,
      "field ": 10219,
      "Clinton ": 10220,
      "ES": 10221,
      "Y ": 10222,
      "相对": 10223,
      "ins": 10224,
      " 18": 10225,
      "can’t ": 10226,
      ",被": 10227,
      ",对于": 10228,
      ",虽然": 10229,
      "6月": 10230,
      "合理": 10231,
      "图片": 10232,
      "意义": 10233,
      ", and the ": 10234,
      "death": 10235,
      "second": 10236,
      "-year-old ": 10237,
      ",一个": 10238,
      "Bo": 10239,
      "call ": 10240,
      "。此": 10241,
      "人类": 10242,
      "另一": 10243,
      "名字": 10244,
      "es on ": 10245,
      "entire ": 10246,
      "rest ": 10247,
      "ource ": 10248,
      "some of the ": 10249,
      "After ": 10250,
      "Austral": 10251,
      ",多": 10252,
      "34": 10253,
      "Em": 10254,
      "Pe": 10255,
      "pen": 10256,
      "情绪": 10257,
      "时的": 10258,
      "likely ": 10259,
      "which is ": 10260,
      "argu": 10261,
      "party ": 10262,
      "eful": 10263,
      "Franc": 10264,
      ". For ": 10265,
      "original ": 10266,
      "West": 10267,
      "性能": 10268,
      "正确": 10269,
      "身边": 10270,
      "顾客": 10271,
      "s at ": 10272,
      "iter": 10273,
      "ago ": 10274,
      "influ": 10275,
      "31": 10276,
      "Mat": 10277,
      "X ": 10278,
      "sear": 10279,
      "。因为": 10280,
      "促进": 10281,
      "发挥": 10282,
      "处于": 10283,
      "女人": 10284,
      "心的": 10285,
      "高,": 10286,
      "Thurs": 10287,
      "order to ": 10288,
      "孩子的": 10289,
      "suppl": 10290,
      "didn't ": 10291,
      "particip": 10292,
      "\"The ": 10293,
      "5月": 10294,
      "Sund": 10295,
      "学会": 10296,
      " to a ": 10297,
      "shoot": 10298,
      "ong the ": 10299,
      "strong ": 10300,
      "accept": 10301,
      "player ": 10302,
      "statement": 10303,
      "control": 10304,
      "administr": 10305,
      "Depart": 10306,
      "Afr": 10307,
      "Wednes": 10308,
      "pict": 10309,
      "ric ": 10310,
      "咨询": 10311,
      "想到": 10312,
      "掌握": 10313,
      "新闻": 10314,
      "追求": 10315,
      "ark ": 10316,
      "ital": 10317,
      "is no ": 10318,
      "somet": 10319,
      "ordin": 10320,
      "'t": 10321,
      "Hill": 10322,
      "a-": 10323,
      "sourc": 10324,
      "吸引": 10325,
      "愿意": 10326,
      "推动": 10327,
      "经典": 10328,
      "asc": 10329,
      "。 2、": 10330,
      "perf": 10331,
      "said. “": 10332,
      "held ": 10333,
      ",只要": 10334,
      "If you ": 10335,
      "private ": 10336,
      "Tues": 10337,
      "instead ": 10338,
      "\"、\"": 10339,
      "Ac": 10340,
      "放在": 10341,
      "日常": 10342,
      "是\"": 10343,
      "s as ": 10344,
      "es were ": 10345,
      "interest ": 10346,
      ". How": 10347,
      ". She ": 10348,
      ",以及": 10349,
      "determin": 10350,
      "campaign": 10351,
      "ez": 10352,
      "ware ": 10353,
      "yet ": 10354,
      "定位": 10355,
      "生的": 10356,
      "食品": 10357,
      "ospit": 10358,
      "idea ": 10359,
      "across the ": 10360,
      "Octob": 10361,
      "Kore": 10362,
      "sou": 10363,
      "。从": 10364,
      "以为": 10365,
      "我国": 10366,
      "明星": 10367,
      "是什么": 10368,
      " threat": 10369,
      "ago": 10370,
      "ley ": 10371,
      "need ": 10372,
      "problem ": 10373,
      "nearly ": 10374,
      "儿子": 10375,
      "前,": 10376,
      "计算": 10377,
      "调查": 10378,
      "附近": 10379,
      "leave ": 10380,
      "class ": 10381,
      "10月": 10382,
      "不同的": 10383,
      "community ": 10384,
      "campaign ": 10385,
      "May ": 10386,
      "fire": 10387,
      "gun": 10388,
      "prec": 10389,
      "民族": 10390,
      "证明": 10391,
      "s or ": 10392,
      "asp": 10393,
      "marri": 10394,
      "regard": 10395,
      "service ": 10396,
      "writt": 10397,
      "left": 10398,
      "Afric": 10399,
      "radi": 10400,
      "sure ": 10401,
      "互联网": 10402,
      "享受": 10403,
      "它的": 10404,
      "推进": 10405,
      "驾驶": 10406,
      "enough ": 10407,
      "pleas": 10408,
      "regul": 10409,
      "market ": 10410,
      "began ": 10411,
      "round": 10412,
      "win ": 10413,
      "yst": 10414,
      "伤害": 10415,
      "招聘": 10416,
      "离开": 10417,
      "重新": 10418,
      "le, ": 10419,
      "const": 10420,
      "month ": 10421,
      "ity.\n": 10422,
      "secut": 10423,
      "business": 10424,
      "responsi": 10425,
      ",现在": 10426,
      "Dis": 10427,
      "gave ": 10428,
      "ipl": 10429,
      "土地": 10430,
      "感情": 10431,
      "设施": 10432,
      "t and ": 10433,
      "ana ": 10434,
      "of his ": 10435,
      "acy ": 10436,
      "irt": 10437,
      "has a ": 10438,
      "general ": 10439,
      ",大家": 10440,
      "My ": 10441,
      "dang": 10442,
      "rough": 10443,
      "uk": 10444,
      "地产": 10445,
      "措施": 10446,
      "omb": 10447,
      "194": 10448,
      "contain": 10449,
      "legis": 10450,
      "study ": 10451,
      "companies ": 10452,
      "dig": 10453,
      "win": 10454,
      "制度": 10455,
      "开放": 10456,
      "有点": 10457,
      "看看": 10458,
      "网站": 10459,
      "ority ": 10460,
      "stag": 10461,
      "that ": 10462,
      "plann": 10463,
      "投资者": 10464,
      ",或": 10465,
      "Count": 10466,
      "ah ": 10467,
      "ia, ": 10468,
      "上了": 10469,
      "上涨": 10470,
      "完美": 10471,
      "的发展": 10472,
      "细胞": 10473,
      "绝对": 10474,
      "连续": 10475,
      "s on the ": 10476,
      "alb": 10477,
      "univers": 10478,
      "previous ": 10479,
      "'ll ": 10480,
      "( ": 10481,
      "33": 10482,
      "Ag": 10483,
      "Lab": 10484,
      "ier": 10485,
      "pet": 10486,
      "’d ": 10487,
      "内的": 10488,
      "动作": 10489,
      "它们": 10490,
      "家的": 10491,
      "特色": 10492,
      "罗斯": 10493,
      "havi": 10494,
      "super": 10495,
      "been": 10496,
      "likel": 10497,
      "Ang": 10498,
      "present ": 10499,
      "international ": 10500,
      "people who ": 10501,
      "build ": 10502,
      "break": 10503,
      "Donald ": 10504,
      "United Stat": 10505,
      ",中国": 10506,
      "City ": 10507,
      "Pet": 10508,
      "呢？ ": 10509,
      "性,": 10510,
      "现象": 10511,
      "should": 10512,
      "a sm": 10513,
      "how to ": 10514,
      "building ": 10515,
      "aint": 10516,
      "book ": 10517,
      "一年": 10518,
      "个月": 10519,
      "主任": 10520,
      "充满": 10521,
      "力的": 10522,
      "晚上": 10523,
      "e is ": 10524,
      "emerg": 10525,
      "e tim": 10526,
      "strict": 10527,
      "avo": 10528,
      "重要的": 10529,
      "Comm": 10530,
      "potential ": 10531,
      "Washington ": 10532,
      "girl": 10533,
      "Te": 10534,
      "cast": 10535,
      "s,": 10536,
      "主动": 10537,
      "太阳": 10538,
      "委员": 10539,
      "施工": 10540,
      "ouch": 10541,
      "rav": 10542,
      "strug": 10543,
      ",” said ": 10544,
      "back to ": 10545,
      "demon": 10546,
      "I’ve ": 10547,
      "large ": 10548,
      "过程中": 10549,
      "personal ": 10550,
      "ce": 10551,
      "fast": 10552,
      "men": 10553,
      "push": 10554,
      "原则": 10555,
      "成立": 10556,
      "放弃": 10557,
      "是因为": 10558,
      "演员": 10559,
      "2013": 10560,
      "neigh": 10561,
      "attent": 10562,
      "not the ": 10563,
      "news ": 10564,
      "vehic": 10565,
      "ified ": 10566,
      "Republican ": 10567,
      "further ": 10568,
      "Bre": 10569,
      "ied ": 10570,
      "much": 10571,
      "的好": 10572,
      "independ": 10573,
      ". And": 10574,
      "check": 10575,
      "prog": 10576,
      "behavi": 10577,
      ": The ": 10578,
      "where the ": 10579,
      "environment": 10580,
      ",此": 10581,
      "langu": 10582,
      "二、": 10583,
      "人才": 10584,
      "实在": 10585,
      "就不": 10586,
      "训练": 10587,
      "repe": 10588,
      "ing it ": 10589,
      "amin": 10590,
      "room ": 10591,
      "e that the ": 10592,
      "express": 10593,
      "I am ": 10594,
      "All ": 10595,
      ". So ": 10596,
      "centur": 10597,
      "Muslim": 10598,
      "IC": 10599,
      "bal": 10600,
      "下去": 10601,
      "似乎": 10602,
      "句话": 10603,
      "工艺": 10604,
      "有一个": 10605,
      "爱情": 10606,
      "车辆": 10607,
      "ing in the ": 10608,
      "edly ": 10609,
      "saw ": 10610,
      "we are ": 10611,
      "maint": 10612,
      "speak": 10613,
      "approach": 10614,
      "Pat": 10615,
      "mach": 10616,
      "一、": 10617,
      "上市": 10618,
      "人口": 10619,
      "并不是": 10620,
      "突然": 10621,
      "stop ": 10622,
      "es with ": 10623,
      "prove ": 10624,
      "project ": 10625,
      "active ": 10626,
      "recently ": 10627,
      "eph": 10628,
      "had a ": 10629,
      "anyone ": 10630,
      "running ": 10631,
      "looking ": 10632,
      "societ": 10633,
      "possib": 10634,
      "launch": 10635,
      "be t": 10636,
      "host": 10637,
      "卫生": 10638,
      "更是": 10639,
      "期权": 10640,
      "资产": 10641,
      "unch ": 10642,
      "estim": 10643,
      "we have ": 10644,
      "prepar": 10645,
      "White ": 10646,
      ". As ": 10647,
      "load": 10648,
      "different": 10649,
      "research ": 10650,
      ".m": 10651,
      "Mr ": 10652,
      "sle": 10653,
      "利润": 10654,
      "应用": 10655,
      "车型": 10656,
      "ons ": 10657,
      "ing of the ": 10658,
      "ions, ": 10659,
      "ush ": 10660,
      "all of ": 10661,
      "money": 10662,
      "publish": 10663,
      "2017年": 10664,
      "尤其是": 10665,
      "1,": 10666,
      "37": 10667,
      "row": 10668,
      "rout": 10669,
      "办公": 10670,
      "家里": 10671,
      "就要": 10672,
      "申请": 10673,
      "ature ": 10674,
      "ed into ": 10675,
      "2010": 10676,
      "press ": 10677,
      "days ": 10678,
      "surpris": 10679,
      "court ": 10680,
      "policy ": 10681,
      "practic": 10682,
      "39": 10683,
      ":00": 10684,
      "AL": 10685,
      "cli": 10686,
      "dre": 10687,
      "ledg": 10688,
      "mer ": 10689,
      "刺激": 10690,
      "加强": 10691,
      "理论": 10692,
      "辣椒": 10693,
      "anch": 10694,
      "plat": 10695,
      "whose ": 10696,
      "raq": 10697,
      "rupt": 10698,
      "7月": 10699,
      "Act": 10700,
      "yn": 10701,
      "令人": 10702,
      "特点": 10703,
      "而言": 10704,
      "营销": 10705,
      "距离": 10706,
      "years, ": 10707,
      "via ": 10708,
      " there are ": 10709,
      "promot": 10710,
      "favor": 10711,
      "November ": 10712,
      "evidence ": 10713,
      "2,": 10714,
      "Satur": 10715,
      "bir": 10716,
      "doll": 10717,
      "hur": 10718,
      "景区": 10719,
      "现实": 10720,
      "说:": 10721,
      "都能": 10722,
      "in t": 10723,
      "exper": 10724,
      "separ": 10725,
      ",这种": 10726,
      "order": 10727,
      "means ": 10728,
      "company": 10729,
      ".com/": 10730,
      "Minist": 10731,
      ",中": 10732,
      "1月": 10733,
      "6-": 10734,
      "Gener": 10735,
      "Iraq": 10736,
      "i, ": 10737,
      "sn": 10738,
      "短线": 10739,
      "符合": 10740,
      ". On": 10741,
      "phone ": 10742,
      "devic": 10743,
      "以前": 10744,
      "最高": 10745,
      "法院": 10746,
      "ert ": 10747,
      "one": 10748,
      ", with ": 10749,
      "of those ": 10750,
      "construct": 10751,
      "exact": 10752,
      "front": 10753,
      "I have ": 10754,
      "BC ": 10755,
      "Tor": 10756,
      "sil": 10757,
      "也可以": 10758,
      "平方": 10759,
      "最好": 10760,
      "force ": 10761,
      "obvi": 10762,
      " tran": 10763,
      "parent": 10764,
      "This is ": 10765,
      "before the ": 10766,
      "currently ": 10767,
      "analys": 10768,
      "financial ": 10769,
      "global ": 10770,
      ",该": 10771,
      ",通过": 10772,
      "c ": 10773,
      "hold ": 10774,
      "lar": 10775,
      "ver ": 10776,
      "小学": 10777,
      "终于": 10778,
      "oud": 10779,
      "ers in ": 10780,
      ",不仅": 10781,
      "While ": 10782,
      "himself ": 10783,
      "board": 10784,
      "5g": 10785,
      "Ne": 10786,
      "Tex": 10787,
      "eat": 10788,
      "ren": 10789,
      "roll": 10790,
      "y's ": 10791,
      "、大": 10792,
      "安排": 10793,
      "就在": 10794,
      "空气": 10795,
      "联合": 10796,
      "设置": 10797,
      "说是": 10798,
      ". When ": 10799,
      "ict ": 10800,
      "ed an ": 10801,
      "igg": 10802,
      "lear ": 10803,
      "conserv": 10804,
      "2000": 10805,
      ": “": 10806,
      "ations, ": 10807,
      "uge ": 10808,
      "when he ": 10809,
      "extr": 10810,
      "clear ": 10811,
      ",请": 10812,
      "38": 10813,
      "依然": 10814,
      "做法": 10815,
      "多年": 10816,
      "岗位": 10817,
      "效率": 10818,
      "数量": 10819,
      "航空": 10820,
      "sty": 10821,
      "eck ": 10822,
      "iment": 10823,
      "seek": 10824,
      "would have ": 10825,
      "ross": 10826,
      "difficult": 10827,
      "European ": 10828,
      "EN": 10829,
      "San ": 10830,
      "hit ": 10831,
      "ly the ": 10832,
      "医疗": 10833,
      "地,": 10834,
      "很难": 10835,
      "指数": 10836,
      "黄金": 10837,
      "in-": 10838,
      "in, ": 10839,
      "isn’t ": 10840,
      "es a ": 10841,
      "ets ": 10842,
      "consist": 10843,
      "sav": 10844,
      "100 ": 10845,
      "model": 10846,
      "purcha": 10847,
      "地址:": 10848,
      "生态": 10849,
      "确保": 10850,
      "移动": 10851,
      "al-": 10852,
      "from a ": 10853,
      "Accord": 10854,
      "No ": 10855,
      "Sand": 10856,
      "With ": 10857,
      "four": 10858,
      "俄罗斯": 10859,
      "强的": 10860,
      "有很多": 10861,
      "理念": 10862,
      "道,": 10863,
      "错误": 10864,
      "ones ": 10865,
      "arriv": 10866,
      "it the ": 10867,
      "itions ": 10868,
      "。 我": 10869,
      "antly ": 10870,
      " that, ": 10871,
      "created ": 10872,
      "ember": 10873,
      "design ": 10874,
      "issue ": 10875,
      "affect": 10876,
      "future ": 10877,
      "foreign ": 10878,
      ",全": 10879,
      "journ": 10880,
      "last": 10881,
      "》、": 10882,
      "化的": 10883,
      "形象": 10884,
      "用的": 10885,
      "网上": 10886,
      "of th": 10887,
      "ing about ": 10888,
      "oph": 10889,
      "death ": 10890,
      "2012": 10891,
      "ended ": 10892,
      "position": 10893,
      "dog": 10894,
      "attack ": 10895,
      "board ": 10896,
      "wanted to ": 10897,
      "June ": 10898,
      "David ": 10899,
      ",或者": 10900,
      "1, ": 10901,
      "AM": 10902,
      "心里": 10903,
      "s. Th": 10904,
      "position ": 10905,
      "latest ": 10906,
      "carri": 10907,
      "Islam": 10908,
      "Su": 10909,
      "Serv": 10910,
      "wif": 10911,
      "下面": 10912,
      "体育": 10913,
      "升级": 10914,
      "广州": 10915,
      "水,": 10916,
      "水果": 10917,
      "老人": 10918,
      "舒适": 10919,
      "逐渐": 10920,
      "ther": 10921,
      "leagu": 10922,
      "bey": 10923,
      "195": 10924,
      "Ste": 10925,
      "flo": 10926,
      "games ": 10927,
      "respect": 10928,
      "development ": 10929,
      "everyone ": 10930,
      "process ": 10931,
      "July ": 10932,
      "rather than ": 10933,
      "egr": 10934,
      "下跌": 10935,
      "儿童": 10936,
      "医生": 10937,
      "名的": 10938,
      "哪里": 10939,
      "天的": 10940,
      "带着": 10941,
      "欧洲": 10942,
      "理想": 10943,
      "行的": 10944,
      "oud ": 10945,
      "replac": 10946,
      "perform": 10947,
      "istic ": 10948,
      "record ": 10949,
      "within ": 10950,
      "intern": 10951,
      "可能会": 10952,
      "based on ": 10953,
      "March ": 10954,
      "various ": 10955,
      "spokes": 10956,
      "reveal": 10957,
      " ,": 10958,
      "OR": 10959,
[...]
