{
  "version": "1.0",
  "truncation": null,
  "padding": null,
  "added_tokens": [
    {
      "id": 0,
      "content": "<pad>",
      "single_word": false,
      "lstrip": false,
      "rstrip": false,
      "normalized": false,
      "special": true
    },
    {
      "id": 1,
      "content": "<eos>",
      "single_word": false,
      "lstrip": false,
      "rstrip": false,
      "normalized": false,
      "special": true
    },
    {
      "id": 2,
      "content": "<unk>",
      "single_word": false,
      "lstrip": false,
      "rstrip": false,
      "normalized": false,
      "special": true
    },
    {
      "id": 3,
      "content": "<msg>",
      "single_word": false,
      "lstrip": false,
      "rstrip": false,
      "normalized": false,
      "special": true
    },
    {
      "id": 4,
      "content": "<eom>",
      "single_word": false,
      "lstrip": false,
      "rstrip": false,
      "normalized": false,
      "special": true
    }
  ],
  "normalizer": null,
  "pre_tokenizer": {
    "type": "Split",
    "pattern": {
      "String": "\\s"
    },
    "behavior": "MergedWithPrevious",
    "invert": false
  },
  "post_processor": null,
  "decoder": null,
  "model": {
    "type": "BPE",
    "dropout": null,
    "unk_token": "<unk>",
    "continuing_subword_prefix": null,
    "end_of_word_suffix": null,
    "fuse_unk": false,
    "byte_fallback": false,
    "ignore_merges": false,
    "vocab": {
      "<pad>": 0,
      "<eos>": 1,
      "<unk>": 2,
      "<msg>": 3,
      "<eom>": 4,
      "\t": 5,
      "\n": 6,
      " ": 7,
      "!": 8,
      "\"": 9,
      "#": 10,
      "$": 11,
      "%": 12,
      "&": 13,
      "'": 14,
      "(": 15,
      ")": 16,
      "*": 17,
      "+": 18,
      ",": 19,
      "-": 20,
      ".": 21,
      "/": 22,
      "0": 23,
      "1": 24,
      "2": 25,
      "3": 26,
      "4": 27,
      "5": 28,
      "6": 29,
      "7": 30,
      "8": 31,
      "9": 32,
      ":": 33,
      ";": 34,
      "<": 35,
      "=": 36,
      ">": 37,
      "?": 38,
      "@": 39,
      "A": 40,
      "B": 41,
      "C": 42,
      "D": 43,
      "E": 44,
      "F": 45,
      "G": 46,
      "H": 47,
      "I": 48,
      "J": 49,
      "K": 50,
      "L": 51,
      "M": 52,
      "N": 53,
      "O": 54,
      "P": 55,
      "Q": 56,
      "R": 57,
      "S": 58,
      "T": 59,
      "U": 60,
      "V": 61,
      "W": 62,
      "X": 63,
      "Y": 64,
      "Z": 65,
      "[": 66,
      "\\": 67,
      "]": 68,
      "^": 69,
      "_": 70,
      "`": 71,
      "a": 72,
      "b": 73,
      "c": 74,
      "d": 75,
      "e": 76,
      "f": 77,
      "g": 78,
      "h": 79,
      "i": 80,
      "j": 81,
      "k": 82,
      "l": 83,
      "m": 84,
      "n": 85,
      "o": 86,
      "p": 87,
      "q": 88,
      "r": 89,
      "s": 90,
      "t": 91,
      "u": 92,
      "v": 93,
      "w": 94,
      "x": 95,
      "y": 96,
      "z": 97,
      "{": 98,
      "|": 99,
      "}": 100,
      "~": 101,
      "": 102,
      "": 103,
      "": 104,
      "": 105,
      "": 106,
      "": 107,
      "": 108,
      "": 109,
      "": 110,
      "": 111,
      "": 112,
      "": 113,
      "": 114,
      "": 115,
      "": 116,
      "¡": 117,
      "¢": 118,
      "£": 119,
      "¤": 120,
      "¥": 121,
      "¦": 122,
      "§": 123,
      "¨": 124,
      "©": 125,
      "«": 126,
      "¬": 127,
      "­": 128,
      "®": 129,
      "¯": 130,
      "°": 131,
      "±": 132,
      "²": 133,
      "³": 134,
      "´": 135,
      "µ": 136,
      "¶": 137,
      "·": 138,
      "¹": 139,
      "º": 140,
      "»": 141,
      "¼": 142,
      "½": 143,
      "¾": 144,
      "¿": 145,
      "À": 146,
      "Á": 147,
      "Â": 148,
      "Ã": 149,
      "Ä": 150,
      "Å": 151,
      "Æ": 152,
      "Ç": 153,
      "È": 154,
      "É": 155,
      "Ê": 156,
      "Ë": 157,
      "Í": 158,
      "Î": 159,
      "Ð": 160,
      "Ñ": 161,
      "Ó": 162,
      "Ô": 163,
      "Ö": 164,
      "×": 165,
      "Ø": 166,
      "Ú": 167,
      "Ü": 168,
      "Ý": 169,
      "Þ": 170,
      "ß": 171,
      "à": 172,
      "á": 173,
      "â": 174,
      "ã": 175,
      "ä": 176,
      "å": 177,
      "æ": 178,
      "ç": 179,
      "è": 180,
      "é": 181,
      "ê": 182,
      "ë": 183,
      "ì": 184,
      "í": 185,
      "î": 186,
      "ï": 187,
      "ð": 188,
      "ñ": 189,
      "ò": 190,
      "ó": 191,
      "ô": 192,
      "õ": 193,
      "ö": 194,
      "÷": 195,
      "ø": 196,
      "ù": 197,
      "ú": 198,
      "û": 199,
      "ü": 200,
      "ý": 201,
      "þ": 202,
      "ÿ": 203,
      "Ā": 204,
      "ā": 205,
      "Ă": 206,
      "ă": 207,
      "ą": 208,
      "Ć": 209,
      "ć": 210,
      "Ĉ": 211,
      "Č": 212,
      "č": 213,
      "ď": 214,
      "Đ": 215,
      "đ": 216,
      "ē": 217,
      "Ĕ": 218,
      "ĕ": 219,
      "ė": 220,
      "ę": 221,
      "ě": 222,
      "ğ": 223,
      "ġ": 224,
      "Ī": 225,
      "ī": 226,
      "İ": 227,
      "ı": 228,
      "ļ": 229,
      "Ł": 230,
      "ł": 231,
      "Ń": 232,
      "ń": 233,
      "ņ": 234,
      "ň": 235,
      "Ŋ": 236,
      "ŋ": 237,
      "Ō": 238,
      "ō": 239,
      "Ŏ": 240,
      "ŏ": 241,
      "Ő": 242,
      "ő": 243,
      "œ": 244,
      "ŕ": 245,
      "ř": 246,
      "Ś": 247,
      "ś": 248,
      "Ş": 249,
      "ş": 250,
      "Š": 251,
      "š": 252,
      "Ţ": 253,
      "ţ": 254,
      "ū": 255,
      "ŭ": 256,
      "ů": 257,
      "ű": 258,
      "ų": 259,
      "Ÿ": 260,
      "ź": 261,
      "Ż": 262,
      "ż": 263,
      "Ž": 264,
      "ž": 265,
      "Ɓ": 266,
      "Ƃ": 267,
      "ƃ": 268,
      "ƌ": 269,
      "ƒ": 270,
      "ơ": 271,
      "ư": 272,
      "ǁ": 273,
      "ǂ": 274,
      "ǌ": 275,
      "ǎ": 276,
      "ǐ": 277,
      "Ǒ": 278,
      "ǔ": 279,
      "ǫ": 280,
      "Ȃ": 281,
      "ȃ": 282,
      "ȉ": 283,
      "Ȑ": 284,
      "ȑ": 285,
      "Ȓ": 286,
      "ȕ": 287,
      "Ș": 288,
      "ș": 289,
      "ț": 290,
      "ȝ": 291,
      "Ɂ": 292,
      "ɂ": 293,
      "Ƀ": 294,
      "ɋ": 295,
      "Ɍ": 296,
      "ɍ": 297,
      "Ɏ": 298,
      "ɐ": 299,
      "ɒ": 300,
      "ɓ": 301,
      "ɔ": 302,
      "ɕ": 303,
      "ɖ": 304,
      "ɘ": 305,
      "ə": 306,
      "ɛ": 307,
      "ɡ": 308,
      "ɪ": 309,
      "ɽ": 310,
      "ɾ": 311,
      "ʁ": 312,
      "ʂ": 313,
      "ʃ": 314,
      "ʉ": 315,
      "ʊ": 316,
      "ʍ": 317,
      "ʏ": 318,
      "ʒ": 319,
      "ʔ": 320,
      "ʖ": 321,
      "ʰ": 322,
      "ʱ": 323,
      "ʻ": 324,
      "ʼ": 325,
      "ʾ": 326,
      "ʿ": 327,
      "ˁ": 328,
      "ˆ": 329,
      "ˈ": 330,
      "ˉ": 331,
      "ˊ": 332,
      "ˋ": 333,
      "ˌ": 334,
      "ː": 335,
      "˚": 336,
      "˜": 337,
      "̀": 338,
      "́": 339,
      "̂": 340,
      "̃": 341,
      "̄": 342,
      "̈": 343,
      "̉": 344,
      "̊": 345,
      "̋": 346,
      "̌": 347,
      "̍": 348,
      "̎": 349,
      "̐": 350,
      "̑": 351,
      "̒": 352,
      "̓": 353,
      "̔": 354,
      "̕": 355,
      "̖": 356,
      "̣": 357,
      "̤": 358,
      "̩": 359,
      "̯": 360,
      "́": 361,
      "͂": 362,
      "̓": 363,
      "͉": 364,
      "͎": 365,
      "͒": 366,
      "͔": 367,
      "͕": 368,
      "͖": 369,
      "͜": 370,
      "͡": 371,
      "ͺ": 372,
      "΁": 373,
      "΂": 374,
      "Ά": 375,
      "Έ": 376,
      "Ό": 377,
      "Α": 378,
      "Β": 379,
      "Γ": 380,
      "Δ": 381,
      "Ε": 382,
      "Η": 383,
      "Θ": 384,
      "Ι": 385,
      "Λ": 386,
      "Μ": 387,
      "Ν": 388,
      "Ο": 389,
      "Π": 390,
      "Σ": 391,
      "Τ": 392,
      "Υ": 393,
      "Φ": 394,
      "Χ": 395,
      "Ψ": 396,
      "Ω": 397,
      "ά": 398,
      "έ": 399,
      "ή": 400,
      "ί": 401,
      "α": 402,
      "β": 403,
      "γ": 404,
      "δ": 405,
      "ε": 406,
      "ζ": 407,
      "η": 408,
      "θ": 409,
      "ι": 410,
      "κ": 411,
      "λ": 412,
      "μ": 413,
      "ν": 414,
      "ξ": 415,
      "ο": 416,
      "π": 417,
      "ρ": 418,
      "ς": 419,
      "σ": 420,
      "τ": 421,
      "υ": 422,
      "φ": 423,
      "χ": 424,
      "ψ": 425,
      "ω": 426,
      "ό": 427,
      "ύ": 428,
      "ώ": 429,
      "Ϗ": 430,
      "ϓ": 431,
      "ϕ": 432,
      "Ђ": 433,
      "Ј": 434,
      "А": 435,
      "Б": 436,
      "В": 437,
      "Г": 438,
      "Д": 439,
      "Е": 440,
      "Ж": 441,
      "З": 442,
      "И": 443,
      "К": 444,
      "Л": 445,
      "М": 446,
      "Н": 447,
      "О": 448,
      "П": 449,
      "Р": 450,
      "С": 451,
      "Т": 452,
      "У": 453,
      "Ф": 454,
      "Х": 455,
      "Ц": 456,
      "Ч": 457,
      "Э": 458,
      "Я": 459,
      "а": 460,
      "б": 461,
      "в": 462,
      "г": 463,
      "д": 464,
      "е": 465,
      "ж": 466,
      "з": 467,
      "и": 468,
      "й": 469,
      "к": 470,
      "л": 471,
      "м": 472,
      "н": 473,
      "о": 474,
      "п": 475,
      "р": 476,
      "с": 477,
      "т": 478,
      "у": 479,
      "ф": 480,
      "х": 481,
      "ц": 482,
      "ч": 483,
      "ш": 484,
      "щ": 485,
      "ъ": 486,
      "ы": 487,
      "ь": 488,
      "э": 489,
      "ю": 490,
      "я": 491,
      "ё": 492,
      "ѕ": 493,
      "і": 494,
      "ї": 495,
      "ў": 496,
      "҂": 497,
      "ҏ": 498,
      "ҡ": 499,
      "ҷ": 500,
      "ә": 501,
      "ӣ": 502,
      "Ԃ": 503,
      "ԗ": 504,
      "ԛ": 505,
      "Ե": 506,
      "Լ": 507,
      "ա": 508,
      "ե": 509,
      "է": 510,
      "ի": 511,
      "կ": 512,
      "ն": 513,
      "ո": 514,
      "ս": 515,
      "ր": 516,
      "֏": 517,
      "֗": 518,
      "ִ": 519,
      "ֵ": 520,
      "ֶ": 521,
      "ַ": 522,
      "ָ": 523,
      "ֹ": 524,
      "ׁ": 525,
      "א": 526,
      "ב": 527,
      "ג": 528,
      "ד": 529,
      "ה": 530,
      "ו": 531,
      "ז": 532,
      "ט": 533,
      "י": 534,
      "ך": 535,
      "כ": 536,
      "ל": 537,
      "ם": 538,
      "מ": 539,
      "ן": 540,
      "נ": 541,
      "ס": 542,
      "ע": 543,
      "פ": 544,
      "צ": 545,
      "ק": 546,
      "ר": 547,
      "ש": 548,
      "ת": 549,
      "״": 550,
      "؟": 551,
      "آ": 552,
      "أ": 553,
      "إ": 554,
      "ئ": 555,
      "ا": 556,
      "ب": 557,
      "ة": 558,
      "ت": 559,
      "ث": 560,
      "ج": 561,
      "ح": 562,
      "خ": 563,
      "د": 564,
      "ذ": 565,
      "ر": 566,
      "ز": 567,
      "س": 568,
      "ش": 569,
      "ص": 570,
      "ض": 571,
      "ط": 572,
      "ظ": 573,
      "ع": 574,
      "غ": 575,
      "ف": 576,
      "ق": 577,
      "ك": 578,
      "ل": 579,
      "م": 580,
      "ن": 581,
      "ه": 582,
      "و": 583,
      "ى": 584,
      "ي": 585,
      "ً": 586,
      "ٍ": 587,
      "َ": 588,
      "ُ": 589,
      "ِ": 590,
      "ّ": 591,
      "ْ": 592,
      "ٹ": 593,
      "پ": 594,
      "ڂ": 595,
      "چ": 596,
      "ڋ": 597,
      "ړ": 598,
      "ژ": 599,
      "ښ": 600,
      "ک": 601,
      "گ": 602,
      "ی": 603,
      "ې": 604,
      "ے": 605,
      "ۖ": 606,
      "ۚ": 607,
      "۰": 608,
      "۱": 609,
      "܂": 610,
      "݂": 611,
      "݌": 612,
      "ݏ": 613,
      "ހ": 614,
      "ބ": 615,
      "އ": 616,
      "ވ": 617,
      "މ": 618,
      "ދ": 619,
      "ލ": 620,
      "ސ": 621,
      "ަ": 622,
      "ާ": 623,
      "ި": 624,
      "ީ": 625,
      "ު": 626,
      "ެ": 627,
      "ޯ": 628,
      "ް": 629,
      "߂": 630,
      "ं": 631,
      "आ": 632,
      "ओ": 633,
      "च": 634,
      "ज": 635,
      "ञ": 636,
      "ठ": 637,
      "त": 638,
      "द": 639,
      "न": 640,
      "भ": 641,
      "म": 642,
      "र": 643,
      "ल": 644,
      "व": 645,
      "श": 646,
      "ष": 647,
      "स": 648,
      "ह": 649,
      "ा": 650,
      "ि": 651,
      "ी": 652,
      "ु": 653,
      "ो": 654,
      "्": 655,
      "ং": 656,
      "ও": 657,
      "চ": 658,
      "জ": 659,
      "ঞ": 660,
      "ত": 661,
      "ন": 662,
      "ব": 663,
      "ভ": 664,
      "ম": 665,
      "র": 666,
      "ল": 667,
      "ষ": 668,
      "স": 669,
      "া": 670,
      "ি": 671,
      "্": 672,
      "ગ": 673,
      "જ": 674,
      "ત": 675,
      "ભ": 676,
      "ર": 677,
      "ષ": 678,
      "ા": 679,
      "ી": 680,
      "ુ": 681,
      "ட": 682,
      "த": 683,
      "ந": 684,
      "ப": 685,
      "ம": 686,
      "ய": 687,
      "ல": 688,
      "ழ": 689,
      "வ": 690,
      "ஸ": 691,
      "ா": 692,
      "ி": 693,
      "ொ": 694,
      "ோ": 695,
      "்": 696,
      "ల": 697,
      "వ": 698,
      "స": 699,
      "ా": 700,
      "ో": 701,
      "్": 702,
      "ಕ": 703,
      "ಜ": 704,
      "ಞ": 705,
      "ಡ": 706,
      "ನ": 707,
      "ಭ": 708,
      "ಲ": 709,
      "ವ": 710,
      "ಷ": 711,
      "ಸ": 712,
      "ಾ": 713,
      "ಿ": 714,
      "ೋ": 715,
      "್": 716,
      "ം": 717,
      "ട": 718,
      "പ": 719,
      "ഭ": 720,
      "മ": 721,
      "യ": 722,
      "ല": 723,
      "ള": 724,
      "വ": 725,
      "ഷ": 726,
      "സ": 727,
      "ാ": 728,
      "ൂ": 729,
      "ോ": 730,
      "്": 731,
      "ก": 732,
      "ข": 733,
      "ค": 734,
      "ง": 735,
      "จ": 736,
      "ช": 737,
      "ญ": 738,
      "ด": 739,
      "ต": 740,
      "ถ": 741,
      "ท": 742,
      "น": 743,
      "ป": 744,
      "ผ": 745,
      "พ": 746,
      "ฟ": 747,
      "ภ": 748,
      "ม": 749,
      "ย": 750,
      "ร": 751,
      "ล": 752,
      "ว": 753,
      "ศ": 754,
      "ษ": 755,
      "ส": 756,
      "ห": 757,
      "อ": 758,
      "ะ": 759,
      "ั": 760,
      "า": 761,
      "ำ": 762,
      "ิ": 763,
      "ี": 764,
      "ื": 765,
      "ุ": 766,
      "ู": 767,
      "฿": 768,
      "เ": 769,
      "แ": 770,
      "ใ": 771,
      "ไ": 772,
      "็": 773,
      "่": 774,
      "้": 775,
      "์": 776,
      "๑": 777,
      "๓": 778,
      "ຊ": 779,
      "ດ": 780,
      "ຕ": 781,
      "ທ": 782,
      "ນ": 783,
      "ປ": 784,
      "ພ": 785,
      "ລ": 786,
      "ວ": 787,
      "ສ": 788,
      "ະ": 789,
      "ັ": 790,
      "າ": 791,
      "ິ": 792,
      "ົ": 793,
      "ເ": 794,
      "ໄ": 795,
      "་": 796,
      "ག": 797,
      "ཇ": 798,
      "འ": 799,
      "ལ": 800,
      "ས": 801,
      "ུ": 802,
      "ོ": 803,
      "Ⴆ": 804,
      "ა": 805,
      "ბ": 806,
      "გ": 807,
      "ე": 808,
      "ვ": 809,
      "ზ": 810,
      "თ": 811,
      "ი": 812,
      "კ": 813,
      "ლ": 814,
      "მ": 815,
      "ნ": 816,
      "ო": 817,
      "რ": 818,
      "ს": 819,
      "ტ": 820,
      "უ": 821,
      "ფ": 822,
      "ქ": 823,
      "ღ": 824,
      "ყ": 825,
      "შ": 826,
      "ჩ": 827,
      "ც": 828,
      "ძ": 829,
      "ჯ": 830,
      "ჰ": 831,
      "ማ": 832,
      "ር": 833,
      "ቋ": 834,
      "ት": 835,
      "ና": 836,
      "ን": 837,
      "ኛ": 838,
      "አ": 839,
      "የ": 840,
      "ጥ": 841,
      "ᐃ": 842,
      "ᐅ": 843,
      "ᑎ": 844,
      "ᑐ": 845,
      "ᑦ": 846,
      "ᒃ": 847,
      "ᓂ": 848,
      "ᓄ": 849,
      "ᓕ": 850,
      "ᓯ": 851,
      "ᕆ": 852,
      "ᖄ": 853,
      "ᖅ": 854,
      "ទ": 855,
      "ប": 856,
      "រ": 857,
      "វ": 858,
      "ស": 859,
      "ឡ": 860,
      "ា": 861,
      "េ": 862,
      "្": 863,
      "ᠠ": 864,
      "ᠢ": 865,
      "ᠣ": 866,
      "ᠪ": 867,
      "ᠳ": 868,
      "ᠶ": 869,
      "ᠷ": 870,
      "ᵗ": 871,
      "ḍ": 872,
      "ḏ": 873,
      "Ḥ": 874,
      "ḥ": 875,
      "ḫ": 876,
      "ṃ": 877,
      "ṅ": 878,
      "ṇ": 879,
      "ṛ": 880,
      "Ṣ": 881,
      "ṣ": 882,
      "ṭ": 883,
      "ṯ": 884,
      "ṳ": 885,
      "Ẓ": 886,
      "ạ": 887,
      "ả": 888,
      "ấ": 889,
      "ẵ": 890,
      "ặ": 891,
      "ẹ": 892,
      "ế": 893,
      "ề": 894,
      "ể": 895,
      "ễ": 896,
      "ệ": 897,
      "ị": 898,
      "ọ": 899,
      "ỏ": 900,
      "ố": 901,
      "ồ": 902,
      "ổ": 903,
      "ộ": 904,
      "ờ": 905,
      "ở": 906,
      "ợ": 907,
      "ụ": 908,
      "ứ": 909,
      "ử": 910,
      "ữ": 911,
      "ự": 912,
      "ỹ": 913,
      "ἀ": 914,
      "ἐ": 915,
      "ἰ": 916,
      "Ἱ": 917,
      "ὁ": 918,
      "ὅ": 919,
      "έ": 920,
      "ό": 921,
      "ᾶ": 922,
      "ῇ": 923,
      "ῶ": 924,
      "​": 925,
      "‌": 926,
      "‎": 927,
      "‏": 928,
      "‐": 929,
      "‑": 930,
      "‒": 931,
      "–": 932,
      "—": 933,
      "―": 934,
      "‖": 935,
      "‘": 936,
      "’": 937,
      "‚": 938,
      "“": 939,
      "”": 940,
      "„": 941,
      "†": 942,
      "‡": 943,
      "•": 944,
      "‣": 945,
      "…": 946,
      "‪": 947,
      "‬": 948,
      "‰": 949,
      "′": 950,
      "″": 951,
      "‹": 952,
      "›": 953,
      "※": 954,
      "‼": 955,
      "‾": 956,
      "⁄": 957,
      "⁡": 958,
      "⁰": 959,
      "⁴": 960,
      "⁵": 961,
      "⁷": 962,
      "⁹": 963,
      "₂": 964,
      "₪": 965,
      "€": 966,
      "₭": 967,
      "₯": 968,
      "₱": 969,
      "₹": 970,
      "⃣": 971,
      "℃": 972,
      "℅": 973,
      "℉": 974,
      "№": 975,
      "℠": 976,
      "™": 977,
      "ℳ": 978,
      "⅔": 979,
      "⅛": 980,
      "ⅰ": 981,
      "ⅱ": 982,
      "ⅲ": 983,
      "ⅳ": 984,
      "ⅴ": 985,
      "←": 986,
      "↑": 987,
      "→": 988,
      "↓": 989,
      "↩": 990,
      "⇒": 991,
      "⇓": 992,
      "⇢": 993,
      "⇧": 994,
      "∀": 995,
      "∆": 996,
      "∇": 997,
      "∈": 998,
      "−": 999,
      "∗": 1000,
      "∘": 1001,
      "√": 1002,
      "∝": 1003,
      "∞": 1004,
      "∣": 1005,
      "∧": 1006,
      "∨": 1007,
      "∩": 1008,
      "∪": 1009,
      "∫": 1010,
      "∶": 1011,
      "∼": 1012,
      "≃": 1013,
      "≅": 1014,
      "≈": 1015,
      "≠": 1016,
      "≤": 1017,
      "≥": 1018,
      "≦": 1019,
      "≧": 1020,
      "≫": 1021,
      "≻": 1022,
      "⊙": 1023,
      "⊸": 1024,
      "⋅": 1025,
      "⋯": 1026,
      "⌒": 1027,
      "⌘": 1028,
      "⎼": 1029,
      "⏟": 1030,
      "①": 1031,
      "②": 1032,
      "③": 1033,
      "④": 1034,
      "⑤": 1035,
      "⑥": 1036,
      "⑦": 1037,
      "⑧": 1038,
      "⑨": 1039,
      "⑩": 1040,
      "⑴": 1041,
      "⑶": 1042,
      "⑷": 1043,
      "⒈": 1044,
      "⒌": 1045,
      "ⓒ": 1046,
      "─": 1047,
      "│": 1048,
      "┃": 1049,
      "┄": 1050,
      "└": 1051,
      "├": 1052,
      "┼": 1053,
      "║": 1054,
      "╭": 1055,
      "╮": 1056,
      "▄": 1057,
      "█": 1058,
      "▋": 1059,
      "▌": 1060,
      "■": 1061,
      "□": 1062,
      "▪": 1063,
      "▲": 1064,
      "△": 1065,
      "▶": 1066,
      "▸": 1067,
      "►": 1068,
      "▼": 1069,
      "▽": 1070,
      "▿": 1071,
      "◂": 1072,
      "◊": 1073,
      "○": 1074,
      "◎": 1075,
      "●": 1076,
      "◐": 1077,
      "◘": 1078,
      "◥": 1079,
      "◾": 1080,
      "☀": 1081,
      "★": 1082,
      "☆": 1083,
      "☉": 1084,
      "☎": 1085,
      "☖": 1086,
      "☺": 1087,
      "♠": 1088,
      "♥": 1089,
      "♦": 1090,
      "♪": 1091,
      "♭": 1092,
      "♯": 1093,
      "⚔": 1094,
      "⚡": 1095,
      "⚥": 1096,
      "✅": 1097,
      "✈": 1098,
      "✏": 1099,
      "✓": 1100,
      "✔": 1101,
      "✶": 1102,
      "❤": 1103,
      "❦": 1104,
      "➕": 1105,
      "➙": 1106,
      "➜": 1107,
      "➡": 1108,
      "➤": 1109,
      "➫": 1110,
      "⟩": 1111,
      "⟶": 1112,
      "⠀": 1113,
      "⬛": 1114,
      "⬜": 1115,
      "⭐": 1116,
      "⼀": 1117,
      "⼩": 1118,
      "⽅": 1119,
      "⽴": 1120,
      "⾏": 1121,
      "⾜": 1122,
      "⾯": 1123,
      "⾰": 1124,
      "⾼": 1125,
      "、": 1126,
      "。": 1127,
      "〃": 1128,
      "〇": 1129,
      "〈": 1130,
      "〉": 1131,
      "《": 1132,
      "》": 1133,
      "「": 1134,
      "」": 1135,
      "『": 1136,
      "』": 1137,
      "【": 1138,
      "】": 1139,
      "〔": 1140,
      "〕": 1141,
      "〖": 1142,
      "〗": 1143,
      "〝": 1144,
      "〞": 1145,
      "〟": 1146,
      "あ": 1147,
      "い": 1148,
      "う": 1149,
      "え": 1150,
      "お": 1151,
      "か": 1152,
      "が": 1153,
      "き": 1154,
      "ぎ": 1155,
      "く": 1156,
      "け": 1157,
      "げ": 1158,
      "こ": 1159,
      "ご": 1160,
      "さ": 1161,
      "ざ": 1162,
      "し": 1163,
      "じ": 1164,
      "す": 1165,
      "ず": 1166,
      "せ": 1167,
      "ぜ": 1168,
      "そ": 1169,
      "ぞ": 1170,
      "た": 1171,
      "だ": 1172,
      "ち": 1173,
      "っ": 1174,
      "つ": 1175,
      "づ": 1176,
      "て": 1177,
      "で": 1178,
      "と": 1179,
      "ど": 1180,
      "な": 1181,
      "に": 1182,
      "ね": 1183,
      "の": 1184,
      "は": 1185,
      "ば": 1186,
      "ひ": 1187,
      "び": 1188,
      "ふ": 1189,
      "ぶ": 1190,
      "へ": 1191,
      "べ": 1192,
      "ほ": 1193,
      "ぼ": 1194,
      "ぽ": 1195,
      "ま": 1196,
      "み": 1197,
      "む": 1198,
      "め": 1199,
      "も": 1200,
      "ゃ": 1201,
      "や": 1202,
      "ょ": 1203,
      "よ": 1204,
      "ら": 1205,
      "り": 1206,
      "る": 1207,
      "れ": 1208,
      "ろ": 1209,
      "わ": 1210,
      "を": 1211,
      "ん": 1212,
      "゜": 1213,
      "ゞ": 1214,
      "ァ": 1215,
      "ア": 1216,
      "ィ": 1217,
      "イ": 1218,
      "ゥ": 1219,
      "ウ": 1220,
      "ェ": 1221,
      "エ": 1222,
      "ォ": 1223,
      "オ": 1224,
      "カ": 1225,
      "ガ": 1226,
      "キ": 1227,
      "ギ": 1228,
      "ク": 1229,
      "グ": 1230,
      "ケ": 1231,
      "ゲ": 1232,
      "コ": 1233,
      "ゴ": 1234,
      "サ": 1235,
      "ザ": 1236,
      "シ": 1237,
      "ジ": 1238,
      "ス": 1239,
      "ズ": 1240,
      "ゼ": 1241,
      "ソ": 1242,
      "タ": 1243,
      "ダ": 1244,
      "チ": 1245,
      "ッ": 1246,
      "ツ": 1247,
      "テ": 1248,
      "デ": 1249,
      "ト": 1250,
      "ド": 1251,
      "ナ": 1252,
      "ニ": 1253,
      "ネ": 1254,
      "ノ": 1255,
      "ハ": 1256,
      "バ": 1257,
      "パ": 1258,
      "ヒ": 1259,
      "ビ": 1260,
      "ピ": 1261,
      "フ": 1262,
      "ブ": 1263,
      "プ": 1264,
      "ヘ": 1265,
      "ベ": 1266,
      "ペ": 1267,
      "ホ": 1268,
      "ボ": 1269,
      "ポ": 1270,
      "マ": 1271,
      "ミ": 1272,
      "ム": 1273,
      "メ": 1274,
      "モ": 1275,
      "ヤ": 1276,
      "ュ": 1277,
      "ユ": 1278,
      "ョ": 1279,
      "ラ": 1280,
      "リ": 1281,
      "ル": 1282,
      "レ": 1283,
      "ロ": 1284,
      "ワ": 1285,
      "ヲ": 1286,
      "ン": 1287,
      "ヴ": 1288,
      "・": 1289,
      "ー": 1290,
      "ヾ": 1291,
      "ㅂ": 1292,
      "ㅠ": 1293,
      "㎕": 1294,
      "㎜": 1295,
      "㎡": 1296,
      "㐽": 1297,
      "㑇": 1298,
      "㑈": 1299,
      "㑊": 1300,
      "㕮": 1301,
      "㘎": 1302,
      "㙍": 1303,
      "㙘": 1304,
      "㙦": 1305,
      "㛃": 1306,
      "㛚": 1307,
      "㛤": 1308,
      "㛹": 1309,
      "㟃": 1310,
      "㠇": 1311,
      "㠓": 1312,
      "㤘": 1313,
      "㥄": 1314,
      "㧐": 1315,
      "㧑": 1316,
      "㧟": 1317,
      "㫰": 1318,
      "㬊": 1319,
      "㬎": 1320,
      "㬚": 1321,
      "㭎": 1322,
      "㭏": 1323,
      "㭕": 1324,
      "㮾": 1325,
      "㰀": 1326,
      "㱩": 1327,
      "㳇": 1328,
      "㳘": 1329,
      "㳚": 1330,
      "㳠": 1331,
      "㴔": 1332,
      "㵐": 1333,
      "㶲": 1334,
      "㸆": 1335,
      "㸌": 1336,
      "㺄": 1337,
      "㻬": 1338,
      "㽏": 1339,
      "㿠": 1340,
      "䁖": 1341,
      "䂮": 1342,
      "䂵": 1343,
      "䃅": 1344,
      "䃎": 1345,
      "䄂": 1346,
      "䅉": 1347,
      "䅟": 1348,
      "䇲": 1349,
      "䌹": 1350,
      "䎃": 1351,
      "䎖": 1352,
      "䏝": 1353,
      "䏡": 1354,
      "䏲": 1355,
      "䐃": 1356,
      "䓖": 1357,
      "䓛": 1358,
      "䓨": 1359,
      "䓫": 1360,
      "䓬": 1361,
      "䗖": 1362,
      "䗛": 1363,
      "䗪": 1364,
      "䗴": 1365,
      "䜣": 1366,
      "䝙": 1367,
      "䢺": 1368,
      "䢼": 1369,
      "䣘": 1370,
      "䥽": 1371,
      "䦃": 1372,
      "䲟": 1373,
      "䲠": 1374,
      "䲢": 1375,
      "䴓": 1376,
      "䴔": 1377,
      "䴕": 1378,
      "䴖": 1379,
      "䴗": 1380,
      "䴘": 1381,
      "䴙": 1382,
      "䶮": 1383,
      "一": 1384,
      "丁": 1385,
      "七": 1386,
      "万": 1387,
      "丈": 1388,
      "三": 1389,
      "上": 1390,
      "下": 1391,
      "不": 1392,
      "与": 1393,
      "丏": 1394,
      "丐": 1395,
      "丑": 1396,
      "专": 1397,
      "且": 1398,
      "丕": 1399,
      "世": 1400,
      "丘": 1401,
      "丙": 1402,
      "业": 1403,
      "丛": 1404,
      "东": 1405,
      "丝": 1406,
      "丞": 1407,
      "丢": 1408,
      "两": 1409,
      "严": 1410,
      "並": 1411,
      "丧": 1412,
      "丨": 1413,
      "个": 1414,
      "丫": 1415,
      "中": 1416,
      "丰": 1417,
      "串": 1418,
      "临": 1419,
      "丶": 1420,
      "丸": 1421,
      "丹": 1422,
      "为": 1423,
      "主": 1424,
      "丽": 1425,
      "举": 1426,
      "丿": 1427,
      "乀": 1428,
      "乂": 1429,
      "乃": 1430,
      "久": 1431,
      "么": 1432,
      "义": 1433,
      "之": 1434,
      "乌": 1435,
      "乍": 1436,
      "乎": 1437,
      "乏": 1438,
      "乐": 1439,
      "乒": 1440,
      "乓": 1441,
      "乔": 1442,
      "乖": 1443,
      "乘": 1444,
      "乙": 1445,
      "乜": 1446,
      "九": 1447,
      "乞": 1448,
      "也": 1449,
      "习": 1450,
      "乡": 1451,
      "书": 1452,
      "乩": 1453,
      "乪": 1454,
      "买": 1455,
      "乱": 1456,
      "乳": 1457,
      "乸": 1458,
      "乺": 1459,
      "乼": 1460,
      "乾": 1461,
      "了": 1462,
      "亇": 1463,
      "予": 1464,
      "争": 1465,
      "事": 1466,
      "二": 1467,
      "亍": 1468,
      "于": 1469,
      "亏": 1470,
      "云": 1471,
      "互": 1472,
      "亓": 1473,
      "五": 1474,
      "井": 1475,
      "亘": 1476,
      "亚": 1477,
      "些": 1478,
      "亟": 1479,
      "亡": 1480,
      "亢": 1481,
      "交": 1482,
      "亥": 1483,
      "亦": 1484,
      "产": 1485,
      "亨": 1486,
      "亩": 1487,
      "享": 1488,
      "京": 1489,
      "亭": 1490,
      "亮": 1491,
      "亲": 1492,
      "亳": 1493,
      "亵": 1494,
      "亶": 1495,
      "亸": 1496,
      "亹": 1497,
      "人": 1498,
      "亻": 1499,
      "亿": 1500,
      "什": 1501,
      "仁": 1502,
      "仂": 1503,
      "仃": 1504,
      "仄": 1505,
      "仅": 1506,
      "仆": 1507,
      "仇": 1508,
      "仉": 1509,
      "今": 1510,
      "介": 1511,
      "仍": 1512,
      "从": 1513,
      "仏": 1514,
      "仑": 1515,
      "仓": 1516,
      "仔": 1517,
      "仕": 1518,
      "他": 1519,
      "仗": 1520,
      "付": 1521,
      "仙": 1522,
      "仚": 1523,
      "仝": 1524,
      "仞": 1525,
      "仟": 1526,
      "仡": 1527,
      "代": 1528,
      "令": 1529,
      "以": 1530,
      "仨": 1531,
      "仪": 1532,
      "仫": 1533,
      "们": 1534,
      "仭": 1535,
      "仰": 1536,
      "仲": 1537,
      "仳": 1538,
      "仵": 1539,
      "件": 1540,
      "价": 1541,
      "任": 1542,
      "份": 1543,
      "仿": 1544,
      "企": 1545,
      "伈": 1546,
      "伉": 1547,
      "伊": 1548,
      "伋": 1549,
      "伍": 1550,
      "伎": 1551,
      "伏": 1552,
      "伐": 1553,
      "休": 1554,
      "众": 1555,
      "优": 1556,
      "伙": 1557,
      "会": 1558,
      "伛": 1559,
      "伝": 1560,
      "伞": 1561,
      "伟": 1562,
      "传": 1563,
      "伢": 1564,
      "伣": 1565,
      "伤": 1566,
      "伥": 1567,
      "伦": 1568,
      "伧": 1569,
      "伪": 1570,
      "伫": 1571,
      "伭": 1572,
      "伯": 1573,
      "估": 1574,
      "伲": 1575,
      "伴": 1576,
      "伶": 1577,
      "伷": 1578,
      "伸": 1579,
      "伺": 1580,
      "似": 1581,
      "伽": 1582,
      "伾": 1583,
      "佁": 1584,
      "佃": 1585,
      "但": 1586,
      "佉": 1587,
      "位": 1588,
      "低": 1589,
      "住": 1590,
      "佐": 1591,
      "佑": 1592,
      "体": 1593,
      "何": 1594,
      "佖": 1595,
      "佗": 1596,
      "佘": 1597,
      "余": 1598,
      "佚": 1599,
      "佛": 1600,
      "作": 1601,
      "佝": 1602,
      "佞": 1603,
      "佟": 1604,
      "你": 1605,
      "佣": 1606,
      "佤": 1607,
      "佥": 1608,
      "佩": 1609,
      "佬": 1610,
      "佯": 1611,
      "佰": 1612,
      "佳": 1613,
      "佴": 1614,
      "佶": 1615,
      "佸": 1616,
      "佺": 1617,
      "佻": 1618,
      "佼": 1619,
      "佽": 1620,
      "佾": 1621,
      "使": 1622,
      "侁": 1623,
      "侂": 1624,
      "侃": 1625,
      "侄": 1626,
      "來": 1627,
      "侈": 1628,
      "侉": 1629,
      "例": 1630,
      "侍": 1631,
      "侏": 1632,
      "侑": 1633,
      "侔": 1634,
      "侗": 1635,
      "侘": 1636,
      "供": 1637,
      "依": 1638,
      "侞": 1639,
      "侠": 1640,
      "価": 1641,
      "侣": 1642,
      "侥": 1643,
      "侦": 1644,
      "侧": 1645,
      "侨": 1646,
      "侩": 1647,
      "侪": 1648,
      "侬": 1649,
      "侮": 1650,
      "侯": 1651,
      "侴": 1652,
      "侵": 1653,
      "侹": 1654,
      "便": 1655,
      "係": 1656,
      "促": 1657,
      "俄": 1658,
      "俅": 1659,
      "俊": 1660,
      "俍": 1661,
      "俎": 1662,
      "俏": 1663,
      "俐": 1664,
      "俑": 1665,
      "俖": 1666,
      "俗": 1667,
      "俘": 1668,
      "俙": 1669,
      "俚": 1670,
      "俜": 1671,
      "保": 1672,
      "俞": 1673,
      "俟": 1674,
      "信": 1675,
      "俢": 1676,
      "俣": 1677,
      "俦": 1678,
      "俨": 1679,
      "俩": 1680,
      "俪": 1681,
      "俫": 1682,
      "俬": 1683,
      "俭": 1684,
      "修": 1685,
      "俯": 1686,
      "俱": 1687,
      "俳": 1688,
      "俵": 1689,
      "俶": 1690,
      "俸": 1691,
      "俺": 1692,
      "俾": 1693,
      "個": 1694,
      "倌": 1695,
      "倍": 1696,
      "倏": 1697,
      "倒": 1698,
      "倓": 1699,
      "倔": 1700,
      "倕": 1701,
      "倘": 1702,
      "候": 1703,
      "倚": 1704,
      "倜": 1705,
      "倞": 1706,
      "借": 1707,
      "倡": 1708,
      "倥": 1709,
      "倦": 1710,
      "倧": 1711,
      "倨": 1712,
      "倩": 1713,
      "倪": 1714,
      "倬": 1715,
      "倭": 1716,
      "倮": 1717,
      "倴": 1718,
      "债": 1719,
      "倻": 1720,
      "值": 1721,
      "倾": 1722,
      "偀": 1723,
      "偁": 1724,
      "偃": 1725,
      "假": 1726,
      "偈": 1727,
      "偊": 1728,
      "偋": 1729,
      "偌": 1730,
      "偎": 1731,
      "偏": 1732,
      "偓": 1733,
      "偕": 1734,
      "做": 1735,
      "偛": 1736,
      "停": 1737,
      "偟": 1738,
      "偡": 1739,
      "健": 1740,
      "偦": 1741,
      "偬": 1742,
      "偭": 1743,
      "偰": 1744,
      "偲": 1745,
      "偶": 1746,
      "偷": 1747,
      "偻": 1748,
      "偾": 1749,
      "偿": 1750,
      "傀": 1751,
      "傃": 1752,
      "傅": 1753,
      "傈": 1754,
      "傉": 1755,
      "傍": 1756,
      "傒": 1757,
      "傕": 1758,
      "備": 1759,
      "傣": 1760,
      "傤": 1761,
      "傥": 1762,
      "傧": 1763,
      "储": 1764,
      "傩": 1765,
      "催": 1766,
      "傰": 1767,
      "傱": 1768,
      "傲": 1769,
      "傳": 1770,
      "傶": 1771,
      "傺": 1772,
      "傻": 1773,
      "僅": 1774,
      "僇": 1775,
      "僌": 1776,
      "働": 1777,
      "僎": 1778,
      "像": 1779,
      "僔": 1780,
      "僖": 1781,
      "僚": 1782,
      "僛": 1783,
      "僣": 1784,
      "僦": 1785,
      "僧": 1786,
      "僬": 1787,
      "僭": 1788,
      "僮": 1789,
      "僰": 1790,
      "僲": 1791,
      "僳": 1792,
      "僵": 1793,
      "僻": 1794,
      "儆": 1795,
      "儇": 1796,
      "儋": 1797,
      "儒": 1798,
      "儗": 1799,
      "儞": 1800,
      "儡": 1801,
      "儦": 1802,
      "優": 1803,
      "儳": 1804,
      "儴": 1805,
      "儶": 1806,
      "儿": 1807,
      "兀": 1808,
      "允": 1809,
      "元": 1810,
      "兄": 1811,
      "充": 1812,
      "兆": 1813,
      "先": 1814,
      "光": 1815,
      "克": 1816,
      "免": 1817,
      "兑": 1818,
      "兔": 1819,
      "兕": 1820,
      "兖": 1821,
      "兘": 1822,
      "党": 1823,
      "兜": 1824,
      "兟": 1825,
      "兡": 1826,
      "兢": 1827,
      "兣": 1828,
      "入": 1829,
      "全": 1830,
      "八": 1831,
      "公": 1832,
      "六": 1833,
      "兮": 1834,
      "兰": 1835,
      "共": 1836,
      "兲": 1837,
      "关": 1838,
      "兴": 1839,
      "兵": 1840,
      "其": 1841,
      "具": 1842,
      "典": 1843,
      "兹": 1844,
      "养": 1845,
      "兼": 1846,
      "兽": 1847,
      "冀": 1848,
      "冁": 1849,
      "内": 1850,
      "冈": 1851,
      "冉": 1852,
      "冋": 1853,
      "册": 1854,
      "再": 1855,
      "冏": 1856,
      "冒": 1857,
      "冔": 1858,
      "冕": 1859,
      "冗": 1860,
      "写": 1861,
      "军": 1862,
      "农": 1863,
      "冠": 1864,
      "冢": 1865,
      "冣": 1866,
      "冤": 1867,
      "冥": 1868,
      "冬": 1869,
      "冮": 1870,
      "冯": 1871,
      "冰": 1872,
      "冱": 1873,
      "冲": 1874,
      "决": 1875,
      "况": 1876,
      "冶": 1877,
      "冷": 1878,
      "冻": 1879,
      "冼": 1880,
      "冽": 1881,
      "净": 1882,
      "凄": 1883,
      "准": 1884,
      "凇": 1885,
      "凉": 1886,
      "凋": 1887,
      "凌": 1888,
      "减": 1889,
      "凑": 1890,
      "凓": 1891,
      "凘": 1892,
      "凛": 1893,
      "凝": 1894,
      "几": 1895,
      "凡": 1896,
      "凤": 1897,
      "凫": 1898,
      "凭": 1899,
      "凯": 1900,
      "凰": 1901,
      "凳": 1902,
      "凶": 1903,
      "凸": 1904,
      "凹": 1905,
      "出": 1906,
      "击": 1907,
      "凼": 1908,
      "函": 1909,
      "凿": 1910,
      "刀": 1911,
      "刁": 1912,
      "刃": 1913,
      "分": 1914,
      "切": 1915,
      "刈": 1916,
      "刊": 1917,
      "刋": 1918,
      "刍": 1919,
      "刎": 1920,
      "刑": 1921,
      "划": 1922,
      "刖": 1923,
      "列": 1924,
      "刘": 1925,
      "则": 1926,
      "刚": 1927,
      "创": 1928,
      "初": 1929,
      "删": 1930,
      "刣": 1931,
      "判": 1932,
      "別": 1933,
      "刨": 1934,
      "利": 1935,
      "别": 1936,
      "刬": 1937,
      "刭": 1938,
      "刮": 1939,
      "到": 1940,
      "刳": 1941,
      "刴": 1942,
      "制": 1943,
      "刷": 1944,
      "券": 1945,
      "刹": 1946,
      "刺": 1947,
      "刻": 1948,
      "刽": 1949,
      "刿": 1950,
      "剀": 1951,
      "剁": 1952,
      "剂": 1953,
      "剃": 1954,
      "剅": 1955,
      "削": 1956,
      "剋": 1957,
      "剌": 1958,
      "前": 1959,
      "剐": 1960,
      "剑": 1961,
      "剔": 1962,
      "剕": 1963,
      "剖": 1964,
      "剜": 1965,
      "剞": 1966,
      "剟": 1967,
      "剡": 1968,
      "剥": 1969,
      "剧": 1970,
      "剩": 1971,
      "剪": 1972,
      "副": 1973,
      "割": 1974,
      "剹": 1975,
      "剽": 1976,
      "剿": 1977,
      "劁": 1978,
      "劂": 1979,
      "劄": 1980,
      "劈": 1981,
      "劐": 1982,
      "劓": 1983,
      "力": 1984,
      "劝": 1985,
      "办": 1986,
      "功": 1987,
      "加": 1988,
      "务": 1989,
      "劢": 1990,
      "劣": 1991,
      "动": 1992,
      "助": 1993,
      "努": 1994,
      "劫": 1995,
      "劬": 1996,
      "劭": 1997,
      "励": 1998,
      "劲": 1999,
      "劳": 2000,
      "労": 2001,
      "劵": 2002,
      "劶": 2003,
      "劻": 2004,
      "劼": 2005,
      "劾": 2006,
      "势": 2007,
      "勃": 2008,
      "勇": 2009,
      "勉": 2010,
      "勋": 2011,
      "勌": 2012,
      "勍": 2013,
      "勐": 2014,
      "勒": 2015,
      "勔": 2016,
      "動": 2017,
      "勖": 2018,
      "勘": 2019,
      "務": 2020,
      "勚": 2021,
      "募": 2022,
      "勠": 2023,
      "勤": 2024,
      "勪": 2025,
      "勰": 2026,
      "勷": 2027,
      "勺": 2028,
      "勾": 2029,
      "勿": 2030,
      "匀": 2031,
      "匂": 2032,
      "匃": 2033,
      "包": 2034,
      "匆": 2035,
      "匈": 2036,
      "匍": 2037,
      "匏": 2038,
      "匐": 2039,
      "匕": 2040,
      "化": 2041,
      "北": 2042,
      "匘": 2043,
      "匙": 2044,
      "匜": 2045,
      "匝": 2046,
      "匠": 2047,
      "匡": 2048,
      "匣": 2049,
      "匦": 2050,
      "匩": 2051,
      "匪": 2052,
      "匮": 2053,
      "匴": 2054,
      "匹": 2055,
      "区": 2056,
      "医": 2057,
      "匼": 2058,
      "匾": 2059,
      "匿": 2060,
      "區": 2061,
      "十": 2062,
      "千": 2063,
      "卅": 2064,
      "升": 2065,
      "午": 2066,
      "卉": 2067,
      "半": 2068,
      "华": 2069,
      "协": 2070,
      "卑": 2071,
      "卒": 2072,
      "卓": 2073,
      "協": 2074,
      "单": 2075,
      "卖": 2076,
      "南": 2077,
      "博": 2078,
      "卜": 2079,
      "卞": 2080,
      "卟": 2081,
      "占": 2082,
      "卡": 2083,
      "卢": 2084,
      "卣": 2085,
      "卤": 2086,
      "卦": 2087,
      "卧": 2088,
      "卨": 2089,
      "卫": 2090,
      "卬": 2091,
      "卮": 2092,
      "卯": 2093,
      "印": 2094,
      "危": 2095,
      "即": 2096,
      "却": 2097,
      "卵": 2098,
      "卷": 2099,
      "卸": 2100,
      "卺": 2101,
      "卿": 2102,
      "厂": 2103,
      "厄": 2104,
      "厅": 2105,
      "历": 2106,
      "厉": 2107,
      "压": 2108,
      "厌": 2109,
      "厍": 2110,
      "厐": 2111,
      "厕": 2112,
      "厖": 2113,
      "厘": 2114,
      "厚": 2115,
      "厝": 2116,
      "厞": 2117,
      "原": 2118,
      "厢": 2119,
      "厣": 2120,
      "厥": 2121,
      "厦": 2122,
      "厨": 2123,
      "厩": 2124,
      "厪": 2125,
      "厬": 2126,
      "厮": 2127,
      "去": 2128,
      "厾": 2129,
      "县": 2130,
      "叁": 2131,
      "参": 2132,
      "叆": 2133,
      "叇": 2134,
      "又": 2135,
      "叉": 2136,
      "及": 2137,
      "友": 2138,
      "双": 2139,
      "反": 2140,
      "发": 2141,
      "叒": 2142,
      "叔": 2143,
      "叕": 2144,
      "取": 2145,
      "受": 2146,
      "变": 2147,
      "叙": 2148,
      "叚": 2149,
      "叛": 2150,
      "叟": 2151,
      "叠": 2152,
      "叡": 2153,
      "口": 2154,
      "古": 2155,
      "句": 2156,
      "另": 2157,
      "叨": 2158,
      "叩": 2159,
      "只": 2160,
      "叫": 2161,
      "召": 2162,
      "叭": 2163,
      "叮": 2164,
      "可": 2165,
      "台": 2166,
      "叱": 2167,
      "史": 2168,
      "右": 2169,
      "叵": 2170,
      "叶": 2171,
      "号": 2172,
      "司": 2173,
      "叹": 2174,
      "叻": 2175,
      "叼": 2176,
      "叽": 2177,
      "吁": 2178,
      "吃": 2179,
      "各": 2180,
      "吆": 2181,
      "合": 2182,
      "吉": 2183,
      "吊": 2184,
      "吋": 2185,
      "同": 2186,
      "名": 2187,
      "后": 2188,
      "吏": 2189,
      "吐": 2190,
      "向": 2191,
      "吒": 2192,
      "吓": 2193,
      "吕": 2194,
      "吖": 2195,
      "吗": 2196,
      "君": 2197,
      "吝": 2198,
      "吞": 2199,
      "吟": 2200,
      "吠": 2201,
      "吡": 2202,
      "吣": 2203,
      "否": 2204,
      "吧": 2205,
      "吨": 2206,
      "吩": 2207,
      "含": 2208,
      "听": 2209,
      "吭": 2210,
      "吮": 2211,
      "启": 2212,
      "吰": 2213,
      "吱": 2214,
      "吲": 2215,
      "吳": 2216,
      "吴": 2217,
      "吵": 2218,
      "吸": 2219,
      "吹": 2220,
      "吻": 2221,
      "吼": 2222,
      "吽": 2223,
      "吾": 2224,
      "吿": 2225,
      "呀": 2226,
      "呃": 2227,
      "呆": 2228,
      "呇": 2229,
      "呈": 2230,
      "告": 2231,
      "呋": 2232,
      "呌": 2233,
      "呐": 2234,
      "呒": 2235,
      "呓": 2236,
      "呔": 2237,
      "呕": 2238,
      "呖": 2239,
      "呗": 2240,
      "员": 2241,
      "呙": 2242,
      "呛": 2243,
      "呜": 2244,
      "呢": 2245,
      "呣": 2246,
      "呤": 2247,
      "呦": 2248,
      "周": 2249,
      "呬": 2250,
      "呱": 2251,
      "呲": 2252,
      "味": 2253,
      "呵": 2254,
      "呶": 2255,
      "呷": 2256,
      "呸": 2257,
      "呻": 2258,
      "呼": 2259,
      "命": 2260,
      "咀": 2261,
      "咁": 2262,
      "咂": 2263,
      "咄": 2264,
      "咆": 2265,
      "咇": 2266,
      "咈": 2267,
      "咉": 2268,
      "咋": 2269,
      "和": 2270,
      "咍": 2271,
      "咎": 2272,
      "咏": 2273,
      "咐": 2274,
      "咒": 2275,
      "咔": 2276,
      "咕": 2277,
      "咖": 2278,
      "咙": 2279,
      "咚": 2280,
      "咛": 2281,
      "咝": 2282,
      "咡": 2283,
      "咣": 2284,
      "咤": 2285,
      "咥": 2286,
      "咦": 2287,
      "咧": 2288,
      "咨": 2289,
      "咩": 2290,
      "咪": 2291,
      "咫": 2292,
      "咬": 2293,
      "咭": 2294,
      "咯": 2295,
      "咱": 2296,
      "咳": 2297,
      "咴": 2298,
      "咶": 2299,
      "咸": 2300,
      "咹": 2301,
      "咺": 2302,
      "咻": 2303,
      "咽": 2304,
      "咿": 2305,
      "哀": 2306,
      "品": 2307,
      "哂": 2308,
      "哃": 2309,
      "哄": 2310,
      "哆": 2311,
      "哇": 2312,
      "哈": 2313,
      "哉": 2314,
      "哊": 2315,
      "哌": 2316,
      "响": 2317,
      "哎": 2318,
      "哏": 2319,
      "哐": 2320,
      "哑": 2321,
      "哒": 2322,
      "哓": 2323,
      "哔": 2324,
      "哕": 2325,
      "哗": 2326,
      "哙": 2327,
      "哚": 2328,
      "哝": 2329,
      "哞": 2330,
      "哟": 2331,
      "員": 2332,
      "哢": 2333,
      "哥": 2334,
      "哦": 2335,
      "哧": 2336,
      "哨": 2337,
      "哩": 2338,
      "哪": 2339,
      "哭": 2340,
      "哮": 2341,
      "哱": 2342,
      "哲": 2343,
      "哳": 2344,
      "哸": 2345,
      "哺": 2346,
      "哼": 2347,
      "哽": 2348,
      "哿": 2349,
      "唁": 2350,
      "唆": 2351,
      "唇": 2352,
      "唉": 2353,
      "唎": 2354,
      "唏": 2355,
      "唐": 2356,
      "唑": 2357,
      "唓": 2358,
      "唔": 2359,
      "唛": 2360,
      "唝": 2361,
      "唠": 2362,
      "唢": 2363,
      "唣": 2364,
      "唤": 2365,
      "唧": 2366,
      "唪": 2367,
      "唬": 2368,
      "售": 2369,
      "唯": 2370,
      "唰": 2371,
      "唱": 2372,
      "唳": 2373,
      "唵": 2374,
      "唷": 2375,
      "唼": 2376,
      "唾": 2377,
      "唿": 2378,
      "啀": 2379,
      "啁": 2380,
      "啃": 2381,
      "啄": 2382,
      "商": 2383,
      "啉": 2384,
      "啊": 2385,
      "問": 2386,
      "啐": 2387,
      "啒": 2388,
      "啕": 2389,
      "啖": 2390,
      "啙": 2391,
      "啜": 2392,
      "啡": 2393,
      "啤": 2394,
      "啥": 2395,
      "啦": 2396,
      "啧": 2397,
      "啪": 2398,
      "啫": 2399,
      "啬": 2400,
      "啭": 2401,
      "啮": 2402,
      "啰": 2403,
      "啲": 2404,
      "啴": 2405,
      "啵": 2406,
      "啶": 2407,
      "啷": 2408,
      "啸": 2409,
      "啻": 2410,
      "啼": 2411,
      "啾": 2412,
      "啿": 2413,
      "喀": 2414,
      "喁": 2415,
      "喂": 2416,
      "喃": 2417,
      "善": 2418,
      "喆": 2419,
      "喇": 2420,
      "喈": 2421,
      "喉": 2422,
      "喊": 2423,
      "喋": 2424,
      "喏": 2425,
      "喑": 2426,
      "喔": 2427,
      "喘": 2428,
      "喙": 2429,
      "喜": 2430,
      "喝": 2431,
      "喟": 2432,
      "喤": 2433,
      "喧": 2434,
      "單": 2435,
      "喯": 2436,
      "喱": 2437,
      "喳": 2438,
      "喵": 2439,
      "喷": 2440,
      "喹": 2441,
      "喻": 2442,
      "喽": 2443,
      "喾": 2444,
      "嗄": 2445,
      "嗅": 2446,
      "嗈": 2447,
      "嗉": 2448,
      "嗌": 2449,
      "嗍": 2450,
      "嗐": 2451,
      "嗑": 2452,
      "嗒": 2453,
      "嗓": 2454,
      "嗔": 2455,
      "嗖": 2456,
      "嗜": 2457,
      "嗝": 2458,
      "嗞": 2459,
      "嗟": 2460,
      "嗡": 2461,
      "嗢": 2462,
      "嗣": 2463,
      "嗤": 2464,
      "嗥": 2465,
      "嗦": 2466,
      "嗨": 2467,
      "嗪": 2468,
      "嗫": 2469,
      "嗬": 2470,
      "嗯": 2471,
      "嗲": 2472,
      "嗳": 2473,
      "嗵": 2474,
      "嗷": 2475,
      "嗽": 2476,
      "嗾": 2477,
      "嘀": 2478,
      "嘁": 2479,
      "嘅": 2480,
      "嘈": 2481,
      "嘉": 2482,
      "嘌": 2483,
      "嘎": 2484,
      "嘏": 2485,
      "嘘": 2486,
      "嘚": 2487,
      "嘛": 2488,
      "嘞": 2489,
      "嘟": 2490,
      "嘠": 2491,
      "嘡": 2492,
      "嘣": 2493,
      "嘤": 2494,
      "嘧": 2495,
      "嘬": 2496,
      "嘭": 2497,
      "嘱": 2498,
      "嘲": 2499,
      "嘴": 2500,
      "嘶": 2501,
      "嘹": 2502,
      "嘺": 2503,
      "嘻": 2504,
      "嘼": 2505,
      "嘿": 2506,
      "噀": 2507,
      "噁": 2508,
      "噂": 2509,
      "噇": 2510,
      "噌": 2511,
      "噍": 2512,
      "噎": 2513,
      "噔": 2514,
      "噗": 2515,
      "噘": 2516,
      "噙": 2517,
      "噜": 2518,
      "噞": 2519,
      "噢": 2520,
      "噤": 2521,
      "器": 2522,
      "噩": 2523,
      "噪": 2524,
      "噫": 2525,
      "噬": 2526,
      "噱": 2527,
      "噶": 2528,
      "噻": 2529,
      "噼": 2530,
      "噾": 2531,
      "噿": 2532,
      "嚄": 2533,
      "嚅": 2534,
      "嚆": 2535,
      "嚉": 2536,
      "嚎": 2537,
      "嚏": 2538,
      "嚓": 2539,
      "嚚": 2540,
      "嚝": 2541,
      "嚣": 2542,
      "嚩": 2543,
      "嚭": 2544,
      "嚯": 2545,
      "嚷": 2546,
      "嚼": 2547,
      "囊": 2548,
      "囍": 2549,
      "囔": 2550,
      "囗": 2551,
      "囘": 2552,
      "囚": 2553,
      "四": 2554,
      "回": 2555,
      "囟": 2556,
      "因": 2557,
      "囡": 2558,
      "团": 2559,
      "囤": 2560,
      "囧": 2561,
      "囫": 2562,
      "园": 2563,
      "困": 2564,
      "囱": 2565,
      "囲": 2566,
      "図": 2567,
      "围": 2568,
      "囵": 2569,
      "囷": 2570,
      "囹": 2571,
      "固": 2572,
      "囻": 2573,
      "国": 2574,
      "图": 2575,
      "囿": 2576,
      "圃": 2577,
      "圄": 2578,
      "圆": 2579,
      "圈": 2580,
      "圉": 2581,
      "圊": 2582,
      "國": 2583,
      "圌": 2584,
      "圍": 2585,
      "圐": 2586,
      "圖": 2587,
      "圗": 2588,
      "團": 2589,
      "圙": 2590,
      "圜": 2591,
      "圝": 2592,
      "土": 2593,
      "圢": 2594,
      "圣": 2595,
      "在": 2596,
      "圩": 2597,
      "圪": 2598,
      "圫": 2599,
      "圬": 2600,
      "圭": 2601,
      "圮": 2602,
      "圯": 2603,
      "地": 2604,
      "圲": 2605,
      "圳": 2606,
      "圹": 2607,
      "场": 2608,
      "圻": 2609,
      "圾": 2610,
      "址": 2611,
      "坂": 2612,
      "坃": 2613,
      "坆": 2614,
      "均": 2615,
      "坉": 2616,
      "坊": 2617,
      "坋": 2618,
      "坌": 2619,
      "坍": 2620,
      "坎": 2621,
      "坏": 2622,
      "坐": 2623,
      "坑": 2624,
      "坒": 2625,
      "块": 2626,
      "坚": 2627,
      "坛": 2628,
      "坜": 2629,
      "坝": 2630,
      "坞": 2631,
      "坟": 2632,
      "坠": 2633,
      "坡": 2634,
      "坤": 2635,
      "坥": 2636,
      "坦": 2637,
      "坨": 2638,
      "坩": 2639,
      "坪": 2640,
      "坫": 2641,
      "坬": 2642,
      "坭": 2643,
      "坯": 2644,
      "坰": 2645,
      "坳": 2646,
      "坷": 2647,
      "坻": 2648,
      "坼": 2649,
      "坽": 2650,
      "垂": 2651,
      "垃": 2652,
      "垄": 2653,
      "垅": 2654,
      "垆": 2655,
      "垈": 2656,
      "型": 2657,
      "垌": 2658,
      "垍": 2659,
      "垎": 2660,
      "垏": 2661,
      "垒": 2662,
      "垓": 2663,
      "垕": 2664,
      "垙": 2665,
      "垚": 2666,
      "垛": 2667,
      "垞": 2668,
      "垟": 2669,
      "垠": 2670,
      "垡": 2671,
      "垢": 2672,
      "垣": 2673,
      "垤": 2674,
      "垦": 2675,
      "垧": 2676,
      "垩": 2677,
      "垫": 2678,
      "垭": 2679,
      "垮": 2680,
      "垯": 2681,
      "垱": 2682,
      "垲": 2683,
      "垳": 2684,
      "垴": 2685,
      "垵": 2686,
      "垸": 2687,
      "垹": 2688,
      "垺": 2689,
      "垾": 2690,
      "垿": 2691,
      "埂": 2692,
      "埃": 2693,
      "埆": 2694,
      "埇": 2695,
      "埋": 2696,
      "埌": 2697,
      "城": 2698,
      "埏": 2699,
      "埒": 2700,
      "埔": 2701,
      "埕": 2702,
      "埗": 2703,
      "埘": 2704,
      "埙": 2705,
      "埚": 2706,
      "埝": 2707,
      "域": 2708,
      "埠": 2709,
      "埤": 2710,
      "埪": 2711,
      "埫": 2712,
      "埭": 2713,
      "埯": 2714,
      "埴": 2715,
      "埵": 2716,
      "埸": 2717,
      "培": 2718,
      "基": 2719,
      "埼": 2720,
      "埽": 2721,
      "堂": 2722,
      "堃": 2723,
      "堆": 2724,
      "堇": 2725,
      "堈": 2726,
      "堉": 2727,
      "堋": 2728,
      "堌": 2729,
      "堍": 2730,
      "堎": 2731,
      "堏": 2732,
      "堐": 2733,
      "堑": 2734,
      "堕": 2735,
      "堙": 2736,
      "堚": 2737,
      "堞": 2738,
      "堟": 2739,
      "堠": 2740,
      "堡": 2741,
      "堤": 2742,
      "堧": 2743,
      "堨": 2744,
      "堪": 2745,
      "堬": 2746,
      "堰": 2747,
      "報": 2748,
      "堲": 2749,
      "場": 2750,
      "堵": 2751,
      "堼": 2752,
      "堽": 2753,
      "堾": 2754,
      "塂": 2755,
      "塄": 2756,
      "塅": 2757,
      "塆": 2758,
      "塌": 2759,
      "塍": 2760,
      "塑": 2761,
      "塔": 2762,
      "塘": 2763,
      "塝": 2764,
      "塞": 2765,
      "塥": 2766,
      "填": 2767,
      "塬": 2768,
      "塱": 2769,
      "塲": 2770,
      "塾": 2771,
      "墀": 2772,
      "墁": 2773,
      "境": 2774,
      "墅": 2775,
      "墈": 2776,
      "墉": 2777,
      "墐": 2778,
      "墒": 2779,
      "墓": 2780,
      "墕": 2781,
      "墘": 2782,
      "墙": 2783,
      "墚": 2784,
      "增": 2785,
      "墟": 2786,
      "墡": 2787,
      "墣": 2788,
      "墦": 2789,
      "墨": 2790,
      "墩": 2791,
      "墳": 2792,
      "墷": 2793,
      "墼": 2794,
      "壁": 2795,
      "壅": 2796,
      "壑": 2797,
      "壕": 2798,
      "壛": 2799,
      "壣": 2800,
      "壤": 2801,
      "士": 2802,
      "壬": 2803,
      "壭": 2804,
      "壮": 2805,
      "声": 2806,
      "売": 2807,
      "壳": 2808,
      "壴": 2809,
      "壶": 2810,
      "壸": 2811,
      "壹": 2812,
      "处": 2813,
      "备": 2814,
      "変": 2815,
      "复": 2816,
      "夏": 2817,
      "夐": 2818,
      "夔": 2819,
      "夕": 2820,
      "外": 2821,
      "夙": 2822,
      "多": 2823,
      "夜": 2824,
      "够": 2825,
      "夠": 2826,
      "夤": 2827,
      "夥": 2828,
      "大": 2829,
      "天": 2830,
      "太": 2831,
      "夫": 2832,
      "夬": 2833,
      "夭": 2834,
      "央": 2835,
      "夯": 2836,
      "失": 2837,
      "头": 2838,
      "夷": 2839,
      "夸": 2840,
      "夹": 2841,
      "夺": 2842,
      "夻": 2843,
      "夼": 2844,
      "奁": 2845,
      "奂": 2846,
      "奄": 2847,
      "奇": 2848,
      "奈": 2849,
      "奉": 2850,
      "奋": 2851,
      "奎": 2852,
      "奏": 2853,
      "契": 2854,
      "奓": 2855,
      "奔": 2856,
      "奕": 2857,
      "奖": 2858,
      "套": 2859,
      "奘": 2860,
      "奚": 2861,
      "奛": 2862,
      "奠": 2863,
      "奡": 2864,
      "奢": 2865,
      "奥": 2866,
      "奫": 2867,
      "奭": 2868,
      "女": 2869,
      "奴": 2870,
      "奶": 2871,
      "奸": 2872,
      "她": 2873,
      "好": 2874,
      "妁": 2875,
      "如": 2876,
      "妃": 2877,
      "妄": 2878,
      "妆": 2879,
      "妇": 2880,
      "妈": 2881,
      "妊": 2882,
      "妍": 2883,
      "妒": 2884,
      "妓": 2885,
      "妖": 2886,
      "妗": 2887,
      "妘": 2888,
      "妙": 2889,
      "妞": 2890,
      "妣": 2891,
      "妤": 2892,
      "妥": 2893,
      "妧": 2894,
      "妨": 2895,
      "妩": 2896,
      "妪": 2897,
      "妫": 2898,
      "妭": 2899,
      "妮": 2900,
      "妯": 2901,
      "妱": 2902,
      "妲": 2903,
      "妹": 2904,
      "妻": 2905,
      "妾": 2906,
      "妿": 2907,
      "姆": 2908,
      "姈": 2909,
      "姊": 2910,
      "始": 2911,
      "姐": 2912,
      "姑": 2913,
      "姒": 2914,
      "姓": 2915,
      "委": 2916,
      "姖": 2917,
      "姗": 2918,
      "姘": 2919,
      "姚": 2920,
      "姜": 2921,
      "姝": 2922,
      "姞": 2923,
      "姡": 2924,
      "姣": 2925,
      "姤": 2926,
      "姥": 2927,
      "姨": 2928,
      "姬": 2929,
      "姮": 2930,
      "姱": 2931,
      "姳": 2932,
      "姶": 2933,
      "姹": 2934,
      "姻": 2935,
      "姽": 2936,
      "姿": 2937,
      "娀": 2938,
      "威": 2939,
      "娂": 2940,
      "娃": 2941,
      "娄": 2942,
      "娅": 2943,
      "娆": 2944,
      "娇": 2945,
      "娈": 2946,
      "娉": 2947,
      "娌": 2948,
      "娐": 2949,
      "娑": 2950,
      "娓": 2951,
      "娖": 2952,
      "娘": 2953,
      "娜": 2954,
      "娝": 2955,
      "娟": 2956,
      "娠": 2957,
      "娣": 2958,
      "娥": 2959,
      "娩": 2960,
      "娱": 2961,
      "娲": 2962,
      "娴": 2963,
      "娵": 2964,
      "娶": 2965,
      "娷": 2966,
      "娺": 2967,
      "娼": 2968,
      "娾": 2969,
      "婀": 2970,
      "婆": 2971,
      "婉": 2972,
      "婊": 2973,
      "婌": 2974,
      "婍": 2975,
      "婕": 2976,
      "婘": 2977,
      "婚": 2978,
      "婞": 2979,
      "婟": 2980,
      "婠": 2981,
      "婢": 2982,
      "婤": 2983,
      "婧": 2984,
      "婪": 2985,
      "婫": 2986,
      "婳": 2987,
      "婴": 2988,
      "婵": 2989,
      "婶": 2990,
      "婷": 2991,
      "婺": 2992,
      "婻": 2993,
      "婼": 2994,
      "婿": 2995,
      "媂": 2996,
      "媄": 2997,
      "媆": 2998,
      "媒": 2999,
      "媓": 3000,
      "媕": 3001,
      "媖": 3002,
      "媚": 3003,
      "媛": 3004,
      "媞": 3005,
      "媪": 3006,
      "媭": 3007,
      "媱": 3008,
      "媲": 3009,
      "媳": 3010,
      "媵": 3011,
      "媸": 3012,
      "媻": 3013,
      "媾": 3014,
      "嫁": 3015,
      "嫂": 3016,
      "嫄": 3017,
      "嫇": 3018,
      "嫉": 3019,
      "嫋": 3020,
      "嫌": 3021,
      "嫒": 3022,
      "嫔": 3023,
      "嫕": 3024,
      "嫖": 3025,
      "嫘": 3026,
      "嫚": 3027,
      "嫜": 3028,
      "嫠": 3029,
      "嫡": 3030,
      "嫣": 3031,
      "嫦": 3032,
      "嫩": 3033,
      "嫪": 3034,
      "嫫": 3035,
      "嫭": 3036,
      "嫱": 3037,
      "嫸": 3038,
      "嫺": 3039,
      "嫽": 3040,
      "嬉": 3041,
      "嬒": 3042,
      "嬕": 3043,
      "嬖": 3044,
      "嬗": 3045,
      "嬛": 3046,
      "嬟": 3047,
      "嬥": 3048,
      "嬦": 3049,
      "嬬": 3050,
      "嬯": 3051,
      "嬴": 3052,
      "嬷": 3053,
      "嬿": 3054,
      "孀": 3055,
      "孅": 3056,
      "孊": 3057,
      "孎": 3058,
      "子": 3059,
      "孑": 3060,
      "孓": 3061,
      "孔": 3062,
      "孕": 3063,
      "孖": 3064,
      "字": 3065,
      "存": 3066,
      "孙": 3067,
      "孚": 3068,
      "孛": 3069,
      "孜": 3070,
      "孝": 3071,
      "孟": 3072,
      "孢": 3073,
      "季": 3074,
      "孤": 3075,
      "孥": 3076,
      "学": 3077,
      "孩": 3078,
      "孪": 3079,
      "孬": 3080,
      "孭": 3081,
      "孰": 3082,
      "孱": 3083,
      "孳": 3084,
      "孵": 3085,
      "學": 3086,
      "孺": 3087,
      "孽": 3088,
      "宁": 3089,
      "它": 3090,
      "宄": 3091,
      "宅": 3092,
      "宇": 3093,
      "守": 3094,
      "安": 3095,
      "宋": 3096,
      "完": 3097,
      "宏": 3098,
      "宓": 3099,
      "宕": 3100,
      "宗": 3101,
      "官": 3102,
      "宙": 3103,
      "定": 3104,
      "宛": 3105,
      "宜": 3106,
      "宝": 3107,
      "实": 3108,
      "実": 3109,
      "宠": 3110,
      "审": 3111,
      "客": 3112,
      "宣": 3113,
      "室": 3114,
      "宥": 3115,
      "宦": 3116,
      "宧": 3117,
      "宩": 3118,
      "宪": 3119,
      "宫": 3120,
      "宬": 3121,
      "宮": 3122,
      "宰": 3123,
      "害": 3124,
      "宴": 3125,
      "宵": 3126,
      "家": 3127,
      "宸": 3128,
      "容": 3129,
      "宺": 3130,
      "宽": 3131,
      "宾": 3132,
      "宿": 3133,
      "寁": 3134,
      "寂": 3135,
      "寄": 3136,
      "寅": 3137,
      "密": 3138,
      "寇": 3139,
      "富": 3140,
      "寐": 3141,
      "寒": 3142,
      "寓": 3143,
      "寝": 3144,
      "寞": 3145,
      "察": 3146,
      "寠": 3147,
      "寡": 3148,
      "寤": 3149,
      "寥": 3150,
      "寨": 3151,
      "寮": 3152,
      "寰": 3153,
      "寴": 3154,
      "寸": 3155,
      "对": 3156,
      "寺": 3157,
      "寻": 3158,
      "导": 3159,
      "対": 3160,
      "寿": 3161,
      "封": 3162,
      "射": 3163,
      "尅": 3164,
      "将": 3165,
      "將": 3166,
      "尉": 3167,
      "尊": 3168,
      "小": 3169,
      "少": 3170,
      "尓": 3171,
      "尔": 3172,
      "尕": 3173,
      "尖": 3174,
      "尘": 3175,
      "尚": 3176,
      "尜": 3177,
      "尝": 3178,
      "尡": 3179,
      "尢": 3180,
      "尤": 3181,
      "尥": 3182,
      "尧": 3183,
      "尨": 3184,
      "尪": 3185,
      "尬": 3186,
      "就": 3187,
      "尴": 3188,
      "尶": 3189,
      "尸": 3190,
      "尹": 3191,
      "尺": 3192,
      "尻": 3193,
      "尼": 3194,
      "尽": 3195,
      "尾": 3196,
      "尿": 3197,
      "局": 3198,
      "屁": 3199,
      "层": 3200,
      "屃": 3201,
      "居": 3202,
      "屈": 3203,
      "屉": 3204,
      "届": 3205,
      "屋": 3206,
      "屌": 3207,
      "屎": 3208,
      "屏": 3209,
      "屐": 3210,
      "屑": 3211,
      "展": 3212,
      "屙": 3213,
      "屚": 3214,
      "属": 3215,
      "屠": 3216,
      "屡": 3217,
      "屣": 3218,
      "履": 3219,
      "屦": 3220,
      "屧": 3221,
      "屯": 3222,
      "山": 3223,
      "屳": 3224,
      "屷": 3225,
      "屹": 3226,
      "屺": 3227,
      "屼": 3228,
      "屾": 3229,
      "屿": 3230,
      "岁": 3231,
      "岂": 3232,
      "岄": 3233,
      "岈": 3234,
      "岊": 3235,
      "岌": 3236,
      "岍": 3237,
      "岐": 3238,
      "岑": 3239,
      "岔": 3240,
      "岖": 3241,
      "岗": 3242,
      "岘": 3243,
      "岙": 3244,
      "岚": 3245,
      "岛": 3246,
      "岜": 3247,
      "岞": 3248,
      "岠": 3249,
      "岢": 3250,
      "岣": 3251,
      "岨": 3252,
      "岩": 3253,
      "岫": 3254,
      "岬": 3255,
      "岭": 3256,
      "岰": 3257,
      "岱": 3258,
      "岳": 3259,
      "岵": 3260,
      "岷": 3261,
      "岸": 3262,
      "岽": 3263,
      "岿": 3264,
      "峁": 3265,
      "峂": 3266,
      "峃": 3267,
      "峄": 3268,
      "峋": 3269,
      "峌": 3270,
      "峒": 3271,
      "峗": 3272,
      "峘": 3273,
      "峙": 3274,
      "峛": 3275,
      "峡": 3276,
      "峣": 3277,
      "峤": 3278,
      "峥": 3279,
      "峦": 3280,
      "峧": 3281,
      "峨": 3282,
      "峪": 3283,
      "峭": 3284,
      "峯": 3285,
      "峰": 3286,
      "峱": 3287,
      "峵": 3288,
      "島": 3289,
      "峻": 3290,
      "峼": 3291,
      "峿": 3292,
      "崀": 3293,
      "崁": 3294,
      "崂": 3295,
      "崃": 3296,
      "崄": 3297,
      "崆": 3298,
      "崇": 3299,
      "崌": 3300,
      "崎": 3301,
      "崑": 3302,
      "崒": 3303,
      "崔": 3304,
      "崖": 3305,
      "崚": 3306,
      "崛": 3307,
      "崞": 3308,
      "崟": 3309,
      "崡": 3310,
      "崤": 3311,
      "崦": 3312,
      "崧": 3313,
      "崩": 3314,
      "崪": 3315,
      "崭": 3316,
      "崮": 3317,
      "崴": 3318,
      "崶": 3319,
      "崽": 3320,
      "崾": 3321,
      "崿": 3322,
      "嵁": 3323,
      "嵅": 3324,
      "嵇": 3325,
      "嵈": 3326,
      "嵊": 3327,
      "嵋": 3328,
      "嵌": 3329,
      "嵍": 3330,
      "嵎": 3331,
      "嵔": 3332,
      "嵖": 3333,
      "嵘": 3334,
      "嵚": 3335,
      "嵛": 3336,
      "嵝": 3337,
      "嵩": 3338,
      "嵫": 3339,
      "嵬": 3340,
      "嵯": 3341,
      "嵲": 3342,
      "嵳": 3343,
      "嵴": 3344,
      "嵸": 3345,
      "嶂": 3346,
      "嶅": 3347,
      "嶌": 3348,
      "嶍": 3349,
      "嶒": 3350,
      "嶓": 3351,
      "嶙": 3352,
      "嶚": 3353,
      "嶝": 3354,
      "嶞": 3355,
      "嶟": 3356,
      "嶦": 3357,
      "嶯": 3358,
      "嶲": 3359,
      "嶳": 3360,
      "嶷": 3361,
      "巅": 3362,
      "巇": 3363,
      "巉": 3364,
      "巌": 3365,
      "巍": 3366,
      "巎": 3367,
      "川": 3368,
      "州": 3369,
      "巠": 3370,
      "巡": 3371,
      "巢": 3372,
      "巣": 3373,
      "工": 3374,
      "左": 3375,
      "巧": 3376,
      "巨": 3377,
      "巩": 3378,
      "巫": 3379,
      "差": 3380,
      "巯": 3381,
      "己": 3382,
      "已": 3383,
      "巳": 3384,
      "巴": 3385,
      "巷": 3386,
      "巻": 3387,
      "巼": 3388,
      "巽": 3389,
      "巾": 3390,
      "币": 3391,
      "市": 3392,
      "布": 3393,
      "帅": 3394,
      "帆": 3395,
      "帇": 3396,
      "师": 3397,
      "希": 3398,
      "帏": 3399,
      "帐": 3400,
      "帑": 3401,
      "帓": 3402,
      "帔": 3403,
      "帕": 3404,
      "帖": 3405,
      "帘": 3406,
      "帙": 3407,
      "帚": 3408,
      "帛": 3409,
      "帜": 3410,
      "帝": 3411,
      "帡": 3412,
      "带": 3413,
      "帧": 3414,
      "帨": 3415,
      "席": 3416,
      "帮": 3417,
      "帱": 3418,
      "帷": 3419,
      "常": 3420,
      "帻": 3421,
      "帼": 3422,
      "帽": 3423,
      "帿": 3424,
      "幂": 3425,
      "幄": 3426,
      "幅": 3427,
      "幌": 3428,
      "幎": 3429,
      "幔": 3430,
      "幕": 3431,
      "幖": 3432,
      "幚": 3433,
      "幛": 3434,
      "幞": 3435,
      "幡": 3436,
      "幢": 3437,
      "幪": 3438,
      "幱": 3439,
      "干": 3440,
      "平": 3441,
      "年": 3442,
      "并": 3443,
      "幷": 3444,
      "幸": 3445,
      "幺": 3446,
      "幻": 3447,
      "幼": 3448,
      "幽": 3449,
      "广": 3450,
      "庄": 3451,
      "庆": 3452,
      "庇": 3453,
      "庉": 3454,
      "床": 3455,
      "庋": 3456,
      "序": 3457,
      "庐": 3458,
      "庑": 3459,
      "庒": 3460,
      "库": 3461,
      "应": 3462,
      "底": 3463,
      "庖": 3464,
      "店": 3465,
      "庙": 3466,
      "庚": 3467,
      "府": 3468,
      "庝": 3469,
      "庞": 3470,
      "废": 3471,
      "庠": 3472,
      "庤": 3473,
      "庥": 3474,
      "度": 3475,
      "座": 3476,
      "庭": 3477,
      "庱": 3478,
      "庳": 3479,
      "庵": 3480,
      "庶": 3481,
      "康": 3482,
      "庸": 3483,
      "庹": 3484,
      "庼": 3485,
      "庾": 3486,
      "廆": 3487,
      "廉": 3488,
      "廊": 3489,
      "廋": 3490,
      "廑": 3491,
      "廒": 3492,
      "廓": 3493,
      "廖": 3494,
      "廙": 3495,
      "廛": 3496,
      "廜": 3497,
      "廣": 3498,
      "廥": 3499,
      "廨": 3500,
      "廪": 3501,
      "廮": 3502,
      "延": 3503,
      "廷": 3504,
      "建": 3505,
      "廿": 3506,
      "开": 3507,
      "弁": 3508,
      "异": 3509,
      "弃": 3510,
      "弄": 3511,
      "弆": 3512,
      "弇": 3513,
      "弈": 3514,
      "弉": 3515,
      "弊": 3516,
      "弋": 3517,
      "式": 3518,
      "弑": 3519,
      "弓": 3520,
      "引": 3521,
      "弗": 3522,
      "弘": 3523,
      "弛": 3524,
      "弜": 3525,
      "弟": 3526,
      "张": 3527,
      "弡": 3528,
      "弢": 3529,
      "弥": 3530,
      "弦": 3531,
      "弧": 3532,
      "弨": 3533,
      "弩": 3534,
      "弭": 3535,
      "弯": 3536,
      "弱": 3537,
      "張": 3538,
      "弶": 3539,
      "強": 3540,
      "弸": 3541,
      "弹": 3542,
      "强": 3543,
      "弼": 3544,
      "弾": 3545,
      "彀": 3546,
      "彃": 3547,
      "彍": 3548,
      "归": 3549,
      "当": 3550,
      "录": 3551,
      "彖": 3552,
      "彗": 3553,
      "彘": 3554,
      "彙": 3555,
      "彛": 3556,
      "彝": 3557,
      "彟": 3558,
      "形": 3559,
      "彤": 3560,
      "彦": 3561,
      "彧": 3562,
      "彩": 3563,
      "彪": 3564,
      "彬": 3565,
      "彭": 3566,
      "彰": 3567,
      "影": 3568,
      "彳": 3569,
      "彴": 3570,
      "彶": 3571,
      "彷": 3572,
      "役": 3573,
      "彻": 3574,
      "彼": 3575,
      "往": 3576,
      "征": 3577,
      "徂": 3578,
      "径": 3579,
      "待": 3580,
      "徇": 3581,
      "很": 3582,
      "徉": 3583,
      "徊": 3584,
      "律": 3585,
      "後": 3586,
      "徐": 3587,
      "徒": 3588,
      "徕": 3589,
      "得": 3590,
      "徘": 3591,
      "徙": 3592,
      "徛": 3593,
      "徜": 3594,
      "御": 3595,
      "徨": 3596,
      "循": 3597,
      "徭": 3598,
      "微": 3599,
      "徰": 3600,
      "徱": 3601,
      "徵": 3602,
      "德": 3603,
      "徼": 3604,
      "徽": 3605,
      "心": 3606,
      "忄": 3607,
      "必": 3608,
      "忆": 3609,
      "忉": 3610,
      "忌": 3611,
      "忍": 3612,
      "忏": 3613,
      "忐": 3614,
      "忑": 3615,
      "忒": 3616,
      "忖": 3617,
      "志": 3618,
      "忘": 3619,
      "忙": 3620,
      "応": 3621,
      "忝": 3622,
      "忞": 3623,
      "忠": 3624,
      "忡": 3625,
      "忢": 3626,
      "忣": 3627,
      "忤": 3628,
      "忥": 3629,
      "忧": 3630,
      "忪": 3631,
      "快": 3632,
      "忭": 3633,
      "忮": 3634,
      "忱": 3635,
      "忳": 3636,
      "念": 3637,
      "忸": 3638,
      "忺": 3639,
      "忻": 3640,
      "忽": 3641,
      "忾": 3642,
      "忿": 3643,
      "怀": 3644,
      "态": 3645,
      "怂": 3646,
      "怃": 3647,
      "怄": 3648,
      "怅": 3649,
      "怆": 3650,
      "怊": 3651,
      "怍": 3652,
      "怎": 3653,
      "怏": 3654,
      "怒": 3655,
      "怔": 3656,
      "怕": 3657,
      "怖": 3658,
      "怙": 3659,
      "怚": 3660,
      "怛": 3661,
      "怜": 3662,
      "思": 3663,
      "怠": 3664,
      "怡": 3665,
      "急": 3666,
      "怦": 3667,
      "性": 3668,
      "怨": 3669,
      "怩": 3670,
      "怪": 3671,
      "怫": 3672,
      "怯": 3673,
      "怵": 3674,
      "怸": 3675,
      "总": 3676,
      "怼": 3677,
      "怿": 3678,
      "恁": 3679,
      "恂": 3680,
      "恃": 3681,
      "恋": 3682,
      "恍": 3683,
      "恐": 3684,
      "恒": 3685,
      "恓": 3686,
      "恔": 3687,
      "恕": 3688,
      "恙": 3689,
      "恚": 3690,
      "恜": 3691,
      "恝": 3692,
      "恢": 3693,
      "恣": 3694,
      "恤": 3695,
      "恧": 3696,
      "恨": 3697,
      "恩": 3698,
      "恪": 3699,
      "恫": 3700,
      "恬": 3701,
      "恭": 3702,
      "息": 3703,
      "恰": 3704,
      "恳": 3705,
      "恶": 3706,
      "恷": 3707,
      "恸": 3708,
      "恹": 3709,
      "恺": 3710,
      "恻": 3711,
      "恼": 3712,
      "恽": 3713,
      "恿": 3714,
      "悃": 3715,
      "悄": 3716,
      "悆": 3717,
      "悈": 3718,
      "悉": 3719,
      "悌": 3720,
      "悍": 3721,
      "悒": 3722,
      "悔": 3723,
      "悖": 3724,
      "悚": 3725,
      "悛": 3726,
      "悝": 3727,
      "悟": 3728,
      "悠": 3729,
      "悢": 3730,
      "患": 3731,
      "悤": 3732,
      "悦": 3733,
      "您": 3734,
      "悪": 3735,
      "悫": 3736,
      "悬": 3737,
      "悭": 3738,
      "悮": 3739,
      "悯": 3740,
      "悰": 3741,
      "悱": 3742,
      "悲": 3743,
      "悳": 3744,
      "悴": 3745,
      "悸": 3746,
      "悻": 3747,
      "悼": 3748,
      "情": 3749,
      "惆": 3750,
      "惇": 3751,
      "惊": 3752,
      "惋": 3753,
      "惎": 3754,
      "惑": 3755,
      "惔": 3756,
      "惕": 3757,
      "惖": 3758,
      "惘": 3759,
      "惙": 3760,
      "惚": 3761,
      "惛": 3762,
      "惜": 3763,
      "惝": 3764,
      "惟": 3765,
      "惠": 3766,
      "惦": 3767,
      "惧": 3768,
      "惨": 3769,
      "惩": 3770,
      "惫": 3771,
      "惬": 3772,
      "惭": 3773,
      "惮": 3774,
      "惯": 3775,
      "惰": 3776,
      "想": 3777,
      "惴": 3778,
      "惶": 3779,
      "惹": 3780,
      "惺": 3781,
      "愀": 3782,
      "愁": 3783,
      "愃": 3784,
      "愆": 3785,
      "愈": 3786,
      "愉": 3787,
      "愍": 3788,
      "愎": 3789,
      "意": 3790,
      "愐": 3791,
      "愔": 3792,
      "愕": 3793,
      "愚": 3794,
      "愛": 3795,
      "愝": 3796,
      "感": 3797,
      "愠": 3798,
      "愣": 3799,
      "愤": 3800,
      "愦": 3801,
      "愧": 3802,
      "愫": 3803,
      "愭": 3804,
      "愿": 3805,
      "慆": 3806,
      "慈": 3807,
      "慊": 3808,
      "態": 3809,
      "慌": 3810,
      "慎": 3811,
      "慑": 3812,
      "慕": 3813,
      "慜": 3814,
      "慝": 3815,
      "慢": 3816,
      "慥": 3817,
      "慧": 3818,
      "慨": 3819,
      "慬": 3820,
      "慭": 3821,
      "慰": 3822,
      "慵": 3823,
      "慷": 3824,
      "慾": 3825,
      "憋": 3826,
      "憎": 3827,
      "憓": 3828,
      "憔": 3829,
      "憕": 3830,
      "憘": 3831,
      "憙": 3832,
      "憡": 3833,
      "憧": 3834,
      "憨": 3835,
      "憩": 3836,
      "憬": 3837,
      "憭": 3838,
      "憶": 3839,
      "憷": 3840,
      "憺": 3841,
      "憾": 3842,
      "憿": 3843,
      "懁": 3844,
      "懂": 3845,
      "懈": 3846,
      "應": 3847,
      "懊": 3848,
      "懋": 3849,
      "懑": 3850,
      "懒": 3851,
      "懔": 3852,
      "懗": 3853,
      "懦": 3854,
      "懵": 3855,
      "懿": 3856,
      "戆": 3857,
      "戈": 3858,
      "戉": 3859,
      "戊": 3860,
      "戋": 3861,
      "戌": 3862,
      "戍": 3863,
      "戎": 3864,
      "戏": 3865,
      "成": 3866,
      "我": 3867,
      "戒": 3868,
      "戕": 3869,
      "或": 3870,
      "戗": 3871,
      "战": 3872,
      "戚": 3873,
      "戛": 3874,
      "戟": 3875,
      "戡": 3876,
      "戢": 3877,
      "戣": 3878,
      "戤": 3879,
      "戥": 3880,
      "戦": 3881,
      "戨": 3882,
      "截": 3883,
      "戬": 3884,
      "戭": 3885,
      "戮": 3886,
      "戰": 3887,
      "戳": 3888,
      "戴": 3889,
      "户": 3890,
      "戽": 3891,
      "戾": 3892,
      "房": 3893,
      "所": 3894,
      "扁": 3895,
      "扂": 3896,
      "扃": 3897,
      "扅": 3898,
      "扆": 3899,
      "扇": 3900,
      "扈": 3901,
      "扉": 3902,
      "扊": 3903,
      "手": 3904,
      "才": 3905,
      "扎": 3906,
      "扑": 3907,
      "扒": 3908,
      "打": 3909,
      "扔": 3910,
      "托": 3911,
      "扛": 3912,
      "扞": 3913,
      "扠": 3914,
      "扣": 3915,
      "扦": 3916,
      "执": 3917,
      "扨": 3918,
      "扩": 3919,
      "扪": 3920,
      "扫": 3921,
      "扬": 3922,
      "扭": 3923,
      "扮": 3924,
      "扯": 3925,
      "扰": 3926,
      "扱": 3927,
      "扳": 3928,
      "扶": 3929,
      "批": 3930,
      "扺": 3931,
      "扻": 3932,
      "扼": 3933,
      "扽": 3934,
      "找": 3935,
      "承": 3936,
      "技": 3937,
      "抃": 3938,
      "抄": 3939,
      "抆": 3940,
      "抉": 3941,
      "把": 3942,
      "抑": 3943,
      "抒": 3944,
      "抓": 3945,
      "抔": 3946,
      "投": 3947,
      "抖": 3948,
      "抗": 3949,
      "折": 3950,
      "抚": 3951,
      "抛": 3952,
      "抟": 3953,
      "抠": 3954,
      "抡": 3955,
      "抢": 3956,
      "护": 3957,
      "报": 3958,
      "抨": 3959,
      "抪": 3960,
      "披": 3961,
      "抬": 3962,
      "抱": 3963,
      "抳": 3964,
      "抵": 3965,
      "抹": 3966,
      "抻": 3967,
      "押": 3968,
      "抽": 3969,
      "抿": 3970,
      "拂": 3971,
      "拃": 3972,
      "拄": 3973,
      "担": 3974,
      "拆": 3975,
      "拇": 3976,
      "拈": 3977,
      "拉": 3978,
      "拊": 3979,
      "拌": 3980,
      "拍": 3981,
      "拎": 3982,
      "拏": 3983,
      "拐": 3984,
      "拒": 3985,
      "拓": 3986,
      "拔": 3987,
      "拕": 3988,
      "拖": 3989,
      "拗": 3990,
      "拘": 3991,
      "拙": 3992,
      "招": 3993,
      "拜": 3994,
      "拝": 3995,
      "拟": 3996,
      "拢": 3997,
      "拣": 3998,
      "拤": 3999,
      "拥": 4000,
      "拦": 4001,
      "拧": 4002,
      "拨": 4003,
      "择": 4004,
      "括": 4005,
      "拭": 4006,
      "拮": 4007,
      "拯": 4008,
      "拱": 4009,
      "拳": 4010,
      "拴": 4011,
      "拶": 4012,
      "拷": 4013,
      "拸": 4014,
      "拹": 4015,
      "拼": 4016,
      "拽": 4017,
      "拾": 4018,
      "拿": 4019,
      "持": 4020,
      "挂": 4021,
      "挆": 4022,
      "指": 4023,
      "挈": 4024,
      "按": 4025,
      "挌": 4026,
      "挎": 4027,
      "挑": 4028,
      "挓": 4029,
      "挖": 4030,
      "挘": 4031,
      "挙": 4032,
      "挚": 4033,
      "挛": 4034,
      "挝": 4035,
      "挞": 4036,
      "挟": 4037,
      "挠": 4038,
      "挡": 4039,
      "挣": 4040,
      "挤": 4041,
      "挥": 4042,
      "挦": 4043,
      "挨": 4044,
      "挪": 4045,
      "挫": 4046,
      "振": 4047,
      "挲": 4048,
      "挹": 4049,
      "挺": 4050,
      "挽": 4051,
      "挿": 4052,
      "捂": 4053,
      "捃": 4054,
      "捅": 4055,
      "捆": 4056,
      "捉": 4057,
      "捋": 4058,
      "捌": 4059,
      "捍": 4060,
      "捎": 4061,
      "捏": 4062,
      "捐": 4063,
      "捕": 4064,
      "捙": 4065,
      "捜": 4066,
      "捞": 4067,
      "损": 4068,
      "捡": 4069,
      "换": 4070,
      "捣": 4071,
      "捧": 4072,
      "捩": 4073,
      "捭": 4074,
      "据": 4075,
      "捯": 4076,
      "捱": 4077,
      "捳": 4078,
      "捶": 4079,
      "捷": 4080,
      "捺": 4081,
      "捻": 4082,
      "捽": 4083,
      "掀": 4084,
      "掂": 4085,
      "掇": 4086,
      "授": 4087,
      "掉": 4088,
      "掊": 4089,
      "掋": 4090,
      "掌": 4091,
      "掎": 4092,
      "掏": 4093,
      "掐": 4094,
      "排": 4095,
      "掔": 4096,
      "掖": 4097,
      "掘": 4098,
      "掛": 4099,
      "掞": 4100,
      "掟": 4101,
      "掠": 4102,
      "探": 4103,
      "掣": 4104,
      "接": 4105,
      "控": 4106,
      "推": 4107,
      "掩": 4108,
      "措": 4109,
      "掬": 4110,
      "掭": 4111,
      "掮": 4112,
      "掰": 4113,
      "掳": 4114,
      "掴": 4115,
      "掷": 4116,
      "掸": 4117,
      "掺": 4118,
      "掻": 4119,
      "掼": 4120,
      "掾": 4121,
      "揄": 4122,
      "揆": 4123,
      "揇": 4124,
      "揉": 4125,
      "揋": 4126,
      "揍": 4127,
      "描": 4128,
      "提": 4129,
      "插": 4130,
      "揕": 4131,
      "揖": 4132,
      "揞": 4133,
      "揠": 4134,
      "握": 4135,
      "揣": 4136,
      "揩": 4137,
      "揪": 4138,
      "揭": 4139,
      "揳": 4140,
      "援": 4141,
      "揶": 4142,
      "揸": 4143,
      "揺": 4144,
      "揽": 4145,
      "揾": 4146,
      "揿": 4147,
      "搀": 4148,
      "搁": 4149,
      "搂": 4150,
      "搃": 4151,
      "搅": 4152,
      "搉": 4153,
      "搋": 4154,
      "搌": 4155,
      "搏": 4156,
      "搐": 4157,
      "搒": 4158,
      "搓": 4159,
      "搔": 4160,
      "搛": 4161,
      "搜": 4162,
      "搞": 4163,
      "搠": 4164,
      "搡": 4165,
      "搢": 4166,
      "搣": 4167,
      "搦": 4168,
      "搪": 4169,
      "搬": 4170,
      "搭": 4171,
      "搴": 4172,
      "携": 4173,
      "搽": 4174,
      "摀": 4175,
      "摁": 4176,
      "摄": 4177,
      "摅": 4178,
      "摆": 4179,
      "摇": 4180,
      "摈": 4181,
      "摊": 4182,
      "摏": 4183,
      "摒": 4184,
      "摔": 4185,
      "摘": 4186,
      "摛": 4187,
      "摞": 4188,
      "摧": 4189,
      "摩": 4190,
      "摭": 4191,
      "摴": 4192,
      "摸": 4193,
      "摹": 4194,
      "摽": 4195,
      "撂": 4196,
      "撃": 4197,
      "撄": 4198,
      "撅": 4199,
      "撇": 4200,
      "撑": 4201,
      "撒": 4202,
      "撕": 4203,
      "撖": 4204,
      "撘": 4205,
      "撙": 4206,
      "撝": 4207,
      "撞": 4208,
      "撠": 4209,
      "撤": 4210,
      "撩": 4211,
      "撬": 4212,
      "播": 4213,
      "撮": 4214,
      "撰": 4215,
      "撵": 4216,
      "撷": 4217,
      "撸": 4218,
      "撺": 4219,
      "撼": 4220,
      "撾": 4221,
      "擀": 4222,
      "擂": 4223,
      "擅": 4224,
      "操": 4225,
      "擎": 4226,
      "擐": 4227,
      "擒": 4228,
      "擔": 4229,
      "擘": 4230,
      "擝": 4231,
      "擞": 4232,
      "擡": 4233,
      "擢": 4234,
      "擤": 4235,
      "擦": 4236,
      "擧": 4237,
      "擿": 4238,
      "攀": 4239,
      "攉": 4240,
      "攎": 4241,
      "攒": 4242,
      "攘": 4243,
      "攞": 4244,
      "攡": 4245,
      "攥": 4246,
      "攦": 4247,
      "攫": 4248,
      "攮": 4249,
      "支": 4250,
      "攱": 4251,
      "收": 4252,
      "攸": 4253,
      "改": 4254,
      "攻": 4255,
      "攽": 4256,
      "放": 4257,
      "政": 4258,
      "敁": 4259,
      "故": 4260,
      "敆": 4261,
      "效": 4262,
      "敉": 4263,
      "敌": 4264,
      "敍": 4265,
      "敏": 4266,
      "救": 4267,
      "敔": 4268,
      "敕": 4269,
      "敖": 4270,
      "教": 4271,
      "敛": 4272,
      "敝": 4273,
      "敞": 4274,
      "敢": 4275,
      "散": 4276,
      "敦": 4277,
      "敧": 4278,
      "敩": 4279,
      "敪": 4280,
      "敫": 4281,
      "敬": 4282,
      "数": 4283,
      "敲": 4284,
      "整": 4285,
      "敷": 4286,
      "敺": 4287,
      "敻": 4288,
      "文": 4289,
      "斋": 4290,
      "斌": 4291,
      "斐": 4292,
      "斑": 4293,
      "斓": 4294,
      "斗": 4295,
      "料": 4296,
      "斛": 4297,
      "斜": 4298,
      "斝": 4299,
      "斟": 4300,
      "斠": 4301,
      "斡": 4302,
      "斤": 4303,
      "斥": 4304,
      "斧": 4305,
      "斨": 4306,
      "斩": 4307,
      "斫": 4308,
      "断": 4309,
      "斯": 4310,
      "新": 4311,
      "斲": 4312,
      "斶": 4313,
      "方": 4314,
      "於": 4315,
      "施": 4316,
      "旁": 4317,
      "旃": 4318,
      "旄": 4319,
      "旅": 4320,
      "旆": 4321,
      "旋": 4322,
      "旌": 4323,
      "旎": 4324,
      "族": 4325,
      "旐": 4326,
      "旒": 4327,
      "旖": 4328,
      "旗": 4329,
      "旞": 4330,
      "无": 4331,
      "既": 4332,
      "日": 4333,
      "旦": 4334,
      "旧": 4335,
      "旨": 4336,
      "早": 4337,
      "旬": 4338,
      "旭": 4339,
      "旮": 4340,
      "旯": 4341,
      "旰": 4342,
      "旱": 4343,
      "旳": 4344,
      "旴": 4345,
      "旵": 4346,
      "时": 4347,
      "旷": 4348,
      "旸": 4349,
      "旺": 4350,
      "旻": 4351,
      "旿": 4352,
      "昀": 4353,
      "昂": 4354,
      "昃": 4355,
      "昄": 4356,
      "昆": 4357,
      "昇": 4358,
      "昈": 4359,
      "昉": 4360,
      "昊": 4361,
      "昌": 4362,
      "明": 4363,
      "昏": 4364,
      "昒": 4365,
      "易": 4366,
      "昔": 4367,
      "昕": 4368,
      "昙": 4369,
      "昝": 4370,
      "星": 4371,
      "映": 4372,
      "昡": 4373,
      "昣": 4374,
      "昤": 4375,
      "春": 4376,
      "昧": 4377,
      "昨": 4378,
      "昪": 4379,
      "昫": 4380,
      "昭": 4381,
      "昮": 4382,
      "是": 4383,
      "昱": 4384,
      "昳": 4385,
      "昴": 4386,
      "昵": 4387,
      "昶": 4388,
      "昺": 4389,
      "昼": 4390,
      "昽": 4391,
      "显": 4392,
      "晁": 4393,
      "時": 4394,
      "晃": 4395,
      "晅": 4396,
      "晉": 4397,
      "晊": 4398,
      "晋": 4399,
      "晌": 4400,
      "晏": 4401,
      "晐": 4402,
      "晒": 4403,
      "晓": 4404,
      "晔": 4405,
      "晕": 4406,
      "晖": 4407,
      "晗": 4408,
      "晙": 4409,
      "晚": 4410,
      "晜": 4411,
      "晞": 4412,
      "晟": 4413,
      "晡": 4414,
      "晢": 4415,
      "晤": 4416,
      "晦": 4417,
      "晨": 4418,
      "晩": 4419,
      "晪": 4420,
      "晫": 4421,
      "普": 4422,
      "景": 4423,
      "晰": 4424,
      "晱": 4425,
      "晴": 4426,
      "晶": 4427,
      "晷": 4428,
      "智": 4429,
      "晾": 4430,
      "暀": 4431,
      "暁": 4432,
      "暂": 4433,
      "暄": 4434,
      "暅": 4435,
      "暇": 4436,
      "暌": 4437,
      "暑": 4438,
      "暕": 4439,
      "暖": 4440,
      "暗": 4441,
      "暝": 4442,
      "暡": 4443,
      "暧": 4444,
      "暨": 4445,
      "暮": 4446,
      "暲": 4447,
      "暴": 4448,
      "暵": 4449,
      "暶": 4450,
      "暹": 4451,
      "暾": 4452,
      "暿": 4453,
      "曈": 4454,
      "曌": 4455,
      "曕": 4456,
      "曙": 4457,
      "曛": 4458,
      "曜": 4459,
      "曝": 4460,
      "曦": 4461,
      "曩": 4462,
      "曰": 4463,
      "曲": 4464,
      "曳": 4465,
      "更": 4466,
      "曷": 4467,
      "書": 4468,
      "曹": 4469,
      "曼": 4470,
      "曾": 4471,
      "替": 4472,
      "最": 4473,
      "會": 4474,
      "月": 4475,
      "有": 4476,
      "朋": 4477,
      "服": 4478,
      "朏": 4479,
      "朐": 4480,
      "朓": 4481,
      "朔": 4482,
      "朕": 4483,
      "朗": 4484,
      "望": 4485,
      "朝": 4486,
      "期": 4487,
      "朦": 4488,
      "木": 4489,
      "朩": 4490,
      "未": 4491,
      "末": 4492,
      "本": 4493,
      "札": 4494,
      "术": 4495,
      "朱": 4496,
      "朳": 4497,
      "朴": 4498,
      "朵": 4499,
      "朸": 4500,
      "机": 4501,
      "朽": 4502,
      "杀": 4503,
      "杂": 4504,
      "权": 4505,
      "杄": 4506,
      "杆": 4507,
      "杈": 4508,
      "杉": 4509,
      "杌": 4510,
      "李": 4511,
      "杏": 4512,
      "材": 4513,
      "村": 4514,
      "杓": 4515,
      "杕": 4516,
      "杖": 4517,
      "杙": 4518,
      "杜": 4519,
      "杞": 4520,
      "束": 4521,
      "杠": 4522,
      "条": 4523,
      "杤": 4524,
      "来": 4525,
      "杧": 4526,
      "杨": 4527,
      "杩": 4528,
      "杪": 4529,
      "杭": 4530,
      "杯": 4531,
      "杰": 4532,
      "東": 4533,
      "杲": 4534,
      "杳": 4535,
      "杵": 4536,
      "杷": 4537,
      "杻": 4538,
      "杼": 4539,
      "松": 4540,
      "板": 4541,
      "极": 4542,
      "构": 4543,
      "枅": 4544,
      "枇": 4545,
      "枉": 4546,
      "枋": 4547,
      "枍": 4548,
      "析": 4549,
      "枕": 4550,
      "林": 4551,
      "枘": 4552,
      "枙": 4553,
      "枚": 4554,
      "果": 4555,
      "枝": 4556,
      "枞": 4557,
      "枢": 4558,
      "枣": 4559,
      "枥": 4560,
      "枧": 4561,
      "枨": 4562,
      "枪": 4563,
      "枫": 4564,
      "枭": 4565,
      "枯": 4566,
      "枰": 4567,
      "枲": 4568,
      "枳": 4569,
      "枵": 4570,
      "架": 4571,
      "枷": 4572,
      "枸": 4573,
      "枹": 4574,
      "柁": 4575,
      "柃": 4576,
      "柄": 4577,
      "柈": 4578,
      "柊": 4579,
      "柋": 4580,
      "柏": 4581,
      "某": 4582,
      "柑": 4583,
      "柒": 4584,
      "染": 4585,
      "柔": 4586,
      "柖": 4587,
      "柘": 4588,
      "柙": 4589,
      "柚": 4590,
      "柜": 4591,
      "柝": 4592,
      "柞": 4593,
      "柠": 4594,
      "柢": 4595,
      "查": 4596,
      "柩": 4597,
      "柬": 4598,
      "柯": 4599,
      "柰": 4600,
      "柱": 4601,
      "柳": 4602,
      "柴": 4603,
      "柷": 4604,
      "査": 4605,
      "柽": 4606,
      "柿": 4607,
      "栀": 4608,
      "栅": 4609,
      "标": 4610,
      "栈": 4611,
      "栉": 4612,
      "栊": 4613,
      "栋": 4614,
      "栌": 4615,
      "栍": 4616,
      "栎": 4617,
      "栏": 4618,
      "栐": 4619,
      "树": 4620,
      "栒": 4621,
      "栓": 4622,
      "栖": 4623,
      "栗": 4624,
      "栘": 4625,
      "栝": 4626,
      "栟": 4627,
      "校": 4628,
      "栩": 4629,
      "株": 4630,
      "栰": 4631,
      "栲": 4632,
      "栳": 4633,
      "栴": 4634,
      "样": 4635,
      "核": 4636,
      "根": 4637,
      "栻": 4638,
      "格": 4639,
      "栽": 4640,
      "栾": 4641,
      "桀": 4642,
      "桁": 4643,
      "桂": 4644,
      "桃": 4645,
      "桄": 4646,
      "桅": 4647,
      "框": 4648,
      "案": 4649,
      "桉": 4650,
      "桊": 4651,
      "桌": 4652,
      "桎": 4653,
      "桐": 4654,
      "桑": 4655,
      "桓": 4656,
      "桔": 4657,
      "桕": 4658,
      "桠": 4659,
      "桡": 4660,
      "桢": 4661,
      "档": 4662,
      "桤": 4663,
      "桥": 4664,
      "桦": 4665,
      "桧": 4666,
      "桨": 4667,
      "桩": 4668,
      "桫": 4669,
      "桯": 4670,
      "桲": 4671,
      "桴": 4672,
      "桶": 4673,
      "桷": 4674,
      "桹": 4675,
      "梁": 4676,
      "梃": 4677,
      "梅": 4678,
      "梆": 4679,
      "梌": 4680,
      "梏": 4681,
      "梓": 4682,
      "梗": 4683,
      "梠": 4684,
      "梢": 4685,
      "梣": 4686,
      "梦": 4687,
      "梧": 4688,
      "梨": 4689,
      "梭": 4690,
      "梯": 4691,
      "械": 4692,
      "梳": 4693,
      "梴": 4694,
      "梵": 4695,
      "梹": 4696,
      "梼": 4697,
      "梽": 4698,
      "梾": 4699,
      "梿": 4700,
      "检": 4701,
      "棁": 4702,
      "棂": 4703,
      "棉": 4704,
      "棋": 4705,
      "棍": 4706,
      "棐": 4707,
      "棒": 4708,
      "棓": 4709,
      "棕": 4710,
      "棘": 4711,
      "棚": 4712,
      "棟": 4713,
      "棠": 4714,
      "棣": 4715,
      "棤": 4716,
      "棦": 4717,
      "棨": 4718,
      "棪": 4719,
      "棫": 4720,
      "棬": 4721,
      "森": 4722,
      "棰": 4723,
      "棱": 4724,
      "棵": 4725,
      "棹": 4726,
      "棺": 4727,
      "棻": 4728,
      "棼": 4729,
      "棽": 4730,
      "椀": 4731,
      "椁": 4732,
      "椄": 4733,
      "椅": 4734,
      "椆": 4735,
      "椈": 4736,
      "椋": 4737,
      "植": 4738,
      "椎": 4739,
      "椐": 4740,
      "椑": 4741,
      "椒": 4742,
      "椓": 4743,
      "椔": 4744,
      "検": 4745,
      "椟": 4746,
      "椠": 4747,
      "椢": 4748,
      "椤": 4749,
      "椪": 4750,
      "椭": 4751,
      "椰": 4752,
      "椴": 4753,
      "椸": 4754,
      "椹": 4755,
      "椽": 4756,
      "椿": 4757,
      "楂": 4758,
      "楄": 4759,
      "楋": 4760,
      "楒": 4761,
      "楔": 4762,
      "楗": 4763,
      "楙": 4764,
      "楚": 4765,
      "楛": 4766,
      "楝": 4767,
      "楞": 4768,
      "楠": 4769,
      "楣": 4770,
      "楦": 4771,
      "楩": 4772,
      "楪": 4773,
      "楫": 4774,
      "楬": 4775,
      "楮": 4776,
      "楯": 4777,
      "楳": 4778,
      "楴": 4779,
      "楷": 4780,
      "楸": 4781,
      "楹": 4782,
      "楼": 4783,
      "楽": 4784,
      "榀": 4785,
      "概": 4786,
      "榃": 4787,
      "榄": 4788,
      "榅": 4789,
      "榆": 4790,
      "榇": 4791,
      "榈": 4792,
      "榉": 4793,
      "榍": 4794,
      "榑": 4795,
      "榔": 4796,
      "榕": 4797,
      "榖": 4798,
      "榘": 4799,
      "榛": 4800,
      "榜": 4801,
      "榝": 4802,
      "榧": 4803,
      "榨": 4804,
      "榫": 4805,
      "榭": 4806,
      "榰": 4807,
      "榱": 4808,
      "榲": 4809,
      "榳": 4810,
      "榴": 4811,
      "榷": 4812,
      "榻": 4813,
      "槁": 4814,
      "槃": 4815,
      "槊": 4816,
      "構": 4817,
      "槌": 4818,
      "槎": 4819,
      "槏": 4820,
      "槐": 4821,
      "槔": 4822,
      "槗": 4823,
      "様": 4824,
      "槚": 4825,
      "槛": 4826,
      "槜": 4827,
      "槟": 4828,
      "槠": 4829,
      "槢": 4830,
      "槭": 4831,
      "槱": 4832,
      "槲": 4833,
      "槷": 4834,
      "槺": 4835,
      "槽": 4836,
      "槿": 4837,
      "樃": 4838,
      "樊": 4839,
      "樋": 4840,
      "樗": 4841,
      "樘": 4842,
      "樟": 4843,
      "模": 4844,
      "樧": 4845,
      "樨": 4846,
      "横": 4847,
      "樮": 4848,
      "樯": 4849,
      "樰": 4850,
      "樱": 4851,
      "樲": 4852,
      "樵": 4853,
      "樷": 4854,
      "樹": 4855,
      "樽": 4856,
      "樾": 4857,
      "橄": 4858,
      "橇": 4859,
      "橐": 4860,
      "橑": 4861,
      "橒": 4862,
      "橘": 4863,
      "橙": 4864,
      "橛": 4865,
      "橞": 4866,
      "機": 4867,
      "橡": 4868,
      "橥": 4869,
      "橦": 4870,
      "橱": 4871,
      "橹": 4872,
      "橼": 4873,
      "檀": 4874,
      "檄": 4875,
      "檍": 4876,
      "檎": 4877,
      "檐": 4878,
      "檑": 4879,
      "檗": 4880,
      "檞": 4881,
      "檠": 4882,
      "檩": 4883,
      "檫": 4884,
      "檬": 4885,
      "櫆": 4886,
      "櫊": 4887,
      "櫑": 4888,
      "櫽": 4889,
      "欂": 4890,
      "欎": 4891,
      "欚": 4892,
      "欠": 4893,
      "次": 4894,
      "欢": 4895,
      "欣": 4896,
      "欤": 4897,
      "欧": 4898,
      "欭": 4899,
      "欲": 4900,
      "欸": 4901,
      "欹": 4902,
      "欺": 4903,
      "欻": 4904,
      "款": 4905,
      "歃": 4906,
      "歅": 4907,
      "歆": 4908,
      "歇": 4909,
      "歉": 4910,
      "歌": 4911,
      "歍": 4912,
      "歓": 4913,
      "歙": 4914,
      "止": 4915,
      "正": 4916,
      "此": 4917,
      "步": 4918,
      "武": 4919,
      "歧": 4920,
      "歨": 4921,
      "歪": 4922,
      "歫": 4923,
      "歯": 4924,
      "歲": 4925,
      "歳": 4926,
      "歹": 4927,
      "死": 4928,
      "歼": 4929,
      "殁": 4930,
      "殂": 4931,
      "殃": 4932,
      "殄": 4933,
      "殆": 4934,
      "殇": 4935,
      "殉": 4936,
      "殊": 4937,
      "残": 4938,
      "殍": 4939,
      "殒": 4940,
      "殓": 4941,
      "殖": 4942,
      "殗": 4943,
      "殚": 4944,
      "殛": 4945,
      "殡": 4946,
      "殣": 4947,
      "殪": 4948,
      "殳": 4949,
      "殴": 4950,
      "段": 4951,
      "殷": 4952,
      "殿": 4953,
      "毁": 4954,
      "毂": 4955,
      "毅": 4956,
      "毋": 4957,
      "毌": 4958,
      "母": 4959,
      "毎": 4960,
      "每": 4961,
      "毐": 4962,
      "毒": 4963,
      "毓": 4964,
      "比": 4965,
      "毕": 4966,
      "毖": 4967,
      "毗": 4968,
      "毙": 4969,
      "毛": 4970,
      "毡": 4971,
      "毪": 4972,
      "毫": 4973,
      "毯": 4974,
      "毰": 4975,
      "毳": 4976,
      "毵": 4977,
      "毹": 4978,
      "毽": 4979,
      "氁": 4980,
      "氅": 4981,
      "氆": 4982,
      "氇": 4983,
      "氋": 4984,
      "氍": 4985,
      "氏": 4986,
      "氐": 4987,
      "民": 4988,
      "氓": 4989,
      "气": 4990,
      "氕": 4991,
      "氖": 4992,
      "気": 4993,
      "氘": 4994,
      "氙": 4995,
      "氚": 4996,
      "氛": 4997,
      "氟": 4998,
      "氠": 4999,
      "氡": 5000,
      "氢": 5001,
      "氤": 5002,
      "氦": 5003,
      "氧": 5004,
      "氨": 5005,
      "氩": 5006,
      "氪": 5007,
      "氮": 5008,
      "氯": 5009,
      "氰": 5010,
      "氲": 5011,
      "水": 5012,
      "永": 5013,
      "氹": 5014,
      "氾": 5015,
      "氿": 5016,
      "汀": 5017,
      "汁": 5018,
      "求": 5019,
      "汆": 5020,
      "汇": 5021,
      "汈": 5022,
      "汉": 5023,
      "汊": 5024,
      "汋": 5025,
      "汐": 5026,
      "汑": 5027,
      "汔": 5028,
      "汕": 5029,
      "汗": 5030,
      "汛": 5031,
      "汜": 5032,
      "汝": 5033,
      "汞": 5034,
      "江": 5035,
      "池": 5036,
      "污": 5037,
      "汤": 5038,
      "汧": 5039,
      "汨": 5040,
      "汩": 5041,
      "汪": 5042,
      "汫": 5043,
      "汭": 5044,
      "汰": 5045,
      "汲": 5046,
      "汴": 5047,
      "汶": 5048,
      "汸": 5049,
      "汹": 5050,
      "決": 5051,
      "汻": 5052,
      "汽": 5053,
      "汾": 5054,
      "沁": 5055,
      "沂": 5056,
      "沃": 5057,
      "沄": 5058,
      "沅": 5059,
      "沆": 5060,
      "沇": 5061,
      "沈": 5062,
      "沉": 5063,
      "沌": 5064,
      "沏": 5065,
      "沐": 5066,
      "沓": 5067,
      "沔": 5068,
      "沘": 5069,
      "沙": 5070,
      "沚": 5071,
      "沛": 5072,
      "沟": 5073,
      "没": 5074,
      "沣": 5075,
      "沤": 5076,
      "沥": 5077,
      "沦": 5078,
      "沧": 5079,
      "沨": 5080,
      "沩": 5081,
      "沪": 5082,
      "沫": 5083,
      "沭": 5084,
      "沮": 5085,
      "沱": 5086,
      "河": 5087,
      "沸": 5088,
      "油": 5089,
      "沺": 5090,
      "治": 5091,
      "沼": 5092,
      "沽": 5093,
      "沾": 5094,
      "沿": 5095,
      "況": 5096,
      "泂": 5097,
      "泃": 5098,
      "泄": 5099,
      "泅": 5100,
      "泇": 5101,
      "泉": 5102,
      "泊": 5103,
      "泌": 5104,
      "泐": 5105,
      "泓": 5106,
      "泔": 5107,
      "法": 5108,
      "泖": 5109,
      "泗": 5110,
      "泙": 5111,
      "泚": 5112,
      "泛": 5113,
      "泜": 5114,
      "泞": 5115,
      "泠": 5116,
      "泡": 5117,
      "波": 5118,
      "泣": 5119,
      "泥": 5120,
      "注": 5121,
      "泪": 5122,
      "泫": 5123,
      "泮": 5124,
      "泯": 5125,
      "泰": 5126,
      "泱": 5127,
      "泳": 5128,
      "泵": 5129,
      "泷": 5130,
      "泸": 5131,
      "泺": 5132,
      "泻": 5133,
      "泼": 5134,
      "泽": 5135,
      "泾": 5136,
      "洁": 5137,
      "洄": 5138,
      "洇": 5139,
      "洈": 5140,
      "洋": 5141,
      "洌": 5142,
      "洎": 5143,
      "洑": 5144,
      "洒": 5145,
      "洓": 5146,
      "洗": 5147,
      "洘": 5148,
      "洙": 5149,
      "洚": 5150,
      "洛": 5151,
      "洞": 5152,
      "洢": 5153,
      "洣": 5154,
      "津": 5155,
      "洧": 5156,
      "洨": 5157,
      "洪": 5158,
      "洫": 5159,
      "洭": 5160,
      "洮": 5161,
      "洰": 5162,
      "洱": 5163,
      "洲": 5164,
      "洳": 5165,
      "洴": 5166,
      "洵": 5167,
      "洸": 5168,
      "洹": 5169,
      "洺": 5170,
      "活": 5171,
      "洼": 5172,
      "洽": 5173,
      "派": 5174,
      "洿": 5175,
      "流": 5176,
      "浃": 5177,
      "浅": 5178,
      "浆": 5179,
      "浇": 5180,
      "浈": 5181,
      "浉": 5182,
      "浊": 5183,
      "测": 5184,
      "浍": 5185,
      "济": 5186,
      "浏": 5187,
      "浐": 5188,
      "浑": 5189,
      "浒": 5190,
      "浓": 5191,
      "浔": 5192,
      "浕": 5193,
      "浙": 5194,
      "浚": 5195,
      "浛": 5196,
      "浜": 5197,
      "浞": 5198,
      "浟": 5199,
      "浠": 5200,
      "浡": 5201,
      "浣": 5202,
      "浤": 5203,
      "浥": 5204,
      "浦": 5205,
      "浨": 5206,
      "浩": 5207,
      "浪": 5208,
      "浫": 5209,
      "浬": 5210,
      "浭": 5211,
      "浮": 5212,
      "浯": 5213,
      "浰": 5214,
      "浲": 5215,
      "浴": 5216,
      "海": 5217,
      "浸": 5218,
      "浼": 5219,
      "涂": 5220,
      "涄": 5221,
      "涅": 5222,
      "消": 5223,
      "涉": 5224,
      "涌": 5225,
      "涍": 5226,
      "涎": 5227,
      "涐": 5228,
      "涑": 5229,
      "涓": 5230,
      "涔": 5231,
      "涕": 5232,
      "涖": 5233,
      "涘": 5234,
      "涛": 5235,
      "涝": 5236,
      "涞": 5237,
      "涟": 5238,
      "涠": 5239,
      "涡": 5240,
      "涢": 5241,
      "涣": 5242,
      "涤": 5243,
      "润": 5244,
      "涧": 5245,
      "涨": 5246,
      "涩": 5247,
      "涪": 5248,
      "涫": 5249,
      "涮": 5250,
      "涯": 5251,
      "液": 5252,
      "涴": 5253,
      "涵": 5254,
      "涸": 5255,
      "涿": 5256,
      "淀": 5257,
      "淄": 5258,
      "淅": 5259,
      "淆": 5260,
      "淇": 5261,
      "淋": 5262,
      "淌": 5263,
      "淏": 5264,
      "淑": 5265,
      "淖": 5266,
      "淘": 5267,
      "淙": 5268,
      "淜": 5269,
      "淝": 5270,
      "淞": 5271,
      "淟": 5272,
      "淠": 5273,
      "淡": 5274,
      "淤": 5275,
      "淦": 5276,
      "淨": 5277,
      "淫": 5278,
      "淬": 5279,
      "淮": 5280,
      "淯": 5281,
      "深": 5282,
      "淳": 5283,
      "淴": 5284,
      "混": 5285,
      "淹": 5286,
      "添": 5287,
      "淼": 5288,
      "渀": 5289,
      "清": 5290,
      "渊": 5291,
      "渌": 5292,
      "渍": 5293,
      "渎": 5294,
      "渐": 5295,
      "渑": 5296,
      "渔": 5297,
      "渗": 5298,
      "渚": 5299,
      "渜": 5300,
      "渝": 5301,
      "渟": 5302,
      "渠": 5303,
      "渡": 5304,
      "渣": 5305,
      "渤": 5306,
      "渥": 5307,
      "温": 5308,
      "渪": 5309,
      "渫": 5310,
      "測": 5311,
      "渭": 5312,
      "港": 5313,
      "渰": 5314,
      "渲": 5315,
      "渴": 5316,
      "游": 5317,
      "渺": 5318,
      "渼": 5319,
      "湃": 5320,
      "湄": 5321,
      "湉": 5322,
      "湋": 5323,
      "湍": 5324,
      "湎": 5325,
      "湑": 5326,
      "湓": 5327,
      "湔": 5328,
      "湖": 5329,
      "湘": 5330,
      "湛": 5331,
      "湜": 5332,
      "湝": 5333,
      "湟": 5334,
      "湣": 5335,
      "湪": 5336,
      "湫": 5337,
      "湮": 5338,
      "湲": 5339,
      "湴": 5340,
      "湾": 5341,
      "湿": 5342,
      "満": 5343,
      "溁": 5344,
      "溃": 5345,
      "溅": 5346,
      "溆": 5347,
      "溇": 5348,
      "溉": 5349,
      "溍": 5350,
      "溏": 5351,
      "源": 5352,
      "溔": 5353,
      "準": 5354,
      "溘": 5355,
      "溚": 5356,
      "溜": 5357,
      "溞": 5358,
      "溟": 5359,
      "溠": 5360,
      "溢": 5361,
      "溥": 5362,
      "溦": 5363,
      "溧": 5364,
      "溪": 5365,
      "溯": 5366,
      "溱": 5367,
      "溲": 5368,
      "溴": 5369,
      "溵": 5370,
      "溶": 5371,
      "溷": 5372,
      "溸": 5373,
      "溹": 5374,
      "溺": 5375,
      "溻": 5376,
      "溽": 5377,
      "溿": 5378,
      "滁": 5379,
      "滂": 5380,
      "滃": 5381,
      "滆": 5382,
      "滇": 5383,
      "滉": 5384,
      "滋": 5385,
      "滍": 5386,
      "滏": 5387,
      "滑": 5388,
      "滓": 5389,
      "滔": 5390,
      "滕": 5391,
      "滖": 5392,
      "滗": 5393,
      "滘": 5394,
      "滚": 5395,
      "滞": 5396,
      "滟": 5397,
      "滠": 5398,
      "满": 5399,
      "滢": 5400,
      "滤": 5401,
      "滥": 5402,
      "滦": 5403,
      "滧": 5404,
      "滨": 5405,
      "滩": 5406,
      "滪": 5407,
      "滫": 5408,
      "滴": 5409,
      "滹": 5410,
      "滽": 5411,
      "漂": 5412,
      "漆": 5413,
      "漈": 5414,
      "漉": 5415,
      "漋": 5416,
      "漏": 5417,
      "漓": 5418,
      "演": 5419,
      "漕": 5420,
      "漖": 5421,
      "漜": 5422,
      "漠": 5423,
      "漢": 5424,
      "漤": 5425,
      "漦": 5426,
      "漩": 5427,
      "漪": 5428,
      "漫": 5429,
      "漭": 5430,
      "漯": 5431,
      "漱": 5432,
      "漳": 5433,
      "漴": 5434,
      "漶": 5435,
      "漷": 5436,
      "漹": 5437,
      "漻": 5438,
      "漼": 5439,
      "漾": 5440,
      "潆": 5441,
      "潇": 5442,
      "潋": 5443,
      "潌": 5444,
      "潍": 5445,
      "潏": 5446,
      "潖": 5447,
      "潘": 5448,
      "潜": 5449,
      "潞": 5450,
      "潟": 5451,
      "潢": 5452,
      "潦": 5453,
      "潧": 5454,
      "潩": 5455,
      "潭": 5456,
      "潮": 5457,
      "潲": 5458,
      "潴": 5459,
      "潵": 5460,
      "潸": 5461,
      "潺": 5462,
      "潼": 5463,
      "潽": 5464,
      "潾": 5465,
      "澁": 5466,
      "澂": 5467,
      "澄": 5468,
      "澈": 5469,
      "澉": 5470,
      "澌": 5471,
      "澍": 5472,
      "澎": 5473,
      "澛": 5474,
      "澜": 5475,
      "澡": 5476,
      "澥": 5477,
      "澧": 5478,
      "澪": 5479,
      "澭": 5480,
      "澳": 5481,
      "澴": 5482,
      "澶": 5483,
      "澹": 5484,
      "澼": 5485,
      "澽": 5486,
      "澿": 5487,
      "激": 5488,
      "濂": 5489,
      "濅": 5490,
      "濈": 5491,
      "濉": 5492,
      "濋": 5493,
      "濑": 5494,
      "濒": 5495,
      "濛": 5496,
      "濞": 5497,
      "濠": 5498,
      "濡": 5499,
      "濩": 5500,
      "濮": 5501,
      "濯": 5502,
      "濷": 5503,
      "瀀": 5504,
      "瀌": 5505,
      "瀍": 5506,
      "瀑": 5507,
      "瀓": 5508,
      "瀔": 5509,
      "瀚": 5510,
      "瀛": 5511,
      "瀣": 5512,
      "瀪": 5513,
      "瀯": 5514,
      "瀱": 5515,
      "瀵": 5516,
      "瀹": 5517,
      "瀼": 5518,
      "灁": 5519,
      "灈": 5520,
      "灌": 5521,
      "灏": 5522,
      "灖": 5523,
      "灞": 5524,
      "火": 5525,
      "灭": 5526,
      "灯": 5527,
      "灰": 5528,
      "灵": 5529,
      "灶": 5530,
      "灸": 5531,
      "灼": 5532,
      "災": 5533,
      "灾": 5534,
      "灿": 5535,
      "炀": 5536,
      "炁": 5537,
      "炅": 5538,
      "炆": 5539,
      "炉": 5540,
      "炊": 5541,
      "炌": 5542,
      "炎": 5543,
      "炒": 5544,
      "炔": 5545,
      "炕": 5546,
      "炖": 5547,
      "炘": 5548,
      "炙": 5549,
      "炜": 5550,
      "炝": 5551,
      "炟": 5552,
      "炣": 5553,
      "炫": 5554,
      "炬": 5555,
      "炭": 5556,
      "炮": 5557,
      "炯": 5558,
      "炱": 5559,
      "炳": 5560,
      "炷": 5561,
      "炸": 5562,
      "点": 5563,
      "為": 5564,
      "炻": 5565,
      "炼": 5566,
      "炽": 5567,
      "烀": 5568,
      "烁": 5569,
      "烂": 5570,
      "烃": 5571,
      "烈": 5572,
      "烊": 5573,
      "烔": 5574,
      "烕": 5575,
      "烘": 5576,
      "烙": 5577,
      "烛": 5578,
      "烜": 5579,
      "烝": 5580,
      "烟": 5581,
      "烠": 5582,
      "烤": 5583,
      "烦": 5584,
      "烧": 5585,
      "烨": 5586,
      "烩": 5587,
      "烫": 5588,
      "烬": 5589,
      "热": 5590,
      "烯": 5591,
      "烰": 5592,
      "烶": 5593,
      "烷": 5594,
      "烹": 5595,
      "烺": 5596,
      "烻": 5597,
      "烽": 5598,
      "烿": 5599,
      "焆": 5600,
      "焉": 5601,
      "焊": 5602,
      "焌": 5603,
      "焐": 5604,
      "焓": 5605,
      "焕": 5606,
      "焖": 5607,
      "焗": 5608,
      "焘": 5609,
      "焙": 5610,
      "焚": 5611,
      "焜": 5612,
      "焞": 5613,
      "無": 5614,
      "焥": 5615,
      "焦": 5616,
      "焯": 5617,
      "焰": 5618,
      "焱": 5619,
      "然": 5620,
      "焼": 5621,
      "煁": 5622,
      "煃": 5623,
      "煅": 5624,
      "煊": 5625,
      "煋": 5626,
      "煌": 5627,
      "煎": 5628,
      "煓": 5629,
      "煗": 5630,
      "煜": 5631,
      "煞": 5632,
      "煟": 5633,
      "煤": 5634,
      "煦": 5635,
      "照": 5636,
      "煨": 5637,
      "煮": 5638,
      "煲": 5639,
      "煳": 5640,
      "煴": 5641,
      "煸": 5642,
      "煺": 5643,
      "煽": 5644,
      "熄": 5645,
      "熇": 5646,
      "熊": 5647,
      "熋": 5648,
      "熏": 5649,
      "熔": 5650,
      "熘": 5651,
      "熙": 5652,
      "熛": 5653,
      "熜": 5654,
      "熟": 5655,
      "熠": 5656,
      "熥": 5657,
      "熨": 5658,
      "熬": 5659,
      "熵": 5660,
      "熹": 5661,
      "熻": 5662,
      "燂": 5663,
      "燃": 5664,
      "燅": 5665,
      "燊": 5666,
      "燋": 5667,
      "燎": 5668,
      "燏": 5669,
      "燔": 5670,
      "燕": 5671,
      "燗": 5672,
      "燚": 5673,
      "燠": 5674,
      "燥": 5675,
      "燧": 5676,
      "燫": 5677,
      "燮": 5678,
      "燹": 5679,
      "燻": 5680,
      "燽": 5681,
      "爆": 5682,
      "爇": 5683,
      "爎": 5684,
      "爑": 5685,
      "爔": 5686,
      "爚": 5687,
      "爝": 5688,
      "爟": 5689,
      "爨": 5690,
      "爪": 5691,
      "爬": 5692,
      "爰": 5693,
      "爱": 5694,
      "爵": 5695,
      "父": 5696,
      "爷": 5697,
      "爸": 5698,
      "爹": 5699,
      "爻": 5700,
      "爽": 5701,
      "爿": 5702,
      "牁": 5703,
      "牂": 5704,
      "片": 5705,
      "版": 5706,
      "牌": 5707,
      "牍": 5708,
      "牒": 5709,
      "牖": 5710,
      "牗": 5711,
      "牙": 5712,
      "牚": 5713,
      "牛": 5714,
      "牝": 5715,
      "牟": 5716,
      "牡": 5717,
      "牢": 5718,
      "牤": 5719,
      "牥": 5720,
      "牦": 5721,
      "牧": 5722,
      "物": 5723,
      "牮": 5724,
      "牯": 5725,
      "牲": 5726,
      "牵": 5727,
      "特": 5728,
      "牺": 5729,
      "牻": 5730,
      "牼": 5731,
      "牾": 5732,
      "牿": 5733,
      "犀": 5734,
      "犁": 5735,
      "犃": 5736,
      "犄": 5737,
      "犇": 5738,
      "犊": 5739,
      "犋": 5740,
      "犍": 5741,
      "犏": 5742,
      "犒": 5743,
      "犕": 5744,
      "犞": 5745,
      "犟": 5746,
      "犣": 5747,
      "犤": 5748,
      "犦": 5749,
      "犨": 5750,
      "犪": 5751,
      "犬": 5752,
      "犯": 5753,
      "犰": 5754,
      "犴": 5755,
      "状": 5756,
      "犷": 5757,
      "犸": 5758,
      "犹": 5759,
      "狀": 5760,
      "狁": 5761,
      "狂": 5762,
      "狃": 5763,
      "狄": 5764,
      "狅": 5765,
      "狈": 5766,
      "狉": 5767,
      "狍": 5768,
      "狎": 5769,
      "狐": 5770,
      "狒": 5771,
      "狗": 5772,
      "狙": 5773,
      "狝": 5774,
      "狞": 5775,
      "狠": 5776,
      "狡": 5777,
      "狣": 5778,
      "狦": 5779,
      "狨": 5780,
      "狩": 5781,
      "独": 5782,
      "狭": 5783,
      "狮": 5784,
      "狯": 5785,
      "狰": 5786,
      "狱": 5787,
      "狲": 5788,
      "狳": 5789,
      "狴": 5790,
      "狷": 5791,
      "狸": 5792,
      "狺": 5793,
      "狻": 5794,
      "狼": 5795,
      "猁": 5796,
      "猃": 5797,
      "猄": 5798,
      "猆": 5799,
      "猇": 5800,
      "猊": 5801,
      "猎": 5802,
      "猕": 5803,
      "猖": 5804,
      "猗": 5805,
      "猛": 5806,
      "猜": 5807,
      "猝": 5808,
      "猞": 5809,
      "猡": 5810,
      "猢": 5811,
      "猥": 5812,
      "猩": 5813,
      "猪": 5814,
      "猫": 5815,
      "猬": 5816,
      "献": 5817,
      "猯": 5818,
      "猰": 5819,
      "猱": 5820,
      "猴": 5821,
      "猷": 5822,
      "猹": 5823,
      "猺": 5824,
      "猾": 5825,
      "猿": 5826,
      "獇": 5827,
      "獍": 5828,
      "獐": 5829,
      "獒": 5830,
      "獗": 5831,
      "獙": 5832,
      "獠": 5833,
      "獬": 5834,
      "獭": 5835,
      "獯": 5836,
      "獴": 5837,
      "獶": 5838,
      "獾": 5839,
      "獿": 5840,
      "玃": 5841,
      "玄": 5842,
      "率": 5843,
      "玉": 5844,
      "王": 5845,
      "玎": 5846,
      "玑": 5847,
      "玒": 5848,
      "玓": 5849,
      "玕": 5850,
      "玖": 5851,
      "玗": 5852,
      "玘": 5853,
      "玙": 5854,
      "玚": 5855,
      "玛": 5856,
      "玞": 5857,
      "玟": 5858,
      "玠": 5859,
      "玡": 5860,
      "玢": 5861,
      "玤": 5862,
      "玥": 5863,
      "玦": 5864,
      "玩": 5865,
      "玫": 5866,
      "玭": 5867,
      "玮": 5868,
      "环": 5869,
      "现": 5870,
      "玱": 5871,
      "玲": 5872,
      "玳": 5873,
      "玴": 5874,
      "玶": 5875,
      "玷": 5876,
      "玹": 5877,
      "玺": 5878,
      "玻": 5879,
      "玼": 5880,
      "玿": 5881,
      "珀": 5882,
      "珂": 5883,
      "珅": 5884,
      "珇": 5885,
      "珈": 5886,
      "珉": 5887,
      "珊": 5888,
      "珋": 5889,
      "珌": 5890,
      "珍": 5891,
      "珎": 5892,
      "珏": 5893,
      "珐": 5894,
      "珑": 5895,
      "珒": 5896,
      "珕": 5897,
      "珖": 5898,
      "珙": 5899,
      "珛": 5900,
      "珝": 5901,
      "珞": 5902,
      "珠": 5903,
      "珡": 5904,
      "珢": 5905,
      "珣": 5906,
      "珥": 5907,
      "珦": 5908,
      "珧": 5909,
      "珩": 5910,
      "珪": 5911,
      "珫": 5912,
      "班": 5913,
      "珰": 5914,
      "珲": 5915,
      "珴": 5916,
      "珵": 5917,
      "珶": 5918,
      "珷": 5919,
      "珸": 5920,
      "珹": 5921,
      "珺": 5922,
      "珽": 5923,
      "現": 5924,
      "琀": 5925,
      "球": 5926,
      "琄": 5927,
      "琅": 5928,
      "理": 5929,
      "琇": 5930,
      "琈": 5931,
      "琉": 5932,
      "琊": 5933,
      "琋": 5934,
      "琍": 5935,
      "琎": 5936,
      "琏": 5937,
      "琐": 5938,
      "琑": 5939,
      "琔": 5940,
      "琕": 5941,
      "琖": 5942,
      "琚": 5943,
      "琛": 5944,
      "琟": 5945,
      "琡": 5946,
      "琢": 5947,
      "琤": 5948,
      "琥": 5949,
      "琦": 5950,
      "琨": 5951,
      "琩": 5952,
      "琪": 5953,
      "琫": 5954,
      "琬": 5955,
      "琭": 5956,
      "琮": 5957,
      "琯": 5958,
      "琰": 5959,
      "琲": 5960,
      "琳": 5961,
      "琴": 5962,
      "琵": 5963,
      "琶": 5964,
      "琼": 5965,
      "瑀": 5966,
      "瑁": 5967,
      "瑂": 5968,
      "瑃": 5969,
      "瑄": 5970,
      "瑅": 5971,
      "瑆": 5972,
      "瑊": 5973,
      "瑑": 5974,
      "瑓": 5975,
      "瑔": 5976,
      "瑕": 5977,
      "瑖": 5978,
      "瑗": 5979,
      "瑙": 5980,
      "瑚": 5981,
      "瑛": 5982,
      "瑜": 5983,
      "瑝": 5984,
      "瑞": 5985,
      "瑟": 5986,
      "瑠": 5987,
      "瑢": 5988,
      "瑧": 5989,
      "瑨": 5990,
      "瑬": 5991,
      "瑭": 5992,
      "瑰": 5993,
      "瑱": 5994,
      "瑳": 5995,
      "瑶": 5996,
      "瑷": 5997,
      "瑼": 5998,
      "瑾": 5999,
      "璀": 6000,
      "璁": 6001,
      "璃": 6002,
      "璆": 6003,
      "璇": 6004,
      "璈": 6005,
      "璊": 6006,
      "璋": 6007,
      "璎": 6008,
      "璏": 6009,
      "璐": 6010,
      "璒": 6011,
      "璘": 6012,
      "璙": 6013,
      "璜": 6014,
      "璞": 6015,
      "璟": 6016,
      "璠": 6017,
      "璥": 6018,
      "璧": 6019,
      "璨": 6020,
      "璩": 6021,
      "璪": 6022,
      "璬": 6023,
      "璮": 6024,
      "璱": 6025,
      "璲": 6026,
      "璺": 6027,
      "瓀": 6028,
      "瓆": 6029,
      "瓇": 6030,
      "瓊": 6031,
      "瓎": 6032,
      "瓑": 6033,
      "瓒": 6034,
      "瓖": 6035,
      "瓗": 6036,
      "瓘": 6037,
      "瓜": 6038,
      "瓞": 6039,
      "瓠": 6040,
      "瓢": 6041,
      "瓣": 6042,
      "瓤": 6043,
      "瓦": 6044,
      "瓮": 6045,
      "瓯": 6046,
      "瓴": 6047,
      "瓶": 6048,
      "瓷": 6049,
      "瓹": 6050,
      "瓻": 6051,
      "瓿": 6052,
      "甀": 6053,
      "甄": 6054,
      "甍": 6055,
      "甏": 6056,
      "甑": 6057,
      "甓": 6058,
      "甗": 6059,
      "甘": 6060,
      "甙": 6061,
      "甚": 6062,
      "甜": 6063,
      "生": 6064,
      "甡": 6065,
      "甥": 6066,
      "甦": 6067,
      "用": 6068,
      "甩": 6069,
      "甪": 6070,
      "甫": 6071,
      "甬": 6072,
      "甭": 6073,
      "甯": 6074,
      "田": 6075,
      "由": 6076,
      "甲": 6077,
      "申": 6078,
      "电": 6079,
      "男": 6080,
      "甸": 6081,
      "町": 6082,
      "画": 6083,
      "甾": 6084,
      "畀": 6085,
      "畅": 6086,
      "畈": 6087,
      "畋": 6088,
      "界": 6089,
      "畎": 6090,
      "畏": 6091,
      "畔": 6092,
      "畖": 6093,
      "留": 6094,
      "畚": 6095,
      "畛": 6096,
      "畜": 6097,
      "畟": 6098,
      "畤": 6099,
      "略": 6100,
      "畦": 6101,
      "番": 6102,
      "畬": 6103,
      "畯": 6104,
      "畲": 6105,
      "畴": 6106,
      "當": 6107,
      "畸": 6108,
      "畹": 6109,
      "畿": 6110,
      "疁": 6111,
      "疃": 6112,
      "疆": 6113,
      "疍": 6114,
      "疏": 6115,
      "疐": 6116,
      "疑": 6117,
      "疔": 6118,
      "疖": 6119,
      "疗": 6120,
      "疙": 6121,
      "疚": 6122,
      "疝": 6123,
      "疟": 6124,
      "疠": 6125,
      "疡": 6126,
      "疢": 6127,
      "疣": 6128,
      "疤": 6129,
      "疥": 6130,
      "疫": 6131,
      "疬": 6132,
      "疭": 6133,
      "疮": 6134,
      "疯": 6135,
      "疰": 6136,
      "疱": 6137,
      "疲": 6138,
      "疳": 6139,
      "疴": 6140,
      "疵": 6141,
      "疸": 6142,
      "疹": 6143,
      "疼": 6144,
      "疽": 6145,
      "疾": 6146,
      "痂": 6147,
      "痃": 6148,
      "痄": 6149,
      "病": 6150,
      "症": 6151,
      "痈": 6152,
      "痉": 6153,
      "痊": 6154,
      "痌": 6155,
      "痍": 6156,
      "痒": 6157,
      "痓": 6158,
      "痔": 6159,
      "痕": 6160,
      "痘": 6161,
      "痛": 6162,
      "痝": 6163,
      "痞": 6164,
      "痢": 6165,
      "痣": 6166,
      "痤": 6167,
      "痦": 6168,
      "痧": 6169,
      "痨": 6170,
      "痪": 6171,
      "痫": 6172,
      "痮": 6173,
      "痰": 6174,
      "痱": 6175,
      "痴": 6176,
      "痹": 6177,
      "痼": 6178,
      "痽": 6179,
      "痿": 6180,
      "瘀": 6181,
      "瘁": 6182,
      "瘃": 6183,
      "瘅": 6184,
      "瘆": 6185,
      "瘊": 6186,
      "瘌": 6187,
      "瘐": 6188,
      "瘕": 6189,
      "瘗": 6190,
      "瘘": 6191,
      "瘙": 6192,
      "瘛": 6193,
      "瘝": 6194,
      "瘟": 6195,
      "瘠": 6196,
      "瘢": 6197,
      "瘤": 6198,
      "瘥": 6199,
      "瘦": 6200,
      "瘩": 6201,
      "瘪": 6202,
      "瘫": 6203,
      "瘭": 6204,
      "瘰": 6205,
      "瘱": 6206,
      "瘳": 6207,
      "瘴": 6208,
      "瘵": 6209,
      "瘸": 6210,
      "瘼": 6211,
      "瘾": 6212,
      "瘿": 6213,
      "癀": 6214,
      "癃": 6215,
      "癌": 6216,
      "癍": 6217,
      "癒": 6218,
      "癔": 6219,
      "癖": 6220,
      "癗": 6221,
      "癛": 6222,
      "癜": 6223,
      "癞": 6224,
      "癣": 6225,
      "癫": 6226,
      "癯": 6227,
      "癶": 6228,
      "癸": 6229,
      "発": 6230,
      "登": 6231,
      "發": 6232,
      "白": 6233,
      "百": 6234,
      "癿": 6235,
      "皀": 6236,
      "皂": 6237,
      "的": 6238,
      "皆": 6239,
      "皇": 6240,
      "皈": 6241,
      "皋": 6242,
      "皎": 6243,
      "皑": 6244,
      "皓": 6245,
      "皕": 6246,
      "皖": 6247,
      "皙": 6248,
      "皛": 6249,
      "皞": 6250,
      "皢": 6251,
      "皤": 6252,
      "皦": 6253,
      "皭": 6254,
      "皮": 6255,
      "皯": 6256,
      "皱": 6257,
      "皲": 6258,
      "皴": 6259,
      "皿": 6260,
      "盂": 6261,
      "盅": 6262,
      "盆": 6263,
      "盈": 6264,
      "盉": 6265,
      "益": 6266,
      "盋": 6267,
      "盍": 6268,
      "盎": 6269,
      "盏": 6270,
      "盐": 6271,
      "监": 6272,
      "盒": 6273,
      "盔": 6274,
      "盖": 6275,
      "盗": 6276,
      "盘": 6277,
      "盛": 6278,
      "盟": 6279,
      "盢": 6280,
      "盥": 6281,
      "盦": 6282,
      "目": 6283,
      "盯": 6284,
      "盱": 6285,
      "盲": 6286,
      "直": 6287,
      "盵": 6288,
      "盷": 6289,
      "相": 6290,
      "盹": 6291,
      "盼": 6292,
      "盾": 6293,
      "省": 6294,
      "眂": 6295,
      "眄": 6296,
      "眇": 6297,
      "眈": 6298,
      "眉": 6299,
      "眊": 6300,
      "看": 6301,
      "県": 6302,
      "眍": 6303,
      "眖": 6304,
      "眙": 6305,
      "眚": 6306,
      "眜": 6307,
      "眝": 6308,
      "真": 6309,
      "眠": 6310,
      "眡": 6311,
      "眢": 6312,
      "眦": 6313,
      "眨": 6314,
      "眩": 6315,
      "眬": 6316,
      "眭": 6317,
      "眯": 6318,
      "眵": 6319,
      "眶": 6320,
      "眷": 6321,
      "眸": 6322,
      "眺": 6323,
      "眼": 6324,
      "着": 6325,
      "睁": 6326,
      "睃": 6327,
      "睄": 6328,
      "睇": 6329,
      "睎": 6330,
      "睐": 6331,
      "睑": 6332,
      "睚": 6333,
      "睛": 6334,
      "睝": 6335,
      "睡": 6336,
      "睢": 6337,
      "督": 6338,
      "睥": 6339,
      "睦": 6340,
      "睨": 6341,
      "睫": 6342,
      "睬": 6343,
      "睷": 6344,
      "睹": 6345,
      "睺": 6346,
      "睽": 6347,
      "睾": 6348,
      "睿": 6349,
      "瞀": 6350,
      "瞄": 6351,
      "瞅": 6352,
      "瞉": 6353,
      "瞋": 6354,
      "瞌": 6355,
      "瞍": 6356,
      "瞎": 6357,
      "瞑": 6358,
      "瞒": 6359,
      "瞝": 6360,
      "瞟": 6361,
      "瞠": 6362,
      "瞢": 6363,
      "瞥": 6364,
      "瞧": 6365,
      "瞩": 6366,
      "瞪": 6367,
      "瞫": 6368,
      "瞬": 6369,
      "瞭": 6370,
      "瞰": 6371,
      "瞳": 6372,
      "瞵": 6373,
      "瞻": 6374,
      "瞽": 6375,
      "瞿": 6376,
      "矁": 6377,
      "矍": 6378,
      "矑": 6379,
      "矒": 6380,
      "矗": 6381,
      "矛": 6382,
      "矜": 6383,
      "矞": 6384,
      "矢": 6385,
      "矣": 6386,
      "知": 6387,
      "矧": 6388,
      "矩": 6389,
      "矫": 6390,
      "矬": 6391,
      "短": 6392,
      "矮": 6393,
      "矰": 6394,
      "石": 6395,
      "矶": 6396,
      "矸": 6397,
      "矻": 6398,
      "矼": 6399,
      "矽": 6400,
      "矾": 6401,
      "矿": 6402,
      "砀": 6403,
      "码": 6404,
      "砂": 6405,
      "砄": 6406,
      "砆": 6407,
      "砉": 6408,
      "砌": 6409,
      "砍": 6410,
      "砐": 6411,
      "砑": 6412,
      "砒": 6413,
      "研": 6414,
      "砖": 6415,
      "砗": 6416,
      "砘": 6417,
      "砙": 6418,
      "砚": 6419,
      "砜": 6420,
      "砝": 6421,
      "砟": 6422,
      "砠": 6423,
      "砣": 6424,
      "砥": 6425,
      "砧": 6426,
      "砫": 6427,
      "砬": 6428,
      "砭": 6429,
      "砮": 6430,
      "砰": 6431,
      "砲": 6432,
      "破": 6433,
      "砵": 6434,
      "砷": 6435,
      "砸": 6436,
      "砹": 6437,
      "砺": 6438,
      "砻": 6439,
      "砼": 6440,
      "砾": 6441,
      "础": 6442,
      "硁": 6443,
      "硅": 6444,
      "硇": 6445,
      "硊": 6446,
      "硌": 6447,
      "硍": 6448,
      "硎": 6449,
      "硏": 6450,
      "硐": 6451,
      "硒": 6452,
      "硔": 6453,
      "硕": 6454,
      "硖": 6455,
      "硗": 6456,
      "硙": 6457,
      "硚": 6458,
      "硝": 6459,
      "硪": 6460,
      "硫": 6461,
      "硬": 6462,
      "硭": 6463,
      "确": 6464,
      "硴": 6465,
      "硵": 6466,
      "硼": 6467,
      "硿": 6468,
      "碁": 6469,
      "碂": 6470,
      "碃": 6471,
      "碇": 6472,
      "碈": 6473,
      "碉": 6474,
      "碊": 6475,
      "碌": 6476,
      "碍": 6477,
      "碎": 6478,
      "碏": 6479,
      "碑": 6480,
      "碓": 6481,
      "碔": 6482,
      "碗": 6483,
      "碘": 6484,
      "碚": 6485,
      "碛": 6486,
      "碜": 6487,
      "碟": 6488,
      "碡": 6489,
      "碣": 6490,
      "碥": 6491,
      "碦": 6492,
      "碧": 6493,
      "碨": 6494,
      "碰": 6495,
      "碱": 6496,
      "碲": 6497,
      "碳": 6498,
      "碴": 6499,
      "碶": 6500,
      "碹": 6501,
      "確": 6502,
      "碾": 6503,
      "磁": 6504,
      "磅": 6505,
      "磉": 6506,
      "磊": 6507,
      "磋": 6508,
      "磏": 6509,
      "磐": 6510,
      "磔": 6511,
      "磕": 6512,
      "磙": 6513,
      "磜": 6514,
      "磡": 6515,
      "磨": 6516,
      "磩": 6517,
      "磪": 6518,
      "磬": 6519,
      "磰": 6520,
      "磲": 6521,
      "磴": 6522,
      "磷": 6523,
      "磹": 6524,
      "磺": 6525,
      "磻": 6526,
      "礀": 6527,
      "礁": 6528,
      "礅": 6529,
      "礉": 6530,
      "礌": 6531,
      "礓": 6532,
      "礞": 6533,
      "礤": 6534,
      "礴": 6535,
      "礵": 6536,
      "示": 6537,
      "礼": 6538,
      "社": 6539,
      "祀": 6540,
      "祁": 6541,
      "祃": 6542,
      "祆": 6543,
      "祇": 6544,
      "祈": 6545,
      "祉": 6546,
      "祊": 6547,
      "祋": 6548,
      "祌": 6549,
      "祎": 6550,
      "祏": 6551,
      "祐": 6552,
      "祓": 6553,
      "祕": 6554,
      "祖": 6555,
      "祗": 6556,
      "祚": 6557,
      "祛": 6558,
      "祜": 6559,
      "祝": 6560,
      "神": 6561,
      "祟": 6562,
      "祠": 6563,
      "祡": 6564,
      "祢": 6565,
      "祥": 6566,
      "祧": 6567,
      "票": 6568,
      "祭": 6569,
      "祮": 6570,
      "祯": 6571,
      "祲": 6572,
      "祷": 6573,
      "祸": 6574,
      "祺": 6575,
      "祼": 6576,
      "祽": 6577,
      "祾": 6578,
      "禀": 6579,
      "禁": 6580,
      "禄": 6581,
      "禅": 6582,
      "禊": 6583,
      "禋": 6584,
      "福": 6585,
      "禒": 6586,
      "禔": 6587,
      "禘": 6588,
      "禚": 6589,
      "禛": 6590,
      "禤": 6591,
      "禥": 6592,
      "禧": 6593,
      "禫": 6594,
      "禳": 6595,
      "禹": 6596,
      "禺": 6597,
      "离": 6598,
      "禽": 6599,
      "禾": 6600,
      "秀": 6601,
      "私": 6602,
      "秃": 6603,
      "秆": 6604,
      "秉": 6605,
      "秋": 6606,
      "种": 6607,
      "科": 6608,
      "秒": 6609,
      "秕": 6610,
      "秘": 6611,
      "租": 6612,
      "秣": 6613,
      "秤": 6614,
      "秦": 6615,
      "秧": 6616,
      "秩": 6617,
      "秪": 6618,
      "秫": 6619,
      "秬": 6620,
      "秭": 6621,
      "积": 6622,
      "称": 6623,
      "秶": 6624,
      "秸": 6625,
      "移": 6626,
      "秽": 6627,
      "秾": 6628,
      "稀": 6629,
      "稂": 6630,
      "稃": 6631,
      "稆": 6632,
      "程": 6633,
      "稌": 6634,
      "稍": 6635,
      "税": 6636,
      "稑": 6637,
      "稓": 6638,
      "稔": 6639,
      "稗": 6640,
      "稙": 6641,
      "稚": 6642,
      "稝": 6643,
      "稞": 6644,
      "稠": 6645,
      "稡": 6646,
      "稢": 6647,
      "稣": 6648,
      "稦": 6649,
      "稩": 6650,
      "稭": 6651,
      "稳": 6652,
      "稵": 6653,
      "稷": 6654,
      "稹": 6655,
      "稻": 6656,
      "稼": 6657,
      "稽": 6658,
      "稿": 6659,
      "穄": 6660,
      "穆": 6661,
      "積": 6662,
      "穑": 6663,
      "穗": 6664,
      "穙": 6665,
      "穛": 6666,
      "穜": 6667,
      "穟": 6668,
      "穧": 6669,
      "穩": 6670,
      "穮": 6671,
      "穰": 6672,
      "穴": 6673,
      "究": 6674,
      "穷": 6675,
      "穸": 6676,
      "穹": 6677,
      "空": 6678,
      "穿": 6679,
      "窀": 6680,
      "突": 6681,
      "窃": 6682,
      "窄": 6683,
      "窅": 6684,
      "窈": 6685,
      "窊": 6686,
      "窍": 6687,
      "窎": 6688,
      "窑": 6689,
      "窒": 6690,
      "窕": 6691,
      "窖": 6692,
      "窗": 6693,
      "窘": 6694,
      "窜": 6695,
      "窝": 6696,
      "窞": 6697,
      "窟": 6698,
      "窠": 6699,
      "窢": 6700,
      "窣": 6701,
      "窥": 6702,
      "窦": 6703,
      "窨": 6704,
      "窬": 6705,
      "窭": 6706,
      "窳": 6707,
      "窸": 6708,
      "窿": 6709,
      "立": 6710,
      "竑": 6711,
      "竖": 6712,
      "竘": 6713,
      "站": 6714,
      "竝": 6715,
      "竞": 6716,
      "竟": 6717,
      "章": 6718,
      "竣": 6719,
      "童": 6720,
      "竦": 6721,
      "竫": 6722,
      "竭": 6723,
      "端": 6724,
      "竹": 6725,
      "竺": 6726,
      "竽": 6727,
      "竿": 6728,
      "笃": 6729,
      "笄": 6730,
      "笆": 6731,
      "笈": 6732,
      "笊": 6733,
      "笋": 6734,
      "笏": 6735,
      "笑": 6736,
      "笔": 6737,
      "笕": 6738,
      "笙": 6739,
      "笛": 6740,
      "笞": 6741,
      "笠": 6742,
      "笤": 6743,
      "笥": 6744,
      "符": 6745,
      "笨": 6746,
      "笪": 6747,
      "笫": 6748,
      "第": 6749,
      "笮": 6750,
      "笯": 6751,
      "笱": 6752,
      "笳": 6753,
      "笸": 6754,
      "笺": 6755,
      "笼": 6756,
      "笾": 6757,
      "筀": 6758,
      "筅": 6759,
      "筇": 6760,
      "等": 6761,
      "筋": 6762,
      "筌": 6763,
      "筏": 6764,
      "筐": 6765,
      "筑": 6766,
      "筒": 6767,
      "答": 6768,
      "策": 6769,
      "筘": 6770,
      "筚": 6771,
      "筛": 6772,
      "筜": 6773,
      "筝": 6774,
      "筞": 6775,
      "筠": 6776,
      "筢": 6777,
      "筤": 6778,
      "筥": 6779,
      "筦": 6780,
      "筩": 6781,
      "筮": 6782,
      "筱": 6783,
      "筲": 6784,
      "筵": 6785,
      "筶": 6786,
      "筷": 6787,
      "筹": 6788,
      "筻": 6789,
      "筼": 6790,
      "签": 6791,
      "简": 6792,
      "箅": 6793,
      "箉": 6794,
      "箍": 6795,
      "箐": 6796,
      "箓": 6797,
      "箔": 6798,
      "箕": 6799,
      "箖": 6800,
      "算": 6801,
      "箜": 6802,
      "箠": 6803,
      "管": 6804,
      "箢": 6805,
      "箦": 6806,
      "箧": 6807,
      "箨": 6808,
      "箩": 6809,
      "箪": 6810,
      "箫": 6811,
      "箬": 6812,
      "箭": 6813,
      "箱": 6814,
      "箴": 6815,
      "箵": 6816,
      "箸": 6817,
      "箺": 6818,
      "篁": 6819,
      "範": 6820,
      "篆": 6821,
      "篇": 6822,
      "篌": 6823,
      "篑": 6824,
      "篓": 6825,
      "篙": 6826,
      "篚": 6827,
      "篝": 6828,
      "篡": 6829,
      "篥": 6830,
      "篦": 6831,
      "篪": 6832,
      "篮": 6833,
      "篯": 6834,
      "篱": 6835,
      "篷": 6836,
      "篼": 6837,
      "篾": 6838,
      "簃": 6839,
      "簇": 6840,
      "簉": 6841,
      "簋": 6842,
      "簌": 6843,
      "簏": 6844,
      "簕": 6845,
      "簖": 6846,
      "簚": 6847,
      "簝": 6848,
      "簟": 6849,
      "簠": 6850,
      "簥": 6851,
      "簧": 6852,
      "簪": 6853,
      "簭": 6854,
      "簰": 6855,
      "簵": 6856,
      "簸": 6857,
      "簿": 6858,
      "籀": 6859,
      "籁": 6860,
      "籍": 6861,
      "籓": 6862,
      "籥": 6863,
      "籯": 6864,
      "米": 6865,
      "籴": 6866,
      "类": 6867,
      "籼": 6868,
      "籽": 6869,
      "粅": 6870,
      "粉": 6871,
      "粊": 6872,
      "粑": 6873,
      "粒": 6874,
      "粓": 6875,
      "粕": 6876,
      "粗": 6877,
      "粘": 6878,
      "粜": 6879,
      "粝": 6880,
      "粞": 6881,
      "粟": 6882,
      "粢": 6883,
      "粤": 6884,
      "粥": 6885,
      "粪": 6886,
      "粮": 6887,
      "粱": 6888,
      "粲": 6889,
      "粳": 6890,
      "粴": 6891,
      "粵": 6892,
      "粹": 6893,
      "粼": 6894,
      "粽": 6895,
      "精": 6896,
      "粿": 6897,
      "糁": 6898,
      "糅": 6899,
      "糇": 6900,
      "糈": 6901,
      "糊": 6902,
      "糌": 6903,
      "糍": 6904,
      "糎": 6905,
      "糒": 6906,
      "糕": 6907,
      "糖": 6908,
      "糗": 6909,
      "糘": 6910,
      "糙": 6911,
      "糛": 6912,
      "糜": 6913,
      "糟": 6914,
      "糠": 6915,
      "糨": 6916,
      "糯": 6917,
      "糱": 6918,
      "糵": 6919,
      "系": 6920,
      "紁": 6921,
      "紊": 6922,
      "純": 6923,
      "紙": 6924,
      "級": 6925,
      "素": 6926,
      "索": 6927,
      "紣": 6928,
      "紧": 6929,
      "紫": 6930,
      "累": 6931,
      "絁": 6932,
      "終": 6933,
      "組": 6934,
      "絆": 6935,
      "経": 6936,
      "結": 6937,
      "絘": 6938,
      "絜": 6939,
      "給": 6940,
      "絮": 6941,
      "絵": 6942,
      "絶": 6943,
      "絷": 6944,
      "絻": 6945,
      "綄": 6946,
      "經": 6947,
      "綔": 6948,
      "続": 6949,
      "綜": 6950,
      "綦": 6951,
      "綮": 6952,
      "綿": 6953,
      "緊": 6954,
      "緌": 6955,
      "緑": 6956,
      "緒": 6957,
      "緟": 6958,
      "緤": 6959,
      "編": 6960,
      "練": 6961,
      "縃": 6962,
      "縇": 6963,
      "縓": 6964,
      "縠": 6965,
      "縡": 6966,
      "縢": 6967,
      "縻": 6968,
      "縿": 6969,
      "繁": 6970,
      "繄": 6971,
      "繇": 6972,
      "繋": 6973,
      "繌": 6974,
      "繍": 6975,
      "織": 6976,
      "繗": 6977,
      "繥": 6978,
      "繧": 6979,
      "繱": 6980,
      "繳": 6981,
      "纂": 6982,
      "纆": 6983,
      "續": 6984,
      "纙": 6985,
      "纛": 6986,
      "纠": 6987,
      "纡": 6988,
      "红": 6989,
      "纣": 6990,
      "纤": 6991,
      "纥": 6992,
      "约": 6993,
      "级": 6994,
      "纨": 6995,
      "纩": 6996,
      "纪": 6997,
      "纫": 6998,
      "纬": 6999,
      "纭": 7000,
      "纮": 7001,
      "纯": 7002,
      "纰": 7003,
      "纱": 7004,
      "纲": 7005,
      "纳": 7006,
      "纴": 7007,
      "纵": 7008,
      "纶": 7009,
      "纷": 7010,
      "纸": 7011,
      "纹": 7012,
      "纺": 7013,
      "纻": 7014,
      "纼": 7015,
      "纽": 7016,
      "纾": 7017,
      "线": 7018,
      "绀": 7019,
      "绁": 7020,
      "绂": 7021,
      "练": 7022,
      "组": 7023,
      "绅": 7024,
      "细": 7025,
      "织": 7026,
      "终": 7027,
      "绉": 7028,
      "绊": 7029,
      "绋": 7030,
      "绌": 7031,
      "绍": 7032,
      "绎": 7033,
      "经": 7034,
      "绐": 7035,
      "绑": 7036,
      "绒": 7037,
      "结": 7038,
      "绔": 7039,
      "绕": 7040,
      "绖": 7041,
      "绗": 7042,
      "绘": 7043,
      "给": 7044,
      "绚": 7045,
      "绛": 7046,
      "络": 7047,
      "绝": 7048,
      "绞": 7049,
      "统": 7050,
      "绠": 7051,
      "绡": 7052,
      "绢": 7053,
      "绣": 7054,
      "绤": 7055,
      "绥": 7056,
      "绦": 7057,
      "继": 7058,
      "绨": 7059,
      "绩": 7060,
      "绪": 7061,
      "绫": 7062,
      "续": 7063,
      "绮": 7064,
      "绯": 7065,
      "绰": 7066,
      "绱": 7067,
      "绲": 7068,
      "绳": 7069,
      "维": 7070,
      "绵": 7071,
      "绶": 7072,
      "绷": 7073,
      "绸": 7074,
      "绹": 7075,
      "绺": 7076,
      "绻": 7077,
      "综": 7078,
      "绽": 7079,
      "绾": 7080,
      "绿": 7081,
      "缀": 7082,
      "缁": 7083,
      "缂": 7084,
      "缃": 7085,
      "缄": 7086,
      "缅": 7087,
      "缆": 7088,
      "缇": 7089,
      "缈": 7090,
      "缉": 7091,
      "缊": 7092,
      "缌": 7093,
      "缎": 7094,
      "缐": 7095,
      "缑": 7096,
      "缒": 7097,
      "缓": 7098,
      "缔": 7099,
      "缕": 7100,
      "编": 7101,
      "缗": 7102,
      "缘": 7103,
      "缙": 7104,
      "缚": 7105,
      "缛": 7106,
      "缜": 7107,
      "缝": 7108,
      "缞": 7109,
      "缟": 7110,
      "缠": 7111,
      "缡": 7112,
      "缢": 7113,
      "缣": 7114,
      "缤": 7115,
      "缥": 7116,
      "缦": 7117,
      "缧": 7118,
      "缨": 7119,
      "缩": 7120,
      "缪": 7121,
      "缫": 7122,
      "缬": 7123,
      "缭": 7124,
      "缮": 7125,
      "缯": 7126,
      "缰": 7127,
      "缱": 7128,
      "缲": 7129,
      "缳": 7130,
      "缴": 7131,
      "缵": 7132,
      "缶": 7133,
      "缷": 7134,
      "缸": 7135,
      "缺": 7136,
      "缼": 7137,
      "罂": 7138,
      "罃": 7139,
      "罄": 7140,
      "罅": 7141,
      "罍": 7142,
      "罐": 7143,
      "网": 7144,
      "罔": 7145,
      "罕": 7146,
      "罗": 7147,
      "罘": 7148,
      "罚": 7149,
      "罟": 7150,
      "罡": 7151,
      "罢": 7152,
      "罤": 7153,
      "罥": 7154,
      "罨": 7155,
      "罩": 7156,
      "罪": 7157,
      "置": 7158,
      "罱": 7159,
      "署": 7160,
      "罴": 7161,
      "罶": 7162,
      "罹": 7163,
      "罻": 7164,
      "罽": 7165,
      "罾": 7166,
      "羁": 7167,
      "羊": 7168,
      "羌": 7169,
      "美": 7170,
      "羏": 7171,
      "羑": 7172,
      "羓": 7173,
      "羔": 7174,
      "羕": 7175,
      "羖": 7176,
      "羚": 7177,
      "羛": 7178,
      "羝": 7179,
      "羞": 7180,
      "羟": 7181,
      "羡": 7182,
      "群": 7183,
      "羧": 7184,
      "義": 7185,
      "羯": 7186,
      "羰": 7187,
      "羱": 7188,
      "羲": 7189,
      "羸": 7190,
      "羹": 7191,
      "羼": 7192,
      "羽": 7193,
      "羿": 7194,
      "翀": 7195,
      "翁": 7196,
      "翂": 7197,
      "翃": 7198,
      "翅": 7199,
      "翈": 7200,
      "翊": 7201,
      "翌": 7202,
      "翎": 7203,
      "翑": 7204,
      "翔": 7205,
      "翕": 7206,
      "翘": 7207,
      "翙": 7208,
      "翚": 7209,
      "翛": 7210,
      "翟": 7211,
      "翠": 7212,
      "翡": 7213,
      "翥": 7214,
      "翦": 7215,
      "翨": 7216,
      "翩": 7217,
      "翮": 7218,
      "翯": 7219,
      "翰": 7220,
      "翱": 7221,
      "翳": 7222,
      "翷": 7223,
      "翻": 7224,
      "翼": 7225,
      "翾": 7226,
      "翿": 7227,
      "耀": 7228,
      "老": 7229,
      "考": 7230,
      "耄": 7231,
      "者": 7232,
      "耆": 7233,
      "耇": 7234,
      "耊": 7235,
      "耋": 7236,
      "而": 7237,
      "耍": 7238,
      "耏": 7239,
      "耐": 7240,
      "耑": 7241,
      "耒": 7242,
      "耔": 7243,
      "耕": 7244,
      "耖": 7245,
      "耗": 7246,
      "耘": 7247,
      "耙": 7248,
      "耜": 7249,
      "耞": 7250,
      "耠": 7251,
      "耢": 7252,
      "耤": 7253,
      "耥": 7254,
      "耦": 7255,
      "耧": 7256,
      "耨": 7257,
      "耩": 7258,
      "耪": 7259,
      "耰": 7260,
      "耱": 7261,
      "耳": 7262,
      "耵": 7263,
      "耶": 7264,
      "耷": 7265,
      "耸": 7266,
      "耻": 7267,
      "耽": 7268,
      "耿": 7269,
      "聂": 7270,
      "聃": 7271,
      "聆": 7272,
      "聊": 7273,
      "聋": 7274,
      "职": 7275,
      "聍": 7276,
      "聒": 7277,
      "联": 7278,
      "聕": 7279,
      "聖": 7280,
      "聘": 7281,
      "聚": 7282,
      "聞": 7283,
      "聥": 7284,
      "聩": 7285,
      "聪": 7286,
      "聬": 7287,
      "聱": 7288,
      "聴": 7289,
      "職": 7290,
      "聸": 7291,
      "聿": 7292,
      "肃": 7293,
      "肄": 7294,
      "肆": 7295,
      "肇": 7296,
      "肉": 7297,
      "肋": 7298,
      "肌": 7299,
      "肓": 7300,
      "肖": 7301,
      "肘": 7302,
      "肚": 7303,
      "肛": 7304,
      "肝": 7305,
      "肟": 7306,
      "肠": 7307,
      "股": 7308,
      "肢": 7309,
      "肤": 7310,
      "肥": 7311,
      "肩": 7312,
      "肪": 7313,
      "肫": 7314,
      "肭": 7315,
      "肮": 7316,
      "肯": 7317,
      "肱": 7318,
      "育": 7319,
      "肴": 7320,
      "肵": 7321,
      "肷": 7322,
      "肸": 7323,
      "肺": 7324,
      "肼": 7325,
      "肽": 7326,
      "肾": 7327,
      "肿": 7328,
      "胀": 7329,
      "胁": 7330,
      "胂": 7331,
      "胃": 7332,
      "胄": 7333,
      "胅": 7334,
      "胆": 7335,
      "胈": 7336,
      "背": 7337,
      "胍": 7338,
      "胎": 7339,
      "胖": 7340,
      "胗": 7341,
      "胙": 7342,
      "胚": 7343,
      "胛": 7344,
      "胜": 7345,
      "胝": 7346,
      "胞": 7347,
      "胠": 7348,
      "胡": 7349,
      "胣": 7350,
      "胤": 7351,
      "胥": 7352,
      "胧": 7353,
      "胨": 7354,
      "胩": 7355,
      "胪": 7356,
      "胫": 7357,
      "胬": 7358,
      "胭": 7359,
      "胯": 7360,
      "胰": 7361,
      "胱": 7362,
      "胲": 7363,
      "胳": 7364,
      "胴": 7365,
      "胶": 7366,
      "胸": 7367,
      "胹": 7368,
      "胺": 7369,
      "胼": 7370,
      "能": 7371,
      "脂": 7372,
      "脆": 7373,
      "脉": 7374,
      "脊": 7375,
      "脋": 7376,
      "脍": 7377,
      "脎": 7378,
      "脏": 7379,
      "脐": 7380,
      "脑": 7381,
      "脒": 7382,
      "脓": 7383,
      "脔": 7384,
      "脖": 7385,
      "脘": 7386,
      "脚": 7387,
      "脞": 7388,
      "脟": 7389,
      "脡": 7390,
      "脩": 7391,
      "脬": 7392,
      "脯": 7393,
      "脱": 7394,
      "脲": 7395,
      "脳": 7396,
      "脶": 7397,
      "脸": 7398,
      "脾": 7399,
      "脿": 7400,
      "腁": 7401,
      "腆": 7402,
      "腈": 7403,
      "腊": 7404,
      "腋": 7405,
      "腌": 7406,
      "腐": 7407,
      "腑": 7408,
      "腒": 7409,
      "腓": 7410,
      "腔": 7411,
      "腕": 7412,
      "腘": 7413,
      "腙": 7414,
      "腚": 7415,
      "腠": 7416,
      "腥": 7417,
      "腧": 7418,
      "腨": 7419,
      "腩": 7420,
      "腭": 7421,
      "腮": 7422,
      "腯": 7423,
      "腰": 7424,
      "腱": 7425,
      "腴": 7426,
      "腹": 7427,
      "腺": 7428,
      "腻": 7429,
      "腼": 7430,
      "腽": 7431,
      "腾": 7432,
      "腿": 7433,
      "膀": 7434,
      "膂": 7435,
      "膈": 7436,
      "膊": 7437,
      "膍": 7438,
      "膏": 7439,
      "膑": 7440,
      "膘": 7441,
      "膙": 7442,
      "膛": 7443,
      "膜": 7444,
      "膝": 7445,
      "膟": 7446,
      "膦": 7447,
      "膨": 7448,
      "膳": 7449,
      "膺": 7450,
      "膻": 7451,
      "臀": 7452,
      "臂": 7453,
      "臃": 7454,
      "臆": 7455,
      "臊": 7456,
      "臌": 7457,
      "臑": 7458,
      "臓": 7459,
      "臜": 7460,
      "臣": 7461,
      "臧": 7462,
      "自": 7463,
      "臬": 7464,
      "臭": 7465,
      "臯": 7466,
      "至": 7467,
      "致": 7468,
      "臶": 7469,
      "臺": 7470,
      "臻": 7471,
      "臼": 7472,
      "臾": 7473,
      "舀": 7474,
      "舁": 7475,
      "舂": 7476,
      "舄": 7477,
      "舅": 7478,
      "舆": 7479,
      "舌": 7480,
      "舍": 7481,
      "舐": 7482,
      "舒": 7483,
      "舓": 7484,
      "舔": 7485,
      "舛": 7486,
      "舜": 7487,
      "舞": 7488,
      "舟": 7489,
      "舠": 7490,
      "舢": 7491,
      "舣": 7492,
      "舤": 7493,
      "舥": 7494,
      "舨": 7495,
      "航": 7496,
      "舫": 7497,
      "般": 7498,
      "舭": 7499,
      "舮": 7500,
      "舯": 7501,
      "舰": 7502,
      "舱": 7503,
      "舲": 7504,
      "舳": 7505,
      "舴": 7506,
      "舵": 7507,
      "舶": 7508,
      "舷": 7509,
      "舸": 7510,
      "船": 7511,
      "舻": 7512,
      "舼": 7513,
      "舽": 7514,
      "舾": 7515,
      "艄": 7516,
      "艅": 7517,
      "艇": 7518,
      "艈": 7519,
      "艉": 7520,
      "艋": 7521,
      "艎": 7522,
      "艏": 7523,
      "艑": 7524,
      "艕": 7525,
      "艘": 7526,
      "艚": 7527,
      "艟": 7528,
      "艤": 7529,
      "艥": 7530,
      "艨": 7531,
      "艮": 7532,
      "良": 7533,
      "艰": 7534,
      "色": 7535,
      "艳": 7536,
      "艴": 7537,
      "艹": 7538,
      "艺": 7539,
      "艽": 7540,
      "艾": 7541,
      "艿": 7542,
      "节": 7543,
      "芃": 7544,
      "芄": 7545,
      "芅": 7546,
      "芈": 7547,
      "芊": 7548,
      "芋": 7549,
      "芍": 7550,
      "芎": 7551,
      "芏": 7552,
      "芑": 7553,
      "芒": 7554,
      "芕": 7555,
      "芗": 7556,
      "芘": 7557,
      "芙": 7558,
      "芛": 7559,
      "芜": 7560,
      "芝": 7561,
      "芟": 7562,
      "芠": 7563,
      "芡": 7564,
      "芣": 7565,
      "芤": 7566,
      "芥": 7567,
      "芦": 7568,
      "芨": 7569,
      "芩": 7570,
      "芪": 7571,
      "芫": 7572,
      "芬": 7573,
      "芭": 7574,
      "芮": 7575,
      "芯": 7576,
      "芰": 7577,
      "花": 7578,
      "芳": 7579,
      "芴": 7580,
      "芷": 7581,
      "芸": 7582,
      "芹": 7583,
      "芼": 7584,
      "芽": 7585,
      "芾": 7586,
      "苁": 7587,
      "苃": 7588,
      "苄": 7589,
      "苆": 7590,
      "苇": 7591,
      "苈": 7592,
      "苉": 7593,
      "苊": 7594,
      "苋": 7595,
      "苌": 7596,
      "苍": 7597,
      "苎": 7598,
      "苏": 7599,
      "苐": 7600,
      "苑": 7601,
      "苒": 7602,
      "苓": 7603,
      "苔": 7604,
      "苕": 7605,
      "苗": 7606,
      "苘": 7607,
      "苛": 7608,
      "苜": 7609,
      "苞": 7610,
      "苟": 7611,
      "苠": 7612,
      "苡": 7613,
      "苣": 7614,
      "苤": 7615,
      "若": 7616,
      "苦": 7617,
      "苧": 7618,
      "苫": 7619,
      "苯": 7620,
      "英": 7621,
      "苴": 7622,
      "苷": 7623,
      "苹": 7624,
      "苻": 7625,
      "苾": 7626,
      "茀": 7627,
      "茁": 7628,
      "茂": 7629,
      "范": 7630,
      "茄": 7631,
      "茅": 7632,
      "茆": 7633,
      "茈": 7634,
      "茉": 7635,
      "茋": 7636,
      "茌": 7637,
      "茎": 7638,
      "茏": 7639,
      "茑": 7640,
      "茓": 7641,
      "茔": 7642,
      "茕": 7643,
      "茗": 7644,
      "茚": 7645,
      "茛": 7646,
      "茜": 7647,
      "茝": 7648,
      "茧": 7649,
      "茨": 7650,
      "茫": 7651,
      "茬": 7652,
      "茭": 7653,
      "茯": 7654,
      "茱": 7655,
      "茳": 7656,
      "茴": 7657,
      "茵": 7658,
      "茶": 7659,
      "茸": 7660,
      "茹": 7661,
      "茺": 7662,
      "茼": 7663,
      "茽": 7664,
      "荀": 7665,
      "荁": 7666,
      "荃": 7667,
      "荄": 7668,
      "荆": 7669,
      "荇": 7670,
      "草": 7671,
      "荍": 7672,
      "荏": 7673,
      "荐": 7674,
      "荑": 7675,
      "荒": 7676,
      "荓": 7677,
      "荔": 7678,
      "荕": 7679,
      "荖": 7680,
      "荙": 7681,
      "荚": 7682,
      "荛": 7683,
      "荜": 7684,
      "荝": 7685,
      "荞": 7686,
      "荟": 7687,
      "荠": 7688,
      "荡": 7689,
      "荣": 7690,
      "荤": 7691,
      "荥": 7692,
      "荦": 7693,
      "荧": 7694,
      "荨": 7695,
      "荩": 7696,
      "荪": 7697,
      "荫": 7698,
      "荬": 7699,
      "荭": 7700,
      "荮": 7701,
      "药": 7702,
      "荱": 7703,
      "荳": 7704,
      "荷": 7705,
      "荸": 7706,
      "荻": 7707,
      "荼": 7708,
      "荽": 7709,
      "莁": 7710,
      "莅": 7711,
      "莆": 7712,
      "莉": 7713,
      "莎": 7714,
      "莐": 7715,
      "莒": 7716,
      "莓": 7717,
      "莔": 7718,
      "莘": 7719,
      "莙": 7720,
      "莛": 7721,
      "莜": 7722,
      "莝": 7723,
      "莞": 7724,
      "莠": 7725,
      "莥": 7726,
      "莨": 7727,
      "莩": 7728,
      "莪": 7729,
      "莫": 7730,
      "莯": 7731,
      "莰": 7732,
      "莱": 7733,
      "莲": 7734,
      "莳": 7735,
      "莴": 7736,
      "莶": 7737,
      "获": 7738,
      "莸": 7739,
      "莹": 7740,
      "莺": 7741,
      "莼": 7742,
      "莽": 7743,
      "莿": 7744,
      "菀": 7745,
      "菁": 7746,
      "菂": 7747,
      "菅": 7748,
      "菇": 7749,
      "菉": 7750,
      "菊": 7751,
      "菌": 7752,
      "菍": 7753,
      "菏": 7754,
      "菔": 7755,
      "菖": 7756,
      "菘": 7757,
      "菜": 7758,
      "菝": 7759,
      "菟": 7760,
      "菠": 7761,
      "菡": 7762,
      "菥": 7763,
      "菩": 7764,
      "菪": 7765,
      "華": 7766,
      "菰": 7767,
      "菱": 7768,
      "菲": 7769,
      "菹": 7770,
      "菼": 7771,
      "菽": 7772,
      "萁": 7773,
      "萃": 7774,
      "萄": 7775,
      "萆": 7776,
      "萋": 7777,
      "萌": 7778,
      "萍": 7779,
      "萎": 7780,
      "萏": 7781,
      "萑": 7782,
      "萘": 7783,
      "萚": 7784,
      "萜": 7785,
      "萝": 7786,
      "萣": 7787,
      "萤": 7788,
      "营": 7789,
      "萦": 7790,
      "萧": 7791,
      "萨": 7792,
      "萩": 7793,
      "萭": 7794,
      "萱": 7795,
      "萳": 7796,
      "萸": 7797,
      "萹": 7798,
      "萼": 7799,
      "落": 7800,
      "葂": 7801,
      "葆": 7802,
      "葉": 7803,
      "葎": 7804,
      "葑": 7805,
      "葖": 7806,
      "著": 7807,
      "葙": 7808,
      "葚": 7809,
      "葛": 7810,
      "葜": 7811,
      "葡": 7812,
      "董": 7813,
      "葤": 7814,
      "葨": 7815,
      "葩": 7816,
      "葫": 7817,
      "葬": 7818,
      "葭": 7819,
      "葮": 7820,
      "葰": 7821,
      "葱": 7822,
      "葳": 7823,
      "葴": 7824,
      "葵": 7825,
      "葶": 7826,
      "葸": 7827,
      "葺": 7828,
      "蒂": 7829,
      "蒄": 7830,
      "蒅": 7831,
      "蒆": 7832,
      "蒇": 7833,
      "蒈": 7834,
      "蒉": 7835,
      "蒋": 7836,
      "蒌": 7837,
      "蒎": 7838,
      "蒐": 7839,
      "蒗": 7840,
      "蒙": 7841,
      "蒜": 7842,
      "蒟": 7843,
      "蒡": 7844,
      "蒨": 7845,
      "蒪": 7846,
      "蒯": 7847,
      "蒱": 7848,
      "蒲": 7849,
      "蒴": 7850,
      "蒸": 7851,
      "蒹": 7852,
      "蒺": 7853,
      "蒻": 7854,
      "蒽": 7855,
      "蒿": 7856,
      "蓁": 7857,
      "蓂": 7858,
      "蓄": 7859,
      "蓆": 7860,
      "蓇": 7861,
      "蓉": 7862,
      "蓊": 7863,
      "蓋": 7864,
      "蓍": 7865,
      "蓏": 7866,
      "蓐": 7867,
      "蓑": 7868,
      "蓓": 7869,
      "蓖": 7870,
      "蓝": 7871,
      "蓟": 7872,
      "蓠": 7873,
      "蓢": 7874,
      "蓣": 7875,
      "蓤": 7876,
      "蓥": 7877,
      "蓦": 7878,
      "蓬": 7879,
      "蓭": 7880,
      "蓰": 7881,
      "蓲": 7882,
      "蓻": 7883,
      "蓼": 7884,
      "蓿": 7885,
      "蔀": 7886,
      "蔁": 7887,
      "蔃": 7888,
      "蔈": 7889,
      "蔊": 7890,
      "蔋": 7891,
      "蔌": 7892,
      "蔑": 7893,
      "蔓": 7894,
      "蔗": 7895,
      "蔚": 7896,
      "蔟": 7897,
      "蔡": 7898,
      "蔪": 7899,
      "蔫": 7900,
      "蔬": 7901,
      "蔵": 7902,
      "蔷": 7903,
      "蔸": 7904,
      "蔹": 7905,
      "蔺": 7906,
      "蔻": 7907,
      "蔼": 7908,
      "蔽": 7909,
      "蕃": 7910,
      "蕈": 7911,
      "蕉": 7912,
      "蕊": 7913,
      "蕔": 7914,
      "蕖": 7915,
      "蕗": 7916,
      "蕙": 7917,
      "蕞": 7918,
      "蕟": 7919,
      "蕡": 7920,
      "蕤": 7921,
      "蕥": 7922,
      "蕨": 7923,
      "蕰": 7924,
      "蕱": 7925,
      "蕲": 7926,
      "蕴": 7927,
      "蕹": 7928,
      "蕺": 7929,
      "蕻": 7930,
      "蕾": 7931,
      "薁": 7932,
      "薄": 7933,
      "薅": 7934,
      "薇": 7935,
      "薏": 7936,
      "薒": 7937,
      "薛": 7938,
      "薜": 7939,
      "薢": 7940,
      "薤": 7941,
      "薨": 7942,
      "薪": 7943,
      "薬": 7944,
      "薮": 7945,
      "薯": 7946,
      "薰": 7947,
      "薳": 7948,
      "薷": 7949,
      "薸": 7950,
      "薹": 7951,
      "薿": 7952,
      "藀": 7953,
      "藁": 7954,
      "藉": 7955,
      "藏": 7956,
      "藐": 7957,
      "藓": 7958,
      "藕": 7959,
      "藙": 7960,
      "藜": 7961,
      "藞": 7962,
      "藟": 7963,
      "藠": 7964,
      "藤": 7965,
      "藦": 7966,
      "藨": 7967,
      "藩": 7968,
      "藻": 7969,
      "藿": 7970,
      "蘅": 7971,
      "蘇": 7972,
      "蘑": 7973,
      "蘖": 7974,
      "蘘": 7975,
      "蘙": 7976,
      "蘧": 7977,
      "蘩": 7978,
      "蘳": 7979,
      "蘸": 7980,
      "蘼": 7981,
      "虎": 7982,
      "虏": 7983,
      "虐": 7984,
      "虑": 7985,
      "虒": 7986,
      "虓": 7987,
      "虔": 7988,
      "虖": 7989,
      "虚": 7990,
      "虞": 7991,
      "號": 7992,
      "虢": 7993,
      "虣": 7994,
      "虤": 7995,
      "虫": 7996,
      "虬": 7997,
      "虮": 7998,
      "虱": 7999,
      "虷": 8000,
      "虸": 8001,
      "虹": 8002,
      "虺": 8003,
      "虻": 8004,
      "虼": 8005,
      "虽": 8006,
      "虾": 8007,
      "虿": 8008,
      "蚀": 8009,
      "蚁": 8010,
      "蚂": 8011,
      "蚄": 8012,
      "蚆": 8013,
      "蚊": 8014,
      "蚋": 8015,
      "蚌": 8016,
      "蚍": 8017,
      "蚓": 8018,
      "蚕": 8019,
      "蚜": 8020,
      "蚝": 8021,
      "蚣": 8022,
      "蚤": 8023,
      "蚧": 8024,
      "蚨": 8025,
      "蚩": 8026,
      "蚪": 8027,
      "蚬": 8028,
      "蚯": 8029,
      "蚰": 8030,
      "蚱": 8031,
      "蚲": 8032,
      "蚴": 8033,
      "蚶": 8034,
      "蚺": 8035,
      "蛀": 8036,
      "蛃": 8037,
      "蛄": 8038,
      "蛆": 8039,
      "蛇": 8040,
      "蛈": 8041,
      "蛉": 8042,
      "蛊": 8043,
      "蛋": 8044,
      "蛎": 8045,
      "蛏": 8046,
      "蛐": 8047,
      "蛑": 8048,
      "蛔": 8049,
      "蛘": 8050,
      "蛙": 8051,
      "蛛": 8052,
      "蛞": 8053,
      "蛟": 8054,
      "蛤": 8055,
      "蛦": 8056,
      "蛩": 8057,
      "蛪": 8058,
      "蛭": 8059,
      "蛮": 8060,
      "蛰": 8061,
      "蛱": 8062,
      "蛲": 8063,
      "蛳": 8064,
      "蛴": 8065,
      "蛸": 8066,
      "蛹": 8067,
      "蛾": 8068,
      "蜀": 8069,
      "蜂": 8070,
      "蜃": 8071,
      "蜇": 8072,
      "蜈": 8073,
      "蜉": 8074,
      "蜊": 8075,
      "蜌": 8076,
      "蜍": 8077,
      "蜎": 8078,
      "蜐": 8079,
      "蜒": 8080,
      "蜓": 8081,
      "蜕": 8082,
      "蜗": 8083,
      "蜘": 8084,
      "蜚": 8085,
      "蜜": 8086,
      "蜞": 8087,
      "蜡": 8088,
      "蜢": 8089,
      "蜣": 8090,
      "蜥": 8091,
      "蜩": 8092,
      "蜮": 8093,
      "蜯": 8094,
      "蜱": 8095,
      "蜴": 8096,
      "蜷": 8097,
      "蜻": 8098,
      "蜾": 8099,
      "蜿": 8100,
      "蝀": 8101,
      "蝇": 8102,
      "蝈": 8103,
      "蝉": 8104,
      "蝌": 8105,
      "蝎": 8106,
      "蝓": 8107,
      "蝗": 8108,
      "蝘": 8109,
      "蝙": 8110,
      "蝞": 8111,
      "蝠": 8112,
      "蝣": 8113,
      "蝤": 8114,
      "蝥": 8115,
      "蝨": 8116,
      "蝮": 8117,
      "蝯": 8118,
      "蝰": 8119,
      "蝲": 8120,
      "蝴": 8121,
      "蝶": 8122,
      "蝻": 8123,
      "蝼": 8124,
      "蝽": 8125,
      "蝾": 8126,
      "螂": 8127,
      "螃": 8128,
      "螅": 8129,
      "螈": 8130,
      "螋": 8131,
      "融": 8132,
      "螎": 8133,
      "螐": 8134,
      "螗": 8135,
      "螟": 8136,
      "螠": 8137,
      "螣": 8138,
      "螤": 8139,
      "螨": 8140,
      "螫": 8141,
      "螬": 8142,
      "螭": 8143,
      "螯": 8144,
      "螱": 8145,
      "螳": 8146,
      "螴": 8147,
      "螵": 8148,
      "螺": 8149,
      "螽": 8150,
      "蟀": 8151,
      "蟆": 8152,
      "蟊": 8153,
      "蟋": 8154,
      "蟏": 8155,
      "蟑": 8156,
      "蟒": 8157,
      "蟛": 8158,
      "蟜": 8159,
      "蟠": 8160,
      "蟡": 8161,
      "蟥": 8162,
      "蟩": 8163,
      "蟪": 8164,
      "蟫": 8165,
      "蟮": 8166,
      "蟹": 8167,
      "蟾": 8168,
      "蠃": 8169,
      "蠇": 8170,
      "蠊": 8171,
      "蠋": 8172,
      "蠌": 8173,
      "蠓": 8174,
      "蠕": 8175,
      "蠖": 8176,
      "蠚": 8177,
      "蠡": 8178,
      "蠢": 8179,
      "蠭": 8180,
      "蠰": 8181,
      "蠲": 8182,
      "蠹": 8183,
      "蠻": 8184,
      "蠼": 8185,
      "血": 8186,
      "衃": 8187,
      "衄": 8188,
      "衅": 8189,
      "行": 8190,
      "衍": 8191,
      "衎": 8192,
      "衒": 8193,
      "衔": 8194,
      "街": 8195,
      "衙": 8196,
      "衠": 8197,
      "衡": 8198,
      "衢": 8199,
      "衣": 8200,
      "补": 8201,
      "表": 8202,
      "衩": 8203,
      "衫": 8204,
      "衬": 8205,
      "衮": 8206,
      "衯": 8207,
      "衰": 8208,
      "衲": 8209,
      "衷": 8210,
      "衺": 8211,
      "衽": 8212,
      "衾": 8213,
      "衿": 8214,
      "袁": 8215,
      "袂": 8216,
      "袄": 8217,
      "袅": 8218,
      "袆": 8219,
      "袈": 8220,
      "袋": 8221,
      "袍": 8222,
      "袒": 8223,
      "袖": 8224,
      "袗": 8225,
      "袘": 8226,
      "袛": 8227,
      "袜": 8228,
      "袢": 8229,
      "袤": 8230,
      "袪": 8231,
      "被": 8232,
      "袭": 8233,
      "袯": 8234,
      "袱": 8235,
      "袲": 8236,
      "袷": 8237,
      "袼": 8238,
      "袾": 8239,
      "裁": 8240,
      "裂": 8241,
      "装": 8242,
      "裆": 8243,
      "裈": 8244,
      "裉": 8245,
      "裍": 8246,
      "裎": 8247,
      "裏": 8248,
      "裒": 8249,
      "裔": 8250,
      "裕": 8251,
      "裘": 8252,
      "裙": 8253,
      "裛": 8254,
      "裟": 8255,
      "裢": 8256,
      "裣": 8257,
      "裤": 8258,
      "裥": 8259,
      "裨": 8260,
      "裰": 8261,
      "裱": 8262,
      "裳": 8263,
      "裴": 8264,
      "裸": 8265,
      "裹": 8266,
      "裼": 8267,
      "製": 8268,
      "裾": 8269,
      "褂": 8270,
      "褊": 8271,
      "褎": 8272,
      "褐": 8273,
      "褒": 8274,
      "褓": 8275,
      "褔": 8276,
      "褕": 8277,
      "褙": 8278,
      "褚": 8279,
      "褛": 8280,
      "褟": 8281,
      "褡": 8282,
      "褥": 8283,
      "褨": 8284,
      "褪": 8285,
      "褫": 8286,
      "褯": 8287,
      "褰": 8288,
      "褴": 8289,
      "褶": 8290,
      "襁": 8291,
      "襄": 8292,
      "襐": 8293,
      "襕": 8294,
      "襚": 8295,
      "襜": 8296,
      "襞": 8297,
      "襟": 8298,
      "襣": 8299,
      "襦": 8300,
      "襫": 8301,
      "襵": 8302,
      "襹": 8303,
      "襻": 8304,
      "西": 8305,
      "要": 8306,
      "覃": 8307,
      "覆": 8308,
      "見": 8309,
      "覍": 8310,
      "規": 8311,
      "覒": 8312,
      "視": 8313,
      "覚": 8314,
      "覞": 8315,
      "覨": 8316,
      "親": 8317,
      "覮": 8318,
      "覱": 8319,
      "覺": 8320,
      "见": 8321,
      "观": 8322,
      "觃": 8323,
      "规": 8324,
      "觅": 8325,
      "视": 8326,
      "觇": 8327,
      "览": 8328,
      "觉": 8329,
      "觊": 8330,
      "觋": 8331,
      "觌": 8332,
      "觎": 8333,
      "觏": 8334,
      "觐": 8335,
      "觑": 8336,
      "角": 8337,
      "觖": 8338,
      "觚": 8339,
      "觜": 8340,
      "觞": 8341,
      "觟": 8342,
      "解": 8343,
      "觤": 8344,
      "觥": 8345,
      "触": 8346,
      "觩": 8347,
      "觫": 8348,
      "觭": 8349,
      "觯": 8350,
      "觱": 8351,
      "觳": 8352,
      "觹": 8353,
      "觿": 8354,
      "言": 8355,
      "訄": 8356,
      "訇": 8357,
      "計": 8358,
      "訊": 8359,
      "託": 8360,
      "記": 8361,
      "訙": 8362,
      "訚": 8363,
      "訤": 8364,
      "訧": 8365,
      "設": 8366,
      "許": 8367,
      "証": 8368,
      "訾": 8369,
      "詈": 8370,
      "詜": 8371,
      "詞": 8372,
      "詟": 8373,
      "話": 8374,
      "該": 8375,
      "詹": 8376,
      "誉": 8377,
      "誊": 8378,
      "誋": 8379,
      "誐": 8380,
      "誓": 8381,
      "誗": 8382,
      "誙": 8383,
      "語": 8384,
      "説": 8385,
      "読": 8386,
      "論": 8387,
      "諦": 8388,
      "謂": 8389,
      "謇": 8390,
      "謨": 8391,
      "謼": 8392,
      "譀": 8393,
      "譇": 8394,
      "譗": 8395,
      "識": 8396,
      "警": 8397,
      "譨": 8398,
      "譪": 8399,
      "譬": 8400,
      "議": 8401,
      "讂": 8402,
      "變": 8403,
      "讓": 8404,
      "计": 8405,
      "订": 8406,
      "讣": 8407,
      "认": 8408,
      "讥": 8409,
      "讦": 8410,
      "讧": 8411,
      "讨": 8412,
      "让": 8413,
      "讪": 8414,
      "讫": 8415,
      "讬": 8416,
      "训": 8417,
      "议": 8418,
      "讯": 8419,
      "记": 8420,
      "讱": 8421,
      "讲": 8422,
      "讳": 8423,
      "讴": 8424,
      "讵": 8425,
      "讶": 8426,
      "讷": 8427,
      "许": 8428,
      "讹": 8429,
      "论": 8430,
      "讻": 8431,
      "讼": 8432,
      "讽": 8433,
      "设": 8434,
      "访": 8435,
      "诀": 8436,
      "证": 8437,
      "诂": 8438,
      "诃": 8439,
      "评": 8440,
      "诅": 8441,
      "识": 8442,
      "诇": 8443,
      "诈": 8444,
      "诉": 8445,
      "诊": 8446,
      "诋": 8447,
      "诌": 8448,
      "词": 8449,
      "诎": 8450,
      "诏": 8451,
      "诐": 8452,
      "译": 8453,
      "诒": 8454,
      "诓": 8455,
      "诔": 8456,
      "试": 8457,
      "诖": 8458,
      "诗": 8459,
      "诘": 8460,
      "诙": 8461,
      "诚": 8462,
      "诛": 8463,
      "诜": 8464,
      "话": 8465,
      "诞": 8466,
      "诟": 8467,
      "诠": 8468,
      "诡": 8469,
      "询": 8470,
      "诣": 8471,
      "诤": 8472,
      "该": 8473,
      "详": 8474,
      "诧": 8475,
      "诨": 8476,
      "诩": 8477,
      "诫": 8478,
      "诬": 8479,
      "语": 8480,
      "诮": 8481,
      "误": 8482,
      "诰": 8483,
      "诱": 8484,
      "诲": 8485,
      "诳": 8486,
      "说": 8487,
      "诵": 8488,
      "诶": 8489,
      "请": 8490,
      "诸": 8491,
      "诹": 8492,
      "诺": 8493,
      "读": 8494,
      "诼": 8495,
      "诽": 8496,
      "课": 8497,
      "诿": 8498,
      "谀": 8499,
      "谁": 8500,
      "谂": 8501,
      "调": 8502,
      "谄": 8503,
      "谅": 8504,
      "谆": 8505,
      "谇": 8506,
      "谈": 8507,
      "谊": 8508,
      "谋": 8509,
      "谌": 8510,
      "谍": 8511,
      "谎": 8512,
      "谏": 8513,
      "谐": 8514,
      "谑": 8515,
      "谒": 8516,
      "谓": 8517,
      "谔": 8518,
      "谕": 8519,
      "谖": 8520,
      "谗": 8521,
      "谙": 8522,
      "谚": 8523,
      "谛": 8524,
      "谜": 8525,
      "谝": 8526,
      "谞": 8527,
      "谟": 8528,
      "谠": 8529,
      "谡": 8530,
      "谢": 8531,
      "谣": 8532,
      "谤": 8533,
      "谥": 8534,
      "谦": 8535,
      "谧": 8536,
      "谨": 8537,
      "谩": 8538,
      "谪": 8539,
      "谫": 8540,
      "谬": 8541,
      "谭": 8542,
      "谮": 8543,
      "谯": 8544,
      "谰": 8545,
      "谱": 8546,
      "谲": 8547,
      "谳": 8548,
      "谴": 8549,
      "谵": 8550,
      "谶": 8551,
      "谷": 8552,
      "谼": 8553,
      "谿": 8554,
      "豁": 8555,
      "豆": 8556,
      "豇": 8557,
      "豉": 8558,
      "豊": 8559,
      "豌": 8560,
      "豕": 8561,
      "豚": 8562,
      "象": 8563,
      "豢": 8564,
      "豨": 8565,
      "豪": 8566,
      "豫": 8567,
      "豮": 8568,
      "豳": 8569,
      "豸": 8570,
      "豹": 8571,
      "豺": 8572,
      "貂": 8573,
      "貅": 8574,
      "貆": 8575,
      "貉": 8576,
      "貊": 8577,
      "貌": 8578,
      "貔": 8579,
      "貘": 8580,
      "貛": 8581,
      "貞": 8582,
      "負": 8583,
      "販": 8584,
      "責": 8585,
      "貹": 8586,
      "資": 8587,
      "賘": 8588,
      "賽": 8589,
      "贝": 8590,
      "贞": 8591,
      "负": 8592,
      "贡": 8593,
      "财": 8594,
      "责": 8595,
      "贤": 8596,
      "败": 8597,
      "账": 8598,
      "货": 8599,
      "质": 8600,
      "贩": 8601,
      "贪": 8602,
      "贫": 8603,
      "贬": 8604,
      "购": 8605,
      "贮": 8606,
      "贯": 8607,
      "贰": 8608,
      "贱": 8609,
      "贲": 8610,
      "贳": 8611,
      "贴": 8612,
      "贵": 8613,
      "贶": 8614,
      "贷": 8615,
      "贸": 8616,
      "费": 8617,
      "贺": 8618,
      "贻": 8619,
      "贼": 8620,
      "贽": 8621,
      "贾": 8622,
      "贿": 8623,
      "赀": 8624,
      "赁": 8625,
      "赂": 8626,
      "赃": 8627,
      "资": 8628,
      "赅": 8629,
      "赆": 8630,
      "赇": 8631,
      "赈": 8632,
      "赉": 8633,
      "赊": 8634,
      "赋": 8635,
      "赌": 8636,
      "赍": 8637,
      "赎": 8638,
      "赏": 8639,
      "赐": 8640,
      "赑": 8641,
      "赒": 8642,
      "赓": 8643,
      "赔": 8644,
      "赕": 8645,
      "赖": 8646,
      "赗": 8647,
      "赘": 8648,
      "赙": 8649,
      "赚": 8650,
      "赛": 8651,
      "赜": 8652,
      "赝": 8653,
      "赞": 8654,
      "赟": 8655,
      "赠": 8656,
      "赡": 8657,
      "赢": 8658,
      "赣": 8659,
      "赤": 8660,
      "赦": 8661,
      "赧": 8662,
      "赪": 8663,
      "赫": 8664,
      "赭": 8665,
      "走": 8666,
      "赳": 8667,
      "赴": 8668,
      "赵": 8669,
      "赶": 8670,
      "起": 8671,
      "趁": 8672,
      "趃": 8673,
      "趄": 8674,
      "超": 8675,
      "越": 8676,
      "趋": 8677,
      "趑": 8678,
      "趔": 8679,
      "趝": 8680,
      "趟": 8681,
      "趣": 8682,
      "趫": 8683,
      "趯": 8684,
      "趱": 8685,
      "足": 8686,
      "趴": 8687,
      "趵": 8688,
      "趸": 8689,
      "趹": 8690,
      "趺": 8691,
      "趼": 8692,
      "趾": 8693,
      "趿": 8694,
      "跂": 8695,
      "跃": 8696,
      "跄": 8697,
      "跆": 8698,
      "跋": 8699,
      "跌": 8700,
      "跎": 8701,
      "跏": 8702,
      "跐": 8703,
      "跑": 8704,
      "跒": 8705,
      "跖": 8706,
      "跗": 8707,
      "跚": 8708,
      "跛": 8709,
      "距": 8710,
      "跞": 8711,
      "跟": 8712,
      "跢": 8713,
      "跣": 8714,
      "跤": 8715,
      "跨": 8716,
      "跪": 8717,
      "跬": 8718,
      "路": 8719,
      "跱": 8720,
      "跳": 8721,
      "践": 8722,
      "跶": 8723,
      "跷": 8724,
      "跸": 8725,
      "跹": 8726,
      "跺": 8727,
      "跻": 8728,
      "跽": 8729,
      "踅": 8730,
      "踉": 8731,
      "踊": 8732,
      "踌": 8733,
      "踏": 8734,
      "踒": 8735,
      "踔": 8736,
      "踝": 8737,
      "踞": 8738,
      "踟": 8739,
      "踢": 8740,
      "踣": 8741,
      "踦": 8742,
      "踩": 8743,
      "踪": 8744,
      "踬": 8745,
      "踮": 8746,
      "踯": 8747,
      "踱": 8748,
      "踵": 8749,
      "踶": 8750,
      "踹": 8751,
      "踺": 8752,
      "踽": 8753,
      "蹀": 8754,
      "蹁": 8755,
      "蹂": 8756,
      "蹄": 8757,
      "蹅": 8758,
      "蹇": 8759,
      "蹈": 8760,
      "蹉": 8761,
      "蹊": 8762,
      "蹋": 8763,
      "蹐": 8764,
      "蹑": 8765,
      "蹒": 8766,
      "蹙": 8767,
      "蹚": 8768,
      "蹜": 8769,
      "蹟": 8770,
      "蹢": 8771,
      "蹦": 8772,
      "蹩": 8773,
      "蹬": 8774,
      "蹭": 8775,
      "蹯": 8776,
      "蹰": 8777,
      "蹱": 8778,
      "蹲": 8779,
      "蹴": 8780,
      "蹶": 8781,
      "蹼": 8782,
      "蹽": 8783,
      "蹾": 8784,
      "蹿": 8785,
      "躁": 8786,
      "躅": 8787,
      "躇": 8788,
      "躍": 8789,
      "躏": 8790,
      "躐": 8791,
      "躔": 8792,
      "躜": 8793,
      "躞": 8794,
      "躟": 8795,
      "身": 8796,
      "躬": 8797,
      "躯": 8798,
      "躲": 8799,
      "躷": 8800,
      "躺": 8801,
      "軈": 8802,
      "軍": 8803,
      "軖": 8804,
      "軝": 8805,
      "軽": 8806,
      "輂": 8807,
      "較": 8808,
      "輌": 8809,
      "輕": 8810,
      "輪": 8811,
      "輹": 8812,
      "轉": 8813,
      "轙": 8814,
      "车": 8815,
      "轧": 8816,
      "轨": 8817,
      "轩": 8818,
      "轪": 8819,
      "轫": 8820,
      "转": 8821,
      "轭": 8822,
      "轮": 8823,
      "软": 8824,
      "轰": 8825,
      "轱": 8826,
      "轲": 8827,
      "轳": 8828,
      "轴": 8829,
      "轵": 8830,
      "轶": 8831,
      "轷": 8832,
      "轸": 8833,
      "轹": 8834,
      "轺": 8835,
      "轻": 8836,
      "轼": 8837,
      "载": 8838,
      "轾": 8839,
      "轿": 8840,
      "辀": 8841,
      "辁": 8842,
      "辂": 8843,
      "较": 8844,
      "辄": 8845,
      "辅": 8846,
      "辆": 8847,
      "辇": 8848,
      "辈": 8849,
      "辉": 8850,
      "辊": 8851,
      "辋": 8852,
      "辌": 8853,
      "辍": 8854,
      "辎": 8855,
      "辏": 8856,
      "辐": 8857,
      "辑": 8858,
      "辒": 8859,
      "输": 8860,
      "辔": 8861,
      "辕": 8862,
      "辖": 8863,
      "辗": 8864,
      "辘": 8865,
      "辙": 8866,
      "辚": 8867,
      "辛": 8868,
      "辜": 8869,
      "辞": 8870,
      "辟": 8871,
      "辣": 8872,
      "辨": 8873,
      "辩": 8874,
      "辫": 8875,
      "辭": 8876,
      "辰": 8877,
      "辱": 8878,
      "边": 8879,
      "辺": 8880,
      "辽": 8881,
      "达": 8882,
      "辿": 8883,
      "迁": 8884,
      "迂": 8885,
      "迄": 8886,
      "迅": 8887,
      "过": 8888,
      "迈": 8889,
      "迎": 8890,
      "运": 8891,
      "近": 8892,
      "迓": 8893,
      "返": 8894,
      "迕": 8895,
      "还": 8896,
      "这": 8897,
      "进": 8898,
      "远": 8899,
      "违": 8900,
      "连": 8901,
      "迟": 8902,
      "迢": 8903,
      "迤": 8904,
      "迥": 8905,
      "迦": 8906,
      "迨": 8907,
      "迩": 8908,
      "迪": 8909,
      "迫": 8910,
      "迭": 8911,
      "迮": 8912,
      "述": 8913,
      "迳": 8914,
      "迷": 8915,
      "迸": 8916,
      "迹": 8917,
      "迺": 8918,
      "追": 8919,
      "退": 8920,
      "送": 8921,
      "适": 8922,
      "逃": 8923,
      "逄": 8924,
      "逅": 8925,
      "逆": 8926,
      "选": 8927,
      "逊": 8928,
      "逋": 8929,
      "逍": 8930,
      "透": 8931,
      "逐": 8932,
      "逑": 8933,
      "递": 8934,
      "途": 8935,
      "逖": 8936,
      "逗": 8937,
      "這": 8938,
      "通": 8939,
      "逛": 8940,
      "逝": 8941,
      "逞": 8942,
      "速": 8943,
      "造": 8944,
      "逡": 8945,
      "逢": 8946,
      "連": 8947,
      "逥": 8948,
      "逦": 8949,
      "逩": 8950,
      "逭": 8951,
      "逮": 8952,
      "逯": 8953,
      "週": 8954,
      "逴": 8955,
      "逵": 8956,
      "逶": 8957,
      "逸": 8958,
      "逻": 8959,
      "逼": 8960,
      "逾": 8961,
      "遁": 8962,
      "遂": 8963,
      "遄": 8964,
      "遅": 8965,
      "遆": 8966,
      "遇": 8967,
      "遉": 8968,
      "遊": 8969,
      "遍": 8970,
      "過": 8971,
      "遏": 8972,
      "遐": 8973,
      "遑": 8974,
      "遒": 8975,
      "道": 8976,
      "達": 8977,
      "違": 8978,
      "遗": 8979,
      "遘": 8980,
      "遛": 8981,
      "遢": 8982,
      "遣": 8983,
      "遥": 8984,
      "遨": 8985,
      "適": 8986,
      "遪": 8987,
      "遭": 8988,
      "遮": 8989,
      "遯": 8990,
      "遰": 8991,
      "遳": 8992,
      "遴": 8993,
      "遵": 8994,
      "遷": 8995,
      "選": 8996,
      "遹": 8997,
      "遽": 8998,
      "避": 8999,
      "邀": 9000,
      "邂": 9001,
      "邃": 9002,
      "還": 9003,
      "邈": 9004,
      "邋": 9005,
      "邑": 9006,
      "邓": 9007,
      "邕": 9008,
      "邗": 9009,
      "邘": 9010,
      "邙": 9011,
      "邛": 9012,
      "邝": 9013,
      "邠": 9014,
      "邡": 9015,
      "邢": 9016,
      "那": 9017,
      "邦": 9018,
      "邨": 9019,
      "邪": 9020,
      "邬": 9021,
      "邮": 9022,
      "邯": 9023,
      "邰": 9024,
      "邱": 9025,
      "邲": 9026,
      "邳": 9027,
      "邴": 9028,
      "邵": 9029,
      "邶": 9030,
      "邸": 9031,
      "邹": 9032,
      "邺": 9033,
      "邻": 9034,
      "邽": 9035,
      "邾": 9036,
      "邿": 9037,
      "郁": 9038,
      "郂": 9039,
      "郃": 9040,
      "郄": 9041,
      "郅": 9042,
      "郆": 9043,
      "郇": 9044,
      "郈": 9045,
      "郊": 9046,
      "郎": 9047,
      "郏": 9048,
      "郐": 9049,
      "郑": 9050,
      "郓": 9051,
      "郔": 9052,
      "郗": 9053,
      "郚": 9054,
      "郛": 9055,
      "郜": 9056,
      "郝": 9057,
      "郞": 9058,
      "郡": 9059,
      "郢": 9060,
      "郤": 9061,
      "郦": 9062,
      "郧": 9063,
      "部": 9064,
      "郪": 9065,
      "郫": 9066,
      "郭": 9067,
      "郯": 9068,
      "郲": 9069,
      "郴": 9070,
      "郸": 9071,
      "郹": 9072,
      "都": 9073,
      "郾": 9074,
      "郿": 9075,
      "鄀": 9076,
      "鄂": 9077,
      "鄃": 9078,
      "鄄": 9079,
      "鄅": 9080,
      "鄊": 9081,
      "鄌": 9082,
      "鄎": 9083,
      "鄑": 9084,
      "鄗": 9085,
      "鄘": 9086,
      "鄙": 9087,
      "鄚": 9088,
      "鄜": 9089,
      "鄞": 9090,
      "鄟": 9091,
      "鄠": 9092,
      "鄢": 9093,
      "鄣": 9094,
      "鄫": 9095,
      "鄯": 9096,
      "鄱": 9097,
      "鄹": 9098,
      "酂": 9099,
      "酃": 9100,
      "酅": 9101,
      "酆": 9102,
      "酉": 9103,
      "酊": 9104,
      "酋": 9105,
      "酌": 9106,
      "配": 9107,
      "酎": 9108,
      "酏": 9109,
      "酐": 9110,
      "酒": 9111,
      "酗": 9112,
      "酙": 9113,
      "酚": 9114,
      "酝": 9115,
      "酞": 9116,
      "酟": 9117,
      "酡": 9118,
      "酢": 9119,
      "酣": 9120,
      "酤": 9121,
      "酥": 9122,
      "酦": 9123,
      "酩": 9124,
      "酪": 9125,
      "酬": 9126,
      "酮": 9127,
      "酯": 9128,
      "酰": 9129,
      "酱": 9130,
      "酲": 9131,
      "酴": 9132,
      "酵": 9133,
      "酶": 9134,
      "酷": 9135,
      "酸": 9136,
      "酹": 9137,
      "酺": 9138,
      "酽": 9139,
      "酾": 9140,
      "酿": 9141,
      "醅": 9142,
      "醇": 9143,
      "醉": 9144,
      "醋": 9145,
      "醌": 9146,
      "醍": 9147,
      "醐": 9148,
      "醑": 9149,
      "醒": 9150,
      "醚": 9151,
      "醛": 9152,
      "醝": 9153,
      "醢": 9154,
      "醦": 9155,
      "醨": 9156,
      "醪": 9157,
      "醭": 9158,
      "醮": 9159,
      "醯": 9160,
      "醴": 9161,
      "醵": 9162,
      "醺": 9163,
      "醾": 9164,
      "醿": 9165,
      "釂": 9166,
      "釆": 9167,
      "采": 9168,
      "釉": 9169,
      "释": 9170,
      "釋": 9171,
      "里": 9172,
      "重": 9173,
      "野": 9174,
      "量": 9175,
      "釐": 9176,
      "金": 9177,
      "釚": 9178,
      "釜": 9179,
      "釼": 9180,
      "鈩": 9181,
      "鉒": 9182,
      "鉖": 9183,
      "鉩": 9184,
      "鉲": 9185,
      "鉴": 9186,
      "銀": 9187,
      "銄": 9188,
      "銎": 9189,
      "銮": 9190,
      "鋄": 9191,
      "鋆": 9192,
      "鋈": 9193,
      "鋔": 9194,
      "鋧": 9195,
      "鋳": 9196,
      "錫": 9197,
      "錱": 9198,
      "錾": 9199,
      "鍉": 9200,
      "鍎": 9201,
      "鍞": 9202,
      "鍟": 9203,
      "鍣": 9204,
      "鍦": 9205,
      "鍪": 9206,
      "鍯": 9207,
      "鍵": 9208,
      "鎉": 9209,
      "鎏": 9210,
      "鏊": 9211,
      "鏏": 9212,
      "鏖": 9213,
      "鏣": 9214,
      "鏿": 9215,
      "鐆": 9216,
      "鐳": 9217,
      "鐻": 9218,
      "鐾": 9219,
      "鑀": 9220,
      "鑑": 9221,
      "鑓": 9222,
      "鑡": 9223,
      "鑨": 9224,
      "鑫": 9225,
      "鑼": 9226,
      "钅": 9227,
      "钆": 9228,
      "钇": 9229,
      "针": 9230,
      "钉": 9231,
      "钊": 9232,
      "钋": 9233,
      "钌": 9234,
      "钍": 9235,
      "钎": 9236,
      "钏": 9237,
      "钐": 9238,
      "钒": 9239,
      "钓": 9240,
      "钔": 9241,
      "钕": 9242,
      "钖": 9243,
      "钗": 9244,
      "钘": 9245,
      "钙": 9246,
      "钚": 9247,
      "钛": 9248,
      "钜": 9249,
      "钝": 9250,
      "钞": 9251,
      "钟": 9252,
      "钠": 9253,
      "钡": 9254,
      "钢": 9255,
      "钣": 9256,
      "钤": 9257,
      "钥": 9258,
      "钦": 9259,
      "钧": 9260,
      "钨": 9261,
      "钩": 9262,
      "钪": 9263,
      "钫": 9264,
      "钬": 9265,
      "钭": 9266,
      "钮": 9267,
      "钯": 9268,
      "钰": 9269,
      "钱": 9270,
      "钲": 9271,
      "钳": 9272,
      "钴": 9273,
      "钵": 9274,
      "钷": 9275,
      "钹": 9276,
      "钺": 9277,
      "钻": 9278,
      "钼": 9279,
      "钽": 9280,
      "钾": 9281,
      "钿": 9282,
      "铀": 9283,
      "铁": 9284,
      "铂": 9285,
      "铃": 9286,
      "铄": 9287,
      "铅": 9288,
      "铆": 9289,
      "铇": 9290,
      "铈": 9291,
      "铉": 9292,
      "铊": 9293,
      "铋": 9294,
      "铌": 9295,
      "铍": 9296,
      "铎": 9297,
      "铏": 9298,
      "铐": 9299,
      "铑": 9300,
      "铒": 9301,
      "铓": 9302,
      "铕": 9303,
      "铖": 9304,
      "铗": 9305,
      "铘": 9306,
      "铙": 9307,
      "铚": 9308,
      "铛": 9309,
      "铜": 9310,
      "铝": 9311,
      "铞": 9312,
      "铟": 9313,
      "铠": 9314,
      "铡": 9315,
      "铢": 9316,
      "铣": 9317,
      "铤": 9318,
      "铥": 9319,
      "铧": 9320,
      "铨": 9321,
      "铩": 9322,
      "铪": 9323,
      "铫": 9324,
      "铬": 9325,
      "铭": 9326,
      "铮": 9327,
      "铯": 9328,
      "铰": 9329,
      "铱": 9330,
      "铲": 9331,
      "铳": 9332,
      "铴": 9333,
      "铵": 9334,
      "银": 9335,
      "铷": 9336,
      "铸": 9337,
      "铹": 9338,
      "铺": 9339,
      "铻": 9340,
      "铼": 9341,
      "铽": 9342,
      "链": 9343,
      "铿": 9344,
      "销": 9345,
      "锁": 9346,
      "锂": 9347,
      "锃": 9348,
      "锄": 9349,
      "锅": 9350,
      "锆": 9351,
      "锇": 9352,
      "锈": 9353,
      "锉": 9354,
      "锊": 9355,
      "锋": 9356,
      "锌": 9357,
      "锍": 9358,
      "锎": 9359,
      "锏": 9360,
      "锐": 9361,
      "锑": 9362,
      "锒": 9363,
      "锓": 9364,
      "锔": 9365,
      "锕": 9366,
      "锖": 9367,
      "锗": 9368,
      "锘": 9369,
      "错": 9370,
      "锚": 9371,
      "锛": 9372,
      "锜": 9373,
      "锝": 9374,
      "锞": 9375,
      "锟": 9376,
      "锡": 9377,
      "锢": 9378,
      "锣": 9379,
      "锤": 9380,
      "锥": 9381,
      "锦": 9382,
      "锧": 9383,
      "锨": 9384,
      "锩": 9385,
      "锪": 9386,
      "锫": 9387,
      "锬": 9388,
      "锭": 9389,
      "键": 9390,
      "锯": 9391,
      "锰": 9392,
      "锱": 9393,
      "锲": 9394,
      "锳": 9395,
      "锴": 9396,
      "锵": 9397,
      "锶": 9398,
      "锷": 9399,
      "锸": 9400,
      "锹": 9401,
      "锺": 9402,
      "锻": 9403,
      "锼": 9404,
      "锽": 9405,
      "锾": 9406,
      "锿": 9407,
      "镀": 9408,
      "镁": 9409,
      "镂": 9410,
      "镃": 9411,
      "镄": 9412,
      "镅": 9413,
      "镆": 9414,
      "镇": 9415,
      "镈": 9416,
      "镉": 9417,
      "镊": 9418,
      "镋": 9419,
      "镌": 9420,
      "镍": 9421,
      "镎": 9422,
      "镏": 9423,
      "镐": 9424,
      "镑": 9425,
      "镒": 9426,
      "镓": 9427,
      "镔": 9428,
      "镕": 9429,
      "镖": 9430,
      "镗": 9431,
      "镘": 9432,
      "镚": 9433,
      "镛": 9434,
      "镜": 9435,
      "镝": 9436,
      "镞": 9437,
      "镠": 9438,
      "镡": 9439,
      "镢": 9440,
      "镣": 9441,
      "镤": 9442,
      "镥": 9443,
      "镦": 9444,
      "镧": 9445,
      "镨": 9446,
      "镩": 9447,
      "镪": 9448,
      "镫": 9449,
      "镬": 9450,
      "镭": 9451,
      "镮": 9452,
      "镯": 9453,
      "镰": 9454,
      "镱": 9455,
      "镲": 9456,
      "镳": 9457,
      "镴": 9458,
      "镵": 9459,
      "镶": 9460,
      "镹": 9461,
      "长": 9462,
      "閅": 9463,
      "開": 9464,
      "間": 9465,
      "関": 9466,
      "閺": 9467,
      "闚": 9468,
      "關": 9469,
      "门": 9470,
      "闩": 9471,
      "闪": 9472,
      "闫": 9473,
      "闭": 9474,
      "问": 9475,
      "闯": 9476,
      "闰": 9477,
      "闱": 9478,
      "闲": 9479,
      "闳": 9480,
      "间": 9481,
      "闵": 9482,
      "闶": 9483,
      "闷": 9484,
      "闸": 9485,
      "闹": 9486,
      "闺": 9487,
      "闻": 9488,
      "闼": 9489,
      "闽": 9490,
      "闾": 9491,
      "闿": 9492,
      "阀": 9493,
      "阁": 9494,
      "阂": 9495,
      "阃": 9496,
      "阄": 9497,
      "阅": 9498,
      "阆": 9499,
      "阇": 9500,
      "阈": 9501,
      "阉": 9502,
      "阊": 9503,
      "阋": 9504,
      "阌": 9505,
      "阍": 9506,
      "阎": 9507,
      "阏": 9508,
      "阐": 9509,
      "阑": 9510,
      "阒": 9511,
      "阓": 9512,
      "阔": 9513,
      "阕": 9514,
      "阖": 9515,
      "阗": 9516,
      "阘": 9517,
      "阙": 9518,
      "阚": 9519,
      "阜": 9520,
      "队": 9521,
      "阡": 9522,
      "阪": 9523,
      "阮": 9524,
      "阱": 9525,
      "防": 9526,
      "阳": 9527,
      "阴": 9528,
      "阵": 9529,
      "阶": 9530,
      "阺": 9531,
      "阻": 9532,
      "阼": 9533,
      "阽": 9534,
      "阿": 9535,
      "陀": 9536,
      "陂": 9537,
      "附": 9538,
      "际": 9539,
      "陆": 9540,
      "陇": 9541,
      "陈": 9542,
      "陉": 9543,
      "陋": 9544,
      "陌": 9545,
      "降": 9546,
      "陎": 9547,
      "限": 9548,
      "陑": 9549,
      "陔": 9550,
      "陕": 9551,
      "陛": 9552,
      "陞": 9553,
      "陟": 9554,
      "陡": 9555,
      "院": 9556,
      "陣": 9557,
      "除": 9558,
      "陧": 9559,
      "陨": 9560,
      "险": 9561,
      "陪": 9562,
      "陬": 9563,
      "陲": 9564,
      "陴": 9565,
      "陵": 9566,
      "陶": 9567,
      "陷": 9568,
      "陸": 9569,
      "陽": 9570,
      "隀": 9571,
      "隁": 9572,
      "隃": 9573,
      "隅": 9574,
      "隆": 9575,
      "隈": 9576,
      "隊": 9577,
      "隋": 9578,
      "隍": 9579,
      "随": 9580,
      "隐": 9581,
      "隑": 9582,
      "隔": 9583,
      "隗": 9584,
      "隘": 9585,
      "隙": 9586,
      "際": 9587,
      "障": 9588,
      "隠": 9589,
      "隣": 9590,
      "隧": 9591,
      "隨": 9592,
      "隩": 9593,
      "隰": 9594,
      "隳": 9595,
      "隶": 9596,
      "隹": 9597,
      "隺": 9598,
      "隼": 9599,
      "隽": 9600,
      "难": 9601,
      "雀": 9602,
      "雁": 9603,
      "雄": 9604,
      "雅": 9605,
      "集": 9606,
      "雇": 9607,
      "雉": 9608,
      "雊": 9609,
      "雌": 9610,
      "雍": 9611,
      "雎": 9612,
      "雏": 9613,
      "雑": 9614,
      "雒": 9615,
      "雕": 9616,
      "雞": 9617,
      "雠": 9618,
      "雨": 9619,
      "雩": 9620,
      "雪": 9621,
      "雯": 9622,
      "雱": 9623,
      "雳": 9624,
      "雴": 9625,
      "零": 9626,
      "雷": 9627,
      "雹": 9628,
      "雾": 9629,
      "雿": 9630,
      "需": 9631,
      "霁": 9632,
      "霃": 9633,
      "霄": 9634,
      "霅": 9635,
      "霆": 9636,
      "震": 9637,
      "霈": 9638,
      "霉": 9639,
      "霍": 9640,
      "霎": 9641,
      "霏": 9642,
      "霓": 9643,
      "霖": 9644,
      "霚": 9645,
      "霜": 9646,
      "霞": 9647,
      "霨": 9648,
      "霪": 9649,
      "霭": 9650,
      "霰": 9651,
      "露": 9652,
      "霸": 9653,
      "霹": 9654,
      "霾": 9655,
      "靁": 9656,
      "靈": 9657,
      "青": 9658,
      "靓": 9659,
      "靕": 9660,
      "靖": 9661,
      "静": 9662,
      "靛": 9663,
      "非": 9664,
      "靠": 9665,
      "靡": 9666,
      "面": 9667,
      "靥": 9668,
      "革": 9669,
      "靬": 9670,
      "靰": 9671,
      "靳": 9672,
      "靴": 9673,
      "靶": 9674,
      "靷": 9675,
      "靸": 9676,
      "靺": 9677,
      "靼": 9678,
      "靽": 9679,
      "靿": 9680,
      "鞁": 9681,
      "鞅": 9682,
      "鞋": 9683,
      "鞌": 9684,
      "鞍": 9685,
      "鞑": 9686,
      "鞒": 9687,
      "鞔": 9688,
      "鞘": 9689,
      "鞙": 9690,
      "鞟": 9691,
      "鞠": 9692,
      "鞡": 9693,
      "鞣": 9694,
      "鞥": 9695,
      "鞧": 9696,
      "鞨": 9697,
      "鞫": 9698,
      "鞬": 9699,
      "鞭": 9700,
      "鞮": 9701,
      "鞯": 9702,
      "鞱": 9703,
      "鞲": 9704,
      "鞳": 9705,
      "鞴": 9706,
      "韂": 9707,
      "韔": 9708,
      "韛": 9709,
      "韦": 9710,
      "韧": 9711,
      "韨": 9712,
      "韩": 9713,
      "韪": 9714,
      "韫": 9715,
      "韬": 9716,
      "韭": 9717,
      "音": 9718,
      "韵": 9719,
      "韶": 9720,
      "響": 9721,
      "頁": 9722,
      "頉": 9723,
      "頍": 9724,
      "預": 9725,
      "頚": 9726,
      "頶": 9727,
      "題": 9728,
      "顔": 9729,
      "顗": 9730,
      "页": 9731,
      "顶": 9732,
      "顷": 9733,
      "顸": 9734,
      "项": 9735,
      "顺": 9736,
      "须": 9737,
      "顼": 9738,
      "顽": 9739,
      "顾": 9740,
      "顿": 9741,
      "颀": 9742,
      "颁": 9743,
      "颂": 9744,
      "颃": 9745,
      "预": 9746,
      "颅": 9747,
      "领": 9748,
      "颇": 9749,
      "颈": 9750,
      "颉": 9751,
      "颊": 9752,
      "颋": 9753,
      "颌": 9754,
      "颍": 9755,
      "颎": 9756,
      "颏": 9757,
      "颐": 9758,
      "频": 9759,
      "颓": 9760,
      "颔": 9761,
      "颖": 9762,
      "颗": 9763,
      "题": 9764,
      "颙": 9765,
      "颚": 9766,
      "颛": 9767,
      "颜": 9768,
      "额": 9769,
      "颞": 9770,
      "颟": 9771,
      "颠": 9772,
      "颡": 9773,
      "颢": 9774,
      "颤": 9775,
      "颥": 9776,
      "颦": 9777,
      "颧": 9778,
      "風": 9779,
      "颴": 9780,
      "颽": 9781,
      "风": 9782,
      "飏": 9783,
      "飐": 9784,
      "飑": 9785,
      "飒": 9786,
      "飓": 9787,
      "飔": 9788,
      "飕": 9789,
      "飗": 9790,
      "飘": 9791,
      "飙": 9792,
      "飚": 9793,
      "飛": 9794,
      "飞": 9795,
      "食": 9796,
      "飧": 9797,
      "飨": 9798,
      "餍": 9799,
      "餐": 9800,
      "餝": 9801,
      "餧": 9802,
      "餫": 9803,
      "餮": 9804,
      "餹": 9805,
      "饔": 9806,
      "饕": 9807,
      "饤": 9808,
      "饥": 9809,
      "饧": 9810,
      "饨": 9811,
      "饩": 9812,
      "饪": 9813,
      "饫": 9814,
      "饬": 9815,
      "饭": 9816,
      "饮": 9817,
      "饯": 9818,
      "饰": 9819,
      "饱": 9820,
      "饲": 9821,
      "饳": 9822,
      "饴": 9823,
      "饵": 9824,
      "饶": 9825,
      "饷": 9826,
      "饸": 9827,
      "饹": 9828,
      "饺": 9829,
      "饻": 9830,
      "饼": 9831,
      "饽": 9832,
      "饿": 9833,
      "馀": 9834,
      "馁": 9835,
      "馃": 9836,
      "馄": 9837,
      "馅": 9838,
      "馆": 9839,
      "馇": 9840,
      "馈": 9841,
      "馉": 9842,
      "馊": 9843,
      "馋": 9844,
      "馌": 9845,
      "馍": 9846,
      "馏": 9847,
      "馐": 9848,
      "馑": 9849,
      "馒": 9850,
      "馓": 9851,
      "馔": 9852,
      "馕": 9853,
      "首": 9854,
      "馗": 9855,
      "馘": 9856,
      "香": 9857,
      "馝": 9858,
      "馞": 9859,
      "馥": 9860,
      "馧": 9861,
      "馨": 9862,
      "馬": 9863,
      "馽": 9864,
      "駄": 9865,
      "駉": 9866,
      "駞": 9867,
      "駬": 9868,
      "駮": 9869,
      "騎": 9870,
      "験": 9871,
      "騻": 9872,
      "马": 9873,
      "驭": 9874,
      "驮": 9875,
      "驯": 9876,
      "驰": 9877,
      "驱": 9878,
      "驲": 9879,
      "驳": 9880,
      "驴": 9881,
      "驵": 9882,
      "驶": 9883,
      "驷": 9884,
      "驸": 9885,
      "驹": 9886,
      "驺": 9887,
      "驻": 9888,
      "驼": 9889,
      "驽": 9890,
      "驾": 9891,
      "驿": 9892,
      "骀": 9893,
      "骁": 9894,
      "骂": 9895,
      "骃": 9896,
      "骄": 9897,
      "骅": 9898,
      "骆": 9899,
      "骇": 9900,
      "骈": 9901,
      "骉": 9902,
      "骊": 9903,
      "骋": 9904,
      "验": 9905,
      "骍": 9906,
      "骎": 9907,
      "骏": 9908,
      "骐": 9909,
      "骑": 9910,
      "骒": 9911,
      "骓": 9912,
      "骕": 9913,
      "骖": 9914,
      "骗": 9915,
      "骘": 9916,
      "骙": 9917,
      "骚": 9918,
      "骛": 9919,
      "骜": 9920,
      "骝": 9921,
      "骞": 9922,
      "骟": 9923,
      "骠": 9924,
      "骡": 9925,
      "骢": 9926,
      "骣": 9927,
      "骤": 9928,
      "骥": 9929,
      "骦": 9930,
      "骧": 9931,
      "骨": 9932,
      "骰": 9933,
      "骱": 9934,
      "骶": 9935,
      "骷": 9936,
      "骸": 9937,
      "骺": 9938,
      "骼": 9939,
      "髀": 9940,
      "髁": 9941,
      "髂": 9942,
      "髃": 9943,
      "髅": 9944,
      "髈": 9945,
      "髋": 9946,
      "髌": 9947,
      "髎": 9948,
      "髑": 9949,
      "髓": 9950,
      "體": 9951,
      "高": 9952,
      "髡": 9953,
      "髢": 9954,
      "髦": 9955,
      "髫": 9956,
      "髭": 9957,
      "髯": 9958,
      "髹": 9959,
      "髻": 9960,
      "髽": 9961,
      "鬃": 9962,
      "鬈": 9963,
      "鬌": 9964,
      "鬏": 9965,
      "鬒": 9966,
      "鬓": 9967,
      "鬘": 9968,
      "鬟": 9969,
      "鬣": 9970,
      "鬯": 9971,
      "鬲": 9972,
      "鬶": 9973,
      "鬷": 9974,
      "鬻": 9975,
      "鬼": 9976,
      "魁": 9977,
      "魂": 9978,
      "魃": 9979,
      "魄": 9980,
      "魅": 9981,
      "魆": 9982,
      "魇": 9983,
      "魈": 9984,
      "魉": 9985,
      "魋": 9986,
      "魍": 9987,
      "魏": 9988,
      "魑": 9989,
      "魔": 9990,
      "鱼": 9991,
      "鱽": 9992,
      "鱾": 9993,
      "鱿": 9994,
      "鲀": 9995,
      "鲁": 9996,
      "鲂": 9997,
      "鲃": 9998,
      "鲅": 9999,
      "鲆": 10000,
      "鲇": 10001,
      "鲈": 10002,
      "鲉": 10003,
      "鲊": 10004,
      "鲋": 10005,
      "鲌": 10006,
      "鲍": 10007,
      "鲎": 10008,
      "鲏": 10009,
      "鲐": 10010,
      "鲑": 10011,
      "鲒": 10012,
      "鲔": 10013,
      "鲕": 10014,
      "鲖": 10015,
      "鲗": 10016,
      "鲘": 10017,
      "鲙": 10018,
      "鲚": 10019,
      "鲛": 10020,
      "鲜": 10021,
      "鲝": 10022,
      "鲞": 10023,
      "鲟": 10024,
      "鲠": 10025,
      "鲡": 10026,
      "鲢": 10027,
      "鲣": 10028,
      "鲤": 10029,
      "鲥": 10030,
      "鲦": 10031,
      "鲧": 10032,
      "鲨": 10033,
      "鲩": 10034,
      "鲪": 10035,
      "鲫": 10036,
      "鲬": 10037,
      "鲭": 10038,
      "鲮": 10039,
      "鲯": 10040,
      "鲰": 10041,
      "鲱": 10042,
      "鲲": 10043,
      "鲳": 10044,
      "鲴": 10045,
      "鲵": 10046,
      "鲶": 10047,
      "鲷": 10048,
      "鲸": 10049,
      "鲹": 10050,
      "鲺": 10051,
      "鲻": 10052,
      "鲼": 10053,
      "鲽": 10054,
      "鲾": 10055,
      "鲿": 10056,
      "鳀": 10057,
      "鳁": 10058,
      "鳂": 10059,
      "鳃": 10060,
      "鳄": 10061,
      "鳅": 10062,
      "鳇": 10063,
      "鳈": 10064,
      "鳉": 10065,
      "鳊": 10066,
      "鳌": 10067,
      "鳍": 10068,
      "鳎": 10069,
      "鳏": 10070,
      "鳐": 10071,
      "鳑": 10072,
      "鳒": 10073,
      "鳓": 10074,
      "鳔": 10075,
      "鳕": 10076,
      "鳖": 10077,
      "鳗": 10078,
      "鳘": 10079,
      "鳙": 10080,
      "鳚": 10081,
      "鳛": 10082,
      "鳜": 10083,
      "鳝": 10084,
      "鳞": 10085,
      "鳟": 10086,
      "鳠": 10087,
      "鳡": 10088,
      "鳢": 10089,
      "鳣": 10090,
      "鳤": 10091,
      "鳥": 10092,
      "鸟": 10093,
      "鸠": 10094,
      "鸡": 10095,
      "鸢": 10096,
      "鸣": 10097,
      "鸤": 10098,
      "鸥": 10099,
      "鸦": 10100,
      "鸧": 10101,
      "鸨": 10102,
      "鸩": 10103,
      "鸪": 10104,
      "鸫": 10105,
      "鸬": 10106,
      "鸭": 10107,
      "鸮": 10108,
      "鸯": 10109,
      "鸰": 10110,
      "鸱": 10111,
      "鸲": 10112,
      "鸳": 10113,
      "鸵": 10114,
      "鸶": 10115,
      "鸷": 10116,
      "鸸": 10117,
      "鸹": 10118,
      "鸺": 10119,
      "鸻": 10120,
      "鸼": 10121,
      "鸽": 10122,
      "鸾": 10123,
      "鸿": 10124,
      "鹀": 10125,
      "鹁": 10126,
      "鹂": 10127,
      "鹃": 10128,
      "鹄": 10129,
      "鹅": 10130,
      "鹆": 10131,
      "鹇": 10132,
      "鹈": 10133,
      "鹉": 10134,
      "鹊": 10135,
      "鹋": 10136,
      "鹌": 10137,
      "鹍": 10138,
      "鹎": 10139,
      "鹏": 10140,
      "鹐": 10141,
      "鹑": 10142,
      "鹒": 10143,
      "鹔": 10144,
      "鹕": 10145,
      "鹖": 10146,
      "鹗": 10147,
      "鹘": 10148,
      "鹙": 10149,
      "鹚": 10150,
      "鹛": 10151,
      "鹜": 10152,
      "鹝": 10153,
      "鹞": 10154,
      "鹟": 10155,
      "鹠": 10156,
      "鹡": 10157,
      "鹢": 10158,
      "鹣": 10159,
      "鹤": 10160,
      "鹦": 10161,
      "鹧": 10162,
      "鹨": 10163,
      "鹩": 10164,
      "鹪": 10165,
      "鹫": 10166,
      "鹬": 10167,
      "鹭": 10168,
      "鹮": 10169,
      "鹯": 10170,
      "鹰": 10171,
      "鹱": 10172,
      "鹲": 10173,
      "鹳": 10174,
      "鹴": 10175,
      "鹾": 10176,
      "鹿": 10177,
      "麀": 10178,
      "麂": 10179,
      "麇": 10180,
      "麈": 10181,
      "麋": 10182,
      "麑": 10183,
      "麒": 10184,
      "麓": 10185,
      "麖": 10186,
      "麗": 10187,
      "麝": 10188,
      "麟": 10189,
      "麦": 10190,
      "麸": 10191,
      "麹": 10192,
      "麻": 10193,
      "麽": 10194,
      "麾": 10195,
      "黄": 10196,
      "黇": 10197,
      "黉": 10198,
      "黍": 10199,
      "黎": 10200,
      "黏": 10201,
      "黑": 10202,
      "黔": 10203,
      "默": 10204,
      "黙": 10205,
      "黛": 10206,
      "黜": 10207,
      "黝": 10208,
      "黟": 10209,
      "黠": 10210,
      "黡": 10211,
      "黢": 10212,
      "黥": 10213,
      "黧": 10214,
      "黩": 10215,
      "黪": 10216,
      "黯": 10217,
      "黹": 10218,
      "黻": 10219,
      "黼": 10220,
      "黾": 10221,
      "鼋": 10222,
      "鼍": 10223,
      "鼎": 10224,
      "鼐": 10225,
      "鼒": 10226,
      "鼓": 10227,
      "鼗": 10228,
      "鼙": 10229,
      "鼠": 10230,
      "鼢": 10231,
      "鼩": 10232,
      "鼫": 10233,
      "鼬": 10234,
      "鼯": 10235,
      "鼱": 10236,
      "鼷": 10237,
      "鼹": 10238,
      "鼻": 10239,
      "鼽": 10240,
      "鼾": 10241,
      "齁": 10242,
      "齇": 10243,
      "齉": 10244,
      "齐": 10245,
      "齑": 10246,
      "齿": 10247,
      "龀": 10248,
      "龁": 10249,
      "龂": 10250,
      "龃": 10251,
      "龄": 10252,
      "龅": 10253,
      "龆": 10254,
      "龇": 10255,
      "龈": 10256,
      "龉": 10257,
      "龊": 10258,
      "龋": 10259,
      "龌": 10260,
      "龙": 10261,
      "龚": 10262,
      "龛": 10263,
      "龟": 10264,
      "龠": 10265,
      "龢": 10266,
      "鿍": 10267,
      "鿎": 10268,
      "鿏": 10269,
      "ꂼ": 10270,
      "ꂽ": 10271,
      "ꎟ": 10272,
      "ꏟ": 10273,
      "꒍": 10274,
      "ꕔ": 10275,
      "ꦁ": 10276,
      "ꦏ": 10277,
      "ꦔ": 10278,
      "ꦤ": 10279,
      "ꦫ": 10280,
      "ꦮ": 10281,
      "ꦱ": 10282,
      "ꦶ": 10283,
      "ꦼ": 10284,
      "꧀": 10285,
      "가": 10286,
      "각": 10287,
      "간": 10288,
      "감": 10289,
      "값": 10290,
      "갔": 10291,
      "같": 10292,
      "개": 10293,
      "거": 10294,
      "걱": 10295,
      "건": 10296,
      "걸": 10297,
      "검": 10298,
      "겁": 10299,
      "것": 10300,
      "겉": 10301,
      "게": 10302,
      "겠": 10303,
      "겨": 10304,
      "격": 10305,
      "결": 10306,
      "경": 10307,
      "계": 10308,
      "고": 10309,
      "골": 10310,
      "곳": 10311,
      "공": 10312,
      "과": 10313,
      "광": 10314,
      "교": 10315,
      "구": 10316,
      "국": 10317,
      "군": 10318,
      "굳": 10319,
      "굴": 10320,
      "권": 10321,
      "그": 10322,
      "근": 10323,
      "글": 10324,
      "금": 10325,
      "급": 10326,
      "기": 10327,
      "긴": 10328,
      "길": 10329,
      "김": 10330,
      "까": 10331,
      "깔": 10332,
      "깜": 10333,
      "깨": 10334,
      "꺼": 10335,
      "껍": 10336,
      "꼬": 10337,
      "꽃": 10338,
      "끝": 10339,
      "끼": 10340,
      "나": 10341,
      "난": 10342,
      "남": 10343,
      "낮": 10344,
      "낯": 10345,
      "내": 10346,
      "낸": 10347,
      "냐": 10348,
      "너": 10349,
      "널": 10350,
      "넓": 10351,
      "넣": 10352,
      "네": 10353,
      "녀": 10354,
      "년": 10355,
      "녕": 10356,
      "노": 10357,
      "높": 10358,
      "놓": 10359,
      "누": 10360,
      "눈": 10361,
      "느": 10362,
      "는": 10363,
      "늘": 10364,
      "능": 10365,
      "늦": 10366,
      "니": 10367,
      "다": 10368,
      "단": 10369,
      "담": 10370,
      "당": 10371,
      "대": 10372,
      "더": 10373,
      "던": 10374,
      "덧": 10375,
      "데": 10376,
      "도": 10377,
      "돌": 10378,
      "동": 10379,
      "돼": 10380,
      "됐": 10381,
      "되": 10382,
      "된": 10383,
      "될": 10384,
      "두": 10385,
      "뒤": 10386,
      "뒷": 10387,
      "드": 10388,
      "득": 10389,
      "든": 10390,
      "들": 10391,
      "등": 10392,
      "디": 10393,
      "따": 10394,
      "딱": 10395,
      "딸": 10396,
      "때": 10397,
      "땐": 10398,
      "떻": 10399,
      "또": 10400,
      "뛰": 10401,
      "뜨": 10402,
      "뜰": 10403,
      "띄": 10404,
      "라": 10405,
      "락": 10406,
      "람": 10407,
      "랐": 10408,
      "래": 10409,
      "랜": 10410,
      "러": 10411,
      "런": 10412,
      "럼": 10413,
      "렇": 10414,
      "레": 10415,
      "려": 10416,
      "력": 10417,
      "로": 10418,
      "록": 10419,
      "론": 10420,
      "롭": 10421,
      "료": 10422,
      "루": 10423,
      "르": 10424,
      "른": 10425,
      "를": 10426,
      "름": 10427,
      "리": 10428,
      "릴": 10429,
      "마": 10430,
      "막": 10431,
      "만": 10432,
      "많": 10433,
      "말": 10434,
      "맞": 10435,
      "매": 10436,
      "머": 10437,
      "먹": 10438,
      "먼": 10439,
      "멋": 10440,
      "메": 10441,
      "며": 10442,
      "면": 10443,
      "명": 10444,
      "모": 10445,
      "몰": 10446,
      "몸": 10447,
      "못": 10448,
      "무": 10449,
      "문": 10450,
      "묻": 10451,
      "물": 10452,
      "뭐": 10453,
      "미": 10454,
      "밀": 10455,
      "바": 10456,
      "박": 10457,
      "밖": 10458,
      "반": 10459,
      "받": 10460,
      "발": 10461,
      "방": 10462,
      "배": 10463,
      "번": 10464,
      "벌": 10465,
      "범": 10466,
      "별": 10467,
      "병": 10468,
      "보": 10469,
      "복": 10470,
      "봉": 10471,
      "봐": 10472,
      "부": 10473,
      "분": 10474,
      "불": 10475,
      "붉": 10476,
      "붙": 10477,
      "뷰": 10478,
      "브": 10479,
      "블": 10480,
      "비": 10481,
      "빈": 10482,
      "빠": 10483,
      "빨": 10484,
      "뻣": 10485,
      "사": 10486,
      "산": 10487,
      "살": 10488,
      "상": 10489,
      "새": 10490,
      "생": 10491,
      "서": 10492,
      "석": 10493,
      "선": 10494,
      "성": 10495,
      "세": 10496,
      "셨": 10497,
      "소": 10498,
      "속": 10499,
      "손": 10500,
      "송": 10501,
      "쇠": 10502,
      "수": 10503,
      "숙": 10504,
      "순": 10505,
      "숨": 10506,
      "쉽": 10507,
      "스": 10508,
      "슬": 10509,
      "습": 10510,
      "승": 10511,
      "시": 10512,
      "식": 10513,
      "신": 10514,
      "실": 10515,
      "싫": 10516,
      "심": 10517,
      "싶": 10518,
      "싸": 10519,
      "쌍": 10520,
      "써": 10521,
      "썹": 10522,
      "쓰": 10523,
      "씨": 10524,
      "아": 10525,
      "악": 10526,
      "안": 10527,
      "않": 10528,
      "알": 10529,
      "았": 10530,
      "앙": 10531,
      "앞": 10532,
      "애": 10533,
      "앨": 10534,
      "야": 10535,
      "약": 10536,
      "양": 10537,
      "어": 10538,
      "억": 10539,
      "언": 10540,
      "얻": 10541,
      "얼": 10542,
      "엄": 10543,
      "없": 10544,
      "엇": 10545,
      "었": 10546,
      "에": 10547,
      "엣": 10548,
      "여": 10549,
      "역": 10550,
      "연": 10551,
      "열": 10552,
      "였": 10553,
      "영": 10554,
      "예": 10555,
      "오": 10556,
      "올": 10557,
      "옷": 10558,
      "와": 10559,
      "왔": 10560,
      "왕": 10561,
      "왜": 10562,
      "외": 10563,
      "요": 10564,
      "용": 10565,
      "우": 10566,
      "운": 10567,
      "울": 10568,
      "웃": 10569,
      "워": 10570,
      "원": 10571,
      "웟": 10572,
      "웬": 10573,
      "웹": 10574,
      "위": 10575,
      "유": 10576,
      "율": 10577,
      "으": 10578,
      "은": 10579,
      "을": 10580,
      "음": 10581,
      "응": 10582,
      "의": 10583,
      "이": 10584,
      "익": 10585,
      "인": 10586,
      "일": 10587,
      "임": 10588,
      "입": 10589,
      "있": 10590,
      "자": 10591,
      "잘": 10592,
      "잠": 10593,
      "잡": 10594,
      "장": 10595,
      "재": 10596,
      "저": 10597,
      "적": 10598,
      "전": 10599,
      "절": 10600,
      "젊": 10601,
      "점": 10602,
      "정": 10603,
      "제": 10604,
      "젤": 10605,
      "져": 10606,
      "조": 10607,
      "좀": 10608,
      "좋": 10609,
      "죠": 10610,
      "주": 10611,
      "죽": 10612,
      "줄": 10613,
      "줌": 10614,
      "즌": 10615,
      "증": 10616,
      "지": 10617,
      "직": 10618,
      "진": 10619,
      "짐": 10620,
      "집": 10621,
      "짝": 10622,
      "쪽": 10623,
      "찍": 10624,
      "차": 10625,
      "참": 10626,
      "창": 10627,
      "처": 10628,
      "천": 10629,
      "철": 10630,
      "첫": 10631,
      "청": 10632,
      "체": 10633,
      "쳐": 10634,
      "최": 10635,
      "추": 10636,
      "춘": 10637,
      "출": 10638,
      "충": 10639,
      "춰": 10640,
      "츠": 10641,
      "측": 10642,
      "치": 10643,
      "친": 10644,
      "캠": 10645,
      "커": 10646,
      "켜": 10647,
      "코": 10648,
      "쿵": 10649,
      "크": 10650,
      "큰": 10651,
      "킢": 10652,
      "키": 10653,
      "킬": 10654,
      "타": 10655,
      "태": 10656,
      "터": 10657,
      "통": 10658,
      "투": 10659,
      "트": 10660,
      "특": 10661,
      "틀": 10662,
      "티": 10663,
      "팀": 10664,
      "팅": 10665,
      "파": 10666,
      "판": 10667,
      "팔": 10668,
      "퍼": 10669,
      "페": 10670,
      "펜": 10671,
      "편": 10672,
      "평": 10673,
      "포": 10674,
      "폴": 10675,
      "풀": 10676,
      "프": 10677,
      "픔": 10678,
      "피": 10679,
      "필": 10680,
      "하": 10681,
      "학": 10682,
      "한": 10683,
      "할": 10684,
      "합": 10685,
      "항": 10686,
      "해": 10687,
      "핵": 10688,
      "했": 10689,
      "행": 10690,
      "험": 10691,
      "혁": 10692,
      "현": 10693,
      "호": 10694,
      "혹": 10695,
      "홈": 10696,
      "홍": 10697,
      "화": 10698,
      "확": 10699,
      "환": 10700,
      "활": 10701,
      "황": 10702,
      "회": 10703,
      "후": 10704,
      "휘": 10705,
      "흔": 10706,
      "흙": 10707,
      "흥": 10708,
      "희": 10709,
      "히": 10710,
      "힐": 10711,
      "힘": 10712,
      "": 10713,
      "": 10714,
      "": 10715,
      "": 10716,
      "": 10717,
      "": 10718,
      "": 10719,
      "": 10720,
      "": 10721,
      "": 10722,
      "": 10723,
      "": 10724,
      "": 10725,
      "": 10726,
      "": 10727,
      "": 10728,
      "": 10729,
      "": 10730,
      "": 10731,
      "": 10732,
      "": 10733,
      "": 10734,
      "": 10735,
      "": 10736,
      "ﬀ": 10737,
      "ﬁ": 10738,
      "ﬂ": 10739,
      "ﯢ": 10740,
      "ﯣ": 10741,
      "ﯤ": 10742,
      "ﯥ": 10743,
      "ﯦ": 10744,
      "ﷺ": 10745,
      "️": 10746,
      "﹑": 10747,
      "﹙": 10748,
      "﹚": 10749,
      "﹝": 10750,
      "﹞": 10751,
      "﹪": 10752,
      "﻿": 10753,
      "！": 10754,
      "＃": 10755,
      "＄": 10756,
      "％": 10757,
      "（": 10758,
      "）": 10759,
      "＊": 10760,
      "，": 10761,
      "－": 10762,
      "．": 10763,
      "／": 10764,
      "０": 10765,
      "１": 10766,
      "２": 10767,
      "３": 10768,
      "４": 10769,
      "５": 10770,
      "：": 10771,
      "；": 10772,
      "＜": 10773,
      "＞": 10774,
      "？": 10775,
      "＼": 10776,
      "］": 10777,
      "｀": 10778,
      "～": 10779,
      "｡": 10780,
      "･": 10781,
      "ﾉ": 10782,
      "ﾞ": 10783,
      "ﾟ": 10784,
      "￥": 10785,
      "￼": 10786,
      "�": 10787,
      "𗝉": 10788,
      "𝜈": 10789,
      "🇨": 10790,
      "🇮": 10791,
      "🇴": 10792,
      "🇷": 10793,
      "🇸": 10794,
      "🇺": 10795,
      "🉑": 10796,
      "🌞": 10797,
      "🌰": 10798,
      "🌱": 10799,
      "🍉": 10800,
      "🎃": 10801,
      "🎈": 10802,
      "🎉": 10803,
      "🎶": 10804,
      "🏀": 10805,
      "🏃": 10806,
      "🏆": 10807,
      "🏻": 10808,
      "🏼": 10809,
      "🏽": 10810,
      "🏾": 10811,
      "🐅": 10812,
      "🐎": 10813,
      "🐐": 10814,
      "🐴": 10815,
      "👀": 10816,
      "👇": 10817,
      "👉": 10818,
      "👏": 10819,
      "👶": 10820,
      "👻": 10821,
      "👽": 10822,
      "💀": 10823,
      "💄": 10824,
      "💙": 10825,
      "💚": 10826,
      "💯": 10827,
      "📈": 10828,
      "📨": 10829,
      "🔎": 10830,
      "🔮": 10831,
      "🔵": 10832,
      "😀": 10833,
      "😂": 10834,
      "😄": 10835,
      "😇": 10836,
      "😈": 10837,
      "😉": 10838,
      "😊": 10839,
      "😍": 10840,
      "😎": 10841,
      "😛": 10842,
      "😜": 10843,
      "😟": 10844,
      "😢": 10845,
      "😬": 10846,
      "😭": 10847,
      "😾": 10848,
      "🙁": 10849,
      "🙂": 10850,
      "🙃": 10851,
      "🙌": 10852,
      "🙏": 10853,
      "🛠": 10854,
      "🛳": 10855,
      "🦃": 10856,
      "𠅤": 10857,
      "𠙶": 10858,
      "𠳐": 10859,
      "𡎚": 10860,
      "𡐓": 10861,
      "𣗋": 10862,
      "𣲗": 10863,
      "𣲘": 10864,
      "𣸣": 10865,
      "𣽷": 10866,
      "𤧛": 10867,
      "𤩽": 10868,
      "𤫉": 10869,
      "𥔲": 10870,
      "𥕢": 10871,
      "𥖨": 10872,
      "𥻗": 10873,
      "𦈡": 10874,
      "𦒍": 10875,
      "𦙶": 10876,
      "𦝼": 10877,
      "𦭜": 10878,
      "𦰡": 10879,
      "𧿹": 10880,
      "𨐈": 10881,
      "𨙸": 10882,
      "𨚕": 10883,
      "𨟠": 10884,
      "𨭉": 10885,
      "𨱇": 10886,
      "𨱏": 10887,
      "𨱑": 10888,
      "𨱒": 10889,
      "𨱔": 10890,
      "𨺙": 10891,
      "𩙥": 10892,
      "𩧨": 10893,
      "𩧴": 10894,
      "𩽾": 10895,
      "𩾃": 10896,
      "𩾌": 10897,
      "𪟝": 10898,
      "𪣻": 10899,
      "𪤗": 10900,
      "𪨰": 10901,
      "𪨶": 10902,
      "𪩘": 10903,
      "𪾢": 10904,
      "𫄧": 10905,
      "𫄨": 10906,
      "𫄷": 10907,
      "𫄸": 10908,
      "𫇭": 10909,
      "𫌀": 10910,
      "𫍢": 10911,
      "𫍣": 10912,
      "𫍯": 10913,
      "𫍲": 10914,
      "𫍽": 10915,
      "𫏋": 10916,
      "𫐄": 10917,
      "𫐆": 10918,
      "𫐐": 10919,
      "𫐓": 10920,
      "𫑡": 10921,
      "𫓧": 10922,
      "𫓯": 10923,
      "𫓶": 10924,
      "𫓹": 10925,
      "𫔍": 10926,
      "𫔎": 10927,
      "𫔶": 10928,
      "𫖮": 10929,
      "𫖯": 10930,
      "𫖳": 10931,
      "𫗧": 10932,
      "𫗴": 10933,
      "𫘜": 10934,
      "𫘝": 10935,
      "𫘣": 10936,
      "𫘦": 10937,
      "𫘧": 10938,
      "𫘨": 10939,
      "𫘪": 10940,
      "𫘬": 10941,
      "𫚉": 10942,
      "𫚕": 10943,
      "𫚖": 10944,
      "𫚭": 10945,
      "𫛭": 10946,
      "𫞩": 10947,
      "𫟅": 10948,
      "𫟦": 10949,
      "𫟹": 10950,
      "𫟼": 10951,
      "𫠆": 10952,
      "𫠊": 10953,
      "𫠜": 10954,
      "𫢸": 10955,
      "𫫇": 10956,
      "𫭟": 10957,
      "𫭢": 10958,
      "𫭼": 10959,
      "𫮃": 10960,
      "𫰛": 10961,
      "𫵷": 10962,
      "𫶇": 10963,
      "𫷷": 10964,
      "𫸩": 10965,
      "𬀩": 10966,
      "𬀪": 10967,
      "𬂩": 10968,
      "𬃊": 10969,
      "𬇕": 10970,
      "𬇙": 10971,
      "𬇹": 10972,
      "𬉼": 10973,
      "𬊈": 10974,
      "𬊤": 10975,
      "𬌗": 10976,
      "𬍛": 10977,
      "𬍡": 10978,
      "𬍤": 10979,
      "𬒈": 10980,
      "𬒔": 10981,
      "𬒗": 10982,
      "𬕂": 10983,
      "𬘓": 10984,
      "𬘘": 10985,
      "𬘡": 10986,
      "𬘩": 10987,
      "𬘫": 10988,
      "𬘬": 10989,
      "𬘭": 10990,
      "𬘯": 10991,
      "𬙂": 10992,
      "𬙊": 10993,
      "𬙋": 10994,
      "𬜬": 10995,
      "𬜯": 10996,
      "𬞟": 10997,
      "𬟁": 10998,
      "𬟽": 10999,
      "𬣙": 11000,
      "𬣞": 11001,
      "𬣡": 11002,
      "𬣳": 11003,
      "𬤇": 11004,
      "𬤊": 11005,
      "𬤝": 11006,
      "𬨂": 11007,
      "𬨎": 11008,
      "𬩽": 11009,
      "𬪩": 11010,
      "𬬩": 11011,
      "𬬭": 11012,
      "𬬮": 11013,
      "𬬱": 11014,
      "𬬸": 11015,
      "𬬹": 11016,
      "𬬻": 11017,
      "𬬿": 11018,
      "𬭁": 11019,
      "𬭊": 11020,
      "𬭎": 11021,
      "𬭚": 11022,
      "𬭛": 11023,
      "𬭤": 11024,
      "𬭩": 11025,
      "𬭬": 11026,
      "𬭯": 11027,
      "𬭳": 11028,
      "𬭶": 11029,
      "𬭸": 11030,
      "𬭼": 11031,
      "𬮱": 11032,
      "𬮿": 11033,
      "𬯀": 11034,
      "𬯎": 11035,
      "𬱖": 11036,
      "𬱟": 11037,
      "𬳵": 11038,
      "𬳶": 11039,
      "𬳽": 11040,
      "𬳿": 11041,
      "𬴂": 11042,
      "𬴃": 11043,
      "𬴊": 11044,
      "𬶋": 11045,
      "𬶍": 11046,
      "𬶏": 11047,
      "𬶐": 11048,
      "𬶟": 11049,
      "𬶠": 11050,
      "𬶨": 11051,
      "𬶭": 11052,
      "𬶮": 11053,
      "𬷕": 11054,
      "𬸘": 11055,
      "𬸚": 11056,
      "𬸣": 11057,
      "𬸦": 11058,
      "𬸪": 11059,
      "𬹼": 11060,
      "𬺈": 11061,
      "𬺓": 11062,
      "񂹂": 11063,
      "񎦂": 11064,
      "e ": 11065,
      " t": 11066,
      "s ": 11067,
      "in": 11068,
      " th": 11069,
      "er": 11070,
      "t ": 11071,
      "an": 11072,
      "d ": 11073,
      "on": 11074,
      "en": 11075,
      " the ": 11076,
      "or": 11077,
      ", ": 11078,
      "y ": 11079,
      "ar": 11080,
      "at": 11081,
      "al": 11082,
      "o ": 11083,
      "ou": 11084,
      "re": 11085,
      "ing": 11086,
      "it": 11087,
      "of": 11088,
      ". ": 11089,
      "st": 11090,
      "a ": 11091,
      "ic": 11092,
      "ed ": 11093,
      "and ": 11094,
      "ing ": 11095,
      "th": 11096,
      "om": 11097,
      "ion": 11098,
      "es": 11099,
      "er ": 11100,
      " to ": 11101,
      "il": 11102,
      "of ": 11103,
      "is ": 11104,
      "el": 11105,
      "ac": 11106,
      "ha": 11107,
      "is": 11108,
      "ed": 11109,
      "h ": 11110,
      "in ": 11111,
      "as": 11112,
      "for": 11113,
      ".\n": 11114,
      "es ": 11115,
      "ec": 11116,
      "ow": 11117,
      "at ": 11118,
      "ol": 11119,
      "an ": 11120,
      "am": 11121,
      "he ": 11122,
      "ent": 11123,
      "al ": 11124,
      "im": 11125,
      "as ": 11126,
      "ro": 11127,
      "id": 11128,
      "em": 11129,
      "ig": 11130,
      "ve ": 11131,
      "pl": 11132,
      "us": 11133,
      "ur": 11134,
      "wh": 11135,
      "all": 11136,
      "en ": 11137,
      "et": 11138,
      "ad": 11139,
      "un": 11140,
      "ir": 11141,
      "ion ": 11142,
      "ver": 11143,
      "on ": 11144,
      "ab": 11145,
      "ag": 11146,
      "wit": 11147,
      "ch": 11148,
      "os": 11149,
      " that ": 11150,
      "le": 11151,
      "e th": 11152,
      "k ": 11153,
      "and": 11154,
      "ay": 11155,
      "l ": 11156,
      "ent ": 11157,
      "for ": 11158,
      "The ": 11159,
      "con": 11160,
      "it ": 11161,
      "ex": 11162,
      "com": 11163,
      "you": 11164,
      "ul": 11165,
      "res": 11166,
      "of the ": 11167,
      "ri": 11168,
      "pro": 11169,
      "or ": 11170,
      "ot": 11171,
      "ly ": 11172,
      "ear": 11173,
      "n ": 11174,
      "op": 11175,
      "e t": 11176,
      "be": 11177,
      "ut": 11178,
      "li": 11179,
      "su": 11180,
      "ap": 11181,
      "was ": 11182,
      "fr": 11183,
      "’s ": 11184,
      "int": 11185,
      "s, ": 11186,
      "se": 11187,
      "sh": 11188,
      " the": 11189,
      "are ": 11190,
      "I ": 11191,
      "oun": 11192,
      "di": 11193,
      "with ": 11194,
      "ak": 11195,
      "ev": 11196,
      "oo": 11197,
      "ere ": 11198,
      "ew": 11199,
      "be ": 11200,
      "igh": 11201,
      "e, ": 11202,
      "ot ": 11203,
      "in the ": 11204,
      "ation": 11205,
      "our": 11206,
      "oc": 11207,
      "um": 11208,
      "Th": 11209,
      "oul": 11210,
      " to": 11211,
      "have ": 11212,
      "bl": 11213,
      "p ": 11214,
      "ers ": 11215,
      "20": 11216,
      "from": 11217,
      "ect": 11218,
      "est": 11219,
      "sa": 11220,
      ": ": 11221,
      "per": 11222,
      "qu": 11223,
      "uc": 11224,
      "ut ": 11225,
      "'s ": 11226,
      "ay ": 11227,
      "cl": 11228,
      "sp": 11229,
      "if": 11230,
      "ould ": 11231,
      "ill ": 11232,
      "oth": 11233,
      "enc": 11234,
      "de": 11235,
      "wor": 11236,
      "art": 11237,
      "act": 11238,
      "ation ": 11239,
      "out ": 11240,
      "ow ": 11241,
      "ic ": 11242,
      "s. ": 11243,
      "ist": 11244,
      "not ": 11245,
      "by ": 11246,
      "ra": 11247,
      "iv": 11248,
      "you ": 11249,
      "ant": 11250,
      "ate ": 11251,
      "one ": 11252,
      "e the ": 11253,
      "his ": 11254,
      "e. ": 11255,
      "le ": 11256,
      "por": 11257,
      "ir ": 11258,
      "gr": 11259,
      "has ": 11260,
      " this ": 11261,
      "ive ": 11262,
      "we": 11263,
      "end": 11264,
      "ed to ": 11265,
      "anc": 11266,
      ", the ": 11267,
      "e to ": 11268,
      "ff": 11269,
      "ill": 11270,
      "mor": 11271,
      "rec": 11272,
      "from ": 11273,
      "pr": 11274,
      "so ": 11275,
      "00": 11276,
      "ity ": 11277,
      "oug": 11278,
      "ally ": 11279,
      "ain": 11280,
      "” ": 11281,
      ") ": 11282,
      "y, ": 11283,
      "over": 11284,
      "ong": 11285,
      "e of ": 11286,
      "ep": 11287,
      "ew ": 11288,
      "all ": 11289,
      "will ": 11290,
      "et ": 11291,
      "out": 11292,
      "ter": 11293,
      "ov": 11294,
      "ess": 11295,
      "ud": 11296,
      "at the ": 11297,
      "with": 11298,
      "od": 11299,
      "pe": 11300,
      "som": 11301,
      "str": 11302,
      "ing the ": 11303,
      "s of ": 11304,
      "s and ": 11305,
      ", and ": 11306,
      "St": 11307,
      "we ": 11308,
      "\" ": 11309,
      "ar ": 11310,
      "。 ": 11311,
      "but ": 11312,
      "off": 11313,
      "ang": 11314,
      ". I": 11315,
      "m ": 11316,
      " they ": 11317,
      "year": 11318,
      "ob": 11319,
      "who ": 11320,
      "whic": 11321,
      "201": 11322,
      " their ": 11323,
      " to the ": 11324,
      "lik": 11325,
      "cont": 11326,
      "id ": 11327,
      "s to ": 11328,
      "any ": 11329,
      "ne": 11330,
      "ack": 11331,
      "ter ": 11332,
      "0 ": 11333,
      "th ": 11334,
      "up": 11335,
      "can ": 11336,
      "pos": 11337,
      "he": 11338,
      "inc": 11339,
      " tr": 11340,
      "ell": 11341,
      "iz": 11342,
      "hat ": 11343,
      "ies ": 11344,
      "port": 11345,
      "on the ": 11346,
      "which ": 11347,
      "were ": 11348,
      "est ": 11349,
      "ard": 11350,
      "our ": 11351,
      "do": 11352,
      "sc": 11353,
      "av": 11354,
      "ch ": 11355,
      "und": 11356,
      "would ": 11357,
      "ing to ": 11358,
      "ust ": 11359,
      ". The ": 11360,
      "ight": 11361,
      "An": 11362,
      "ight ": 11363,
      "other ": 11364,
      "f ": 11365,
      "es, ": 11366,
      "ass": 11367,
      "been ": 11368,
      "its ": 11369,
      "vi": 11370,
      "oll": 11371,
      "pres": 11372,
      "had ": 11373,
      "her ": 11374,
      "dis": 11375,
      "r ": 11376,
      "aw": 11377,
      "ost ": 11378,
      "og": 11379,
      " and ": 11380,
      "fin": 11381,
      "ial ": 11382,
      "ple ": 11383,
      "In": 11384,
      "st ": 11385,
      "ment": 11386,
      "ast ": 11387,
      "bec": 11388,
      "s.\n": 11389,
      "par": 11390,
      "19": 11391,
      "att": 11392,
      "’t ": 11393,
      "more ": 11394,
      "ord": 11395,
      "fir": 11396,
      "ed the ": 11397,
      "A ": 11398,
      "ey ": 11399,
      "po": 11400,
      "me": 11401,
      "mak": 11402,
      "ame ": 11403,
      "Ch": 11404,
      "ever": 11405,
      "kn": 11406,
      "form": 11407,
      "ment ": 11408,
      "ail": 11409,
      "said": 11410,
      "el ": 11411,
      "ough": 11412,
      "ast": 11413,
      "ser": 11414,
      "ad ": 11415,
      ". Th": 11416,
      "min": 11417,
      "ice ": 11418,
      "peo": 11419,
      "ug": 11420,
      "her": 11421,
      "pre": 11422,
      "own ": 11423,
      "aus": 11424,
      "af": 11425,
      "ated ": 11426,
      "about ": 11427,
      "ens": 11428,
      "e.\n": 11429,
      "for the ": 11430,
      "also ": 11431,
      "arg": 11432,
      "si": 11433,
      "and the ": 11434,
      "br": 11435,
      "ely ": 11436,
      "i ": 11437,
      "age ": 11438,
      "up ": 11439,
      "inter": 11440,
      " that": 11441,
      "ult": 11442,
      "ical ": 11443,
      "mon": 11444,
      "ary ": 11445,
      "go": 11446,
      "Wh": 11447,
      "pol": 11448,
      "acc": 11449,
      "your ": 11450,
      "ure ": 11451,
      "fl": 11452,
      "duc": 11453,
      "my ": 11454,
      " them": 11455,
      "ack ": 11456,
      "a l": 11457,
      "ure": 11458,
      "sel": 11459,
      " tim": 11460,
      "ound": 11461,
      "cr": 11462,
      "part": 11463,
      "y the ": 11464,
      "ign": 11465,
      "sid": 11466,
      "ip": 11467,
      "comm": 11468,
      "co": 11469,
      "ous": 11470,
      "ount": 11471,
      "ust": 11472,
      "comp": 11473,
      "work": 11474,
      "lin": 11475,
      "own": 11476,
      "ess ": 11477,
      "eth": 11478,
      "ubl": 11479,
      "e and ": 11480,
      "ph": 11481,
      "man": 11482,
      "play": 11483,
      "him": 11484,
      "fe": 11485,
      "ant ": 11486,
      "ese ": 11487,
      "ous ": 11488,
      "mer": 11489,
      "a s": 11490,
      "am ": 11491,
      "just ": 11492,
      "s the ": 11493,
      "emb": 11494,
      "itt": 11495,
      "ose ": 11496,
      "ity": 11497,
      "some ": 11498,
      "most ": 11499,
      "say": 11500,
      "what ": 11501,
      ". H": 11502,
      "- ": 11503,
      "said ": 11504,
      "when ": 11505,
      "day": 11506,
      "with the ": 11507,
      "way": 11508,
      "ite ": 11509,
      "ind": 11510,
      "able ": 11511,
      "no ": 11512,
      "dec": 11513,
      "ook": 11514,
      "ions ": 11515,
      "ly": 11516,
      "us ": 11517,
      "not": 11518,
      "5 ": 11519,
      "like ": 11520,
      ",” ": 11521,
      "1 ": 11522,
      "vid": 11523,
      "ef": 11524,
      "ach": 11525,
      "bet": 11526,
      "ence ": 11527,
      "Un": 11528,
      "old ": 11529,
      "new ": 11530,
      "er, ": 11531,
      "ed by ": 11532,
      "eg": 11533,
      "people ": 11534,
      "mar": 11535,
      "Al": 11536,
      "2 ": 11537,
      "ans": 11538,
      "ict": 11539,
      "ound ": 11540,
      "cre": 11541,
      "vers": 11542,
      "but": 11543,
      "wo ": 11544,
      "don": 11545,
      "ard ": 11546,
      "a f": 11547,
      "ain ": 11548,
      "re ": 11549,
      "”\n": 11550,
      "ed in ": 11551,
      "e that ": 11552,
      "if ": 11553,
      "ong ": 11554,
      ". B": 11555,
      "from the ": 11556,
      "ile ": 11557,
      "ick": 11558,
      "ann": 11559,
      "t of ": 11560,
      "'t ": 11561,
      " tak": 11562,
      ". S": 11563,
      "ood ": 11564,
      "ook ": 11565,
      "des": 11566,
      "she ": 11567,
      "ough ": 11568,
      "sec": 11569,
      "ire": 11570,
      "rat": 11571,
      "could ": 11572,
      "ish": 11573,
      "dr": 11574,
      "x ": 11575,
      "rem": 11576,
      "reg": 11577,
      " there ": 11578,
      "Tr": 11579,
      "do ": 11580,
[...]
